an 1
en 1
er 1
▁d 1
▁s 1
in 1
▁t 1
▁p 1
▁a 1
▁m 1
ar 1
es 1
▁n 1
on 1
at 1
▁k 1
▁c 1
or 1
el 1
al 1
is 1
▁b 1
et 1
▁v 1
▁l 1
it 1
as 1
▁o 1
▁h 1
un 1
il 1
▁f 1
re 1
am 1
em 1
om 1
os 1
ch 1
ad 1
▁g 1
ed 1
▁S 1
▁i 1
ak 1
ur 1
▁de 1
ti 1
▁п 1
us 1
▁w 1
ol 1
▁j 1
▁с 1
на 1
▁ا 1
▁A 1
▁in 1
▁e 1
▁M 1
te 1
ta 1
ro 1
ra 1
ie 1
▁th 1
ik 1
ul 1
▁T 1
▁P 1
ing 1
▁в 1
ра 1
ut 1
▁1 1
id 1
ни 1
im 1
▁D 1
ст 1
ic 1
▁y 1
ent 1
▁2 1
▁B 1
ir 1
ang 1
но 1
and 1
▁( 1
le 1
ag 1
um 1
▁z 1
ig 1
ia 1
▁r 1
▁K 1
.. 1
qu 1
▁C 1
то 1
ng 1
▁д 1
▁I 1
▁N 1
ot 1
ah 1
ко 1
▁ب 1
▁о 1
▁م 1
▁и 1
ро 1
ek 1
od 1
та 1
▁H 1
▁un 1
eg 1
st 1
▁на 1
▁E 1
ва 1
ре 1
▁en 1
▁L 1
ov 1
ci 1
не 1
те 1
ка 1
ap 1
ay 1
▁se 1
▁- 1
▁to 1
uk 1
▁з 1
iv 1
ab 1
▁м 1
▁qu 1
▁б 1
▁و 1
est 1
ли 1
ok 1
ud 1
ла 1
▁pr 1
... 1
ри 1
▁al 1
▁V 1
▁по 1
ان 1
▁R 1
▁na 1
го 1
▁la 1
ter 1
og 1
▁ال 1
▁the 1
▁د 1
▁ک 1
ion 1
▁F 1
▁G 1
▁ch 1
la 1
▁20 1
▁di 1
▁u 1
▁re 1
ен 1
▁đ 1
ist 1
ai 1
av 1
▁J 1
end 1
▁st 1
ти 1
ij 1
▁O 1
да 1
▁pro 1
▁tr 1
ers 1
ac 1
▁an 1
ou 1
ne 1
ow 1
ле 1
li 1
▁at 1
eb 1
ec 1
aj 1
▁for 1
▁за 1
sk 1
ار 1
▁W 1
во 1
▁con 1
op 1
ль 1
▁ت 1
▁el 1
▁у 1
iz 1
▁on 1
ло 1
▁and 1
▁а 1
▁of 1
ya 1
ri 1
▁par 1
de 1
▁3 1
▁τ 1
ob 1
up 1
▁sa 1
ant 1
ки 1
ess 1
je 1
eng 1
▁U 1
▁201 1
▁क 1
▁is 1
ма 1
na 1
ka 1
▁не 1
▁er 1
ны 1
are 1
ung 1
ere 1
▁– 1
▁" 1
▁si 1
ja 1
га 1
ce 1
▁og 1
▁ن 1
he 1
ill 1
▁com 1
▁ה 1
▁do 1
▁س 1
▁que 1
ub 1
ви 1
nd 1
▁je 1
az 1
را 1
▁et 1
ди 1
ine 1
▁per 1
ть 1
ni 1
ug 1
ost 1
ev 1
▁ко 1
00 1
де 1
ве 1
ال 1
▁es 1
ez 1
ind 1
▁da 1
▁ه 1
▁ч 1
▁sp 1
ari 1
si 1
se 1
▁ng 1
ell 1
to 1
hi 1
ست 1
ada 1
▁к 1
ma 1
ου 1
▁“ 1
ру 1
▁le 1
▁ne 1
▁po 1
▁dan 1
ort 1
és 1
▁ar 1
ör 1
ци 1
ke 1
ми 1
▁te 1
▁men 1
ای 1
▁स 1
ib 1
nh 1
▁про 1
▁4 1
▁ش 1
▁be 1
ver 1
kan 1
ся 1
▁ل 1
tr 1
ho 1
ме 1
▁su 1
▁or 1
ara 1
ih 1
▁5 1
är 1
oc 1
pl 1
▁med 1
▁е 1
▁ma 1
▁до 1
ana 1
▁پ 1
all 1
▁av 1
ny 1
ate 1
▁me 1
io 1
ین 1
ien 1
▁no 1
мо 1
же 1
ля 1
ation 1
▁да 1
▁т 1
no 1
▁ف 1
▁yang 1
ip 1
▁som 1
▁as 1
ata 1
▁op 1
▁П 1
ong 1
ور 1
und 1
▁ad 1
ام 1
▁ع 1
emb 1
ru 1
▁С 1
sa 1
▁ра 1
▁am 1
▁det 1
ня 1
▁π 1
▁it 1
▁på 1
for 1
ast 1
▁du 1
▁del 1
me 1
ha 1
▁ja 1
▁ל 1
ve 1
▁pre 1
по 1
▁des 1
че 1
▁sk 1
▁प 1
▁vi 1
▁κ 1
▁σ 1
art 1
oj 1
▁В 1
▁ка 1
▁ב 1
pr 1
▁מ 1
▁خ 1
ու 1
ens 1
▁се 1
▁_ 1
▁х 1
▁: 1
до 1
ні 1
▁ter 1
ста 1
wa 1
бо 1
ali 1
▁die 1
▁nh 1
▁та 1
tu 1
ات 1
▁Z 1
▁در 1
ina 1
▁α 1
der 1
ep 1
▁ر 1
ll 1
▁א 1
ko 1
▁Y 1
▁म 1
tt 1
▁от 1
▁il 1
ند 1
▁der 1
▁ac 1
▁ver 1
▁im 1
▁г 1
ite 1
ier 1
ich 1
ass 1
our 1
αι 1
ga 1
ele 1
ות 1
्य 1
ala 1
▁ka 1
ים 1
ten 1
▁ra 1
▁til 1
ama 1
▁so 1
▁« 1
за 1
▁то 1
ку 1
▁ج 1
va 1
▁In 1
чи 1
zy 1
ff 1
ard 1
▁19 1
▁pl 1
ры 1
▁om 1
ans 1
▁ap 1
्र 1
ki 1
▁ex 1
ale 1
ան 1
▁به 1
ча 1
си 1
▁آ 1
▁den 1
ku 1
اد 1
▁ph 1
▁ש 1
▁6 1
ler 1
▁ह 1
ati 1
▁od 1
20 1
▁мо 1
ás 1
▁ber 1
▁К 1
▁ob 1
ly 1
▁Н 1
ер 1
ет 1
▁za 1
▁fr 1
▁при 1
▁och 1
▁é 1
än 1
▁har 1
▁э 1
ze 1
▁ε 1
ks 1
▁man 1
сти 1
▁gr 1
ord 1
▁kh 1
▁со 1
per 1
ui 1
ão 1
ust 1
▁kan 1
ार 1
▁μ 1
ita 1
ht 1
▁ser 1
lar 1
▁М 1
лі 1
▁са 1
tion 1
▁kom 1
▁ж 1
ên 1
ون 1
▁ab 1
се 1
ния 1
▁ve 1
uc 1
ont 1
▁і 1
lo 1
ود 1
▁می 1
ning 1
▁об 1
ну 1
ge 1
ika 1
лу 1
ile 1
gr 1
па 1
са 1
▁x 1
▁em 1
▁um 1
). 1
ore 1
▁ro 1
ικ 1
▁ح 1
ın 1
▁vo 1
▁го 1
ente 1
ys 1
▁7 1
án 1
▁van 1
ту 1
▁ol 1
da 1
år 1
▁во 1
ett 1
ini 1
▁au 1
▁und 1
▁пре 1
▁mu 1
▁you 1
ги 1
ει 1
▁10 1
▁با 1
▁я 1
ന് 1
ше 1
▁ni 1
▁گ 1
▁af 1
▁А 1
ba 1
ông 1
сь 1
ду 1
▁sz 1
ani 1
ade 1
mi 1
му 1
ide 1
ith 1
▁by 1
ние 1
ts 1
▁sam 1
าร 1
▁ut 1
ál 1
▁Th 1
▁mo 1
▁min 1
▁gi 1
ón 1
со 1
▁ke 1
▁por 1
▁pe 1
▁8 1
▁att 1
mer 1
▁ма 1
uh 1
▁0 1
να 1
▁ре 1
▁... 1
▁Б 1
za 1
▁, 1
▁Т 1
▁Ch 1
▁para 1
▁est 1
்க 1
be 1
▁ق 1
сто 1
ี่ 1
ica 1
▁us 1
▁. 1
▁os 1
th 1
อง 1
ید 1
▁tak 1
ول 1
), 1
▁ku 1
▁bl 1
tor 1
ond 1
ene 1
▁ko 1
▁Д 1
lig 1
зи 1
▁де 1
eri 1
ის 1
au 1
▁î 1
▁те 1
▁न 1
▁that 1
asi 1
▁ф 1
ши 1
▁из 1
رد 1
tic 1
ven 1
▁ki 1
emp 1
ια 1
▁pos 1
▁he 1
▁О 1
▁ба 1
▁ی 1
nya 1
zi 1
iti 1
ác 1
▁„ 1
▁ak 1
ці 1
▁از 1
▁ब 1
ár 1
▁9 1
▁ti 1
▁ha 1
ran 1
amp 1
▁iz 1
ft 1
era 1
ju 1
yn 1
▁cu 1
▁ви 1
хо 1
▁nu 1
▁les 1
ado 1
ری 1
▁kon 1
men 1
ult 1
▁we 1
ты 1
red 1
int 1
▁τη 1
▁бо 1
▁200 1
▁var 1
▁من 1
▁dis 1
AN 1
▁pod 1
ებ 1
▁az 1
▁för 1
ici 1
ще 1
่า 1
▁أ 1
ər 1
ice 1
ür 1
▁ho 1
vo 1
න් 1
▁và 1
▁/ 1
اب 1
▁à 1
itt 1
▁res 1
▁ya 1
bl 1
▁Al 1
▁š 1
▁अ 1
▁па 1
र् 1
ela 1
▁mi 1
inn 1
ili 1
pp 1
ба 1
com 1
201 1
ym 1
▁व 1
ami 1
ua 1
▁inter 1
ér 1
▁ta 1
▁आ 1
ena 1
one 1
кі 1
▁sh 1
ave 1
▁ein 1
di 1
це 1
▁ו 1
▁pas 1
▁pa 1
ски 1
τα 1
form 1
eh 1
gen 1
gy 1
ber 1
▁Q 1
▁mer 1
uy 1
pe 1
▁را 1
▁St 1
▁în 1
▁Р 1
▁An 1
aya 1
ного 1
▁ba 1
▁ме 1
்த 1
che 1
át 1
եր 1
den 1
ที่ 1
ար 1
▁č 1
iss 1
▁met 1
ക് 1
▁ir 1
би 1
▁sv 1
amb 1
ye 1
▁lo 1
ві 1
tiv 1
▁br 1
ment 1
้า 1
▁q 1
▁ca 1
▁ك 1
we 1
▁است 1
▁[ 1
▁ž 1
▁pol 1
▁all 1
ды 1
▁' 1
мен 1
ement 1
пе 1
ør 1
рі 1
▁bi 1
akan 1
жа 1
्या 1
ima 1
лю 1
lu 1
oh 1
yd 1
ark 1
ca 1
▁with 1
▁У 1
▁là 1
το 1
▁الم 1
adi 1
ம் 1
▁но 1
▁are 1
ive 1
ية 1
▁र 1
▁va 1
▁meng 1
asa 1
res 1
▁δ 1
▁ע 1
▁ज 1
▁ed 1
rav 1
ön 1
▁και 1
uj 1
ско 1
gi 1
ila 1
је 1
▁вы 1
▁co 1
ρο 1
het 1
ين 1
ert 1
▁The 1
pa 1
▁द 1
ons 1
یر 1
ann 1
▁pers 1
ํา 1
▁din 1
yr 1
ori 1
unt 1
alam 1
ја 1
▁nie 1
▁wa 1
ende 1
▁ш 1
▁ik 1
yt 1
ato 1
ます 1
tuk 1
eni 1
▁что 1
▁De 1
▁és 1
sz 1
ck 1
жи 1
engan 1
▁En 1
▁het 1
▁چ 1
▁त 1
ườ 1
пи 1
ത് 1
fer 1
ity 1
isi 1
▁të 1
▁li 1
▁เ 1
age 1
ला 1
▁una 1
ue 1
▁пра 1
isk 1
ete 1
▁ز 1
და 1
▁раз 1
ista 1
ji 1
ới 1
any 1
اه 1
▁sem 1
ân 1
port 1
ura 1
лы 1
oll 1
▁15 1
▁kr 1
▁tu 1
ink 1
els 1
▁ро 1
ach 1
ern 1
cz 1
▁mas 1
▁(1 1
lik 1
ід 1
▁ي 1
▁‘ 1
enn 1
ane 1
ор 1
لا 1
ρα 1
▁2018 1
hat 1
▁är 1
ما 1
▁си 1
τε 1
▁მ 1
▁З 1
ất 1
▁Ar 1
que 1
▁dr 1
てい 1
ew 1
ने 1
▁ग 1
τη 1
ün 1
sp 1
ní 1
▁bu 1
▁که 1
äl 1
การ 1
▁бу 1
ере 1
▁my 1
▁12 1
▁Pro 1
atu 1
ül 1
ise 1
▁Pr 1
▁ہ 1
▁το 1
▁ist 1
▁có 1
gan 1
▁å 1
ại 1
▁ini 1
لی 1
isa 1
არ 1
ன் 1
▁И 1
ég 1
▁Un 1
मा 1
▁כ 1
сть 1
att 1
▁Tr 1
▁was 1
ור 1
ick 1
mo 1
ها 1
ento 1
nie 1
itu 1
ले 1
ца 1
bu 1
ów 1
ona 1
ben 1
ej 1
ных 1
▁meg 1
▁dengan 1
▁een 1
vi 1
▁ක 1
so 1
min 1
hr 1
▁του 1
ủa 1
▁prod 1
πο 1
▁18 1
ний 1
▁sel 1
▁á 1
.... 1
су 1
▁mod 1
▁— 1
▁của 1
▁dat 1
ime 1
ượ 1
ке 1
ema 1
▁ind 1
ER 1
▁این 1
को 1
▁str 1
kl 1
▁tra 1
▁ş 1
ora 1
▁ang 1
co 1
man 1
য় 1
aka 1
▁ப 1
▁су 1
رو 1
elt 1
▁untuk 1
uri 1
▁في 1
ני 1
000 1
AR 1
ít 1
мі 1
▁tid 1
né 1
ับ 1
▁fin 1
ær 1
esti 1
льно 1
▁ව 1
ан 1
ede 1
▁mat 1
sta 1
μα 1
ito 1
ска 1
ky 1
ër 1
net 1
▁up 1
▁ny 1
▁your 1
▁La 1
▁kar 1
ker 1
▁dem 1
kt 1
ike 1
eli 1
▁can 1
▁11 1
ση 1
▁ста 1
▁ent 1
ción 1
ano 1
iệ 1
▁X 1
▁ce 1
щи 1
▁भ 1
▁val 1
▁go 1
ді 1
▁ty 1
ння 1
ii 1
ego 1
▁los 1
зо 1
▁have 1
▁bir 1
▁Đ 1
▁के 1
ger 1
▁Г 1
ία 1
▁bes 1
zt 1
▁ва 1
ல் 1
йн 1
▁bo 1
ct 1
▁så 1
▁ان 1
ää 1
ем 1
cia 1
▁од 1
▁till 1
न् 1
go 1
ida 1
ss 1
eta 1
▁ç 1
▁aut 1
ων 1
ry 1
ção 1
▁not 1
ste 1
▁бе 1
ull 1
▁қ 1
▁che 1
انی 1
▁ö 1
ken 1
▁Se 1
sl 1
▁mar 1
ระ 1
ря 1
▁бы 1
ें 1
fi 1
▁γ 1
या 1
bi 1
гу 1
ase 1
اس 1
ակ 1
▁Ma 1
شت 1
ัน 1
вы 1
use 1
▁pot 1
ву 1
val 1
▁ο 1
nda 1
▁# 1
!! 1
ता 1
▁mit 1
▁comp 1
ết 1
ese 1
ione 1
ır 1
▁» 1
▁reg 1
▁י 1
ando 1
▁По 1
یم 1
EN 1
▁ü 1
▁для 1
én 1
▁это 1
тра 1
IN 1
وم 1
-1 1
▁son 1
ар 1
jo 1
olog 1
ban 1
ình 1
enti 1
ige 1
▁mai 1
▁her 1
▁kl 1
▁ص 1
ame 1
бе 1
old 1
nos 1
▁би 1
का 1
した 1
▁mak 1
از 1
alah 1
ার 1
▁ప 1
▁На 1
▁this 1
▁sin 1
▁pu 1
jen 1
agi 1
ლი 1
ám 1
una 1
ante 1
▁ප 1
▁க 1
uld 1
ться 1
▁bar 1
cial 1
rat 1
▁pi 1
▁ú 1
сы 1
chen 1
▁mem 1
urs 1
▁Det 1
ना 1
▁cho 1
▁El 1
сі 1
▁های 1
▁이 1
▁ს 1
oz 1
esta 1
▁cont 1
ish 1
ээ 1
bo 1
▁স 1
inen 1
що 1
▁13 1
гра 1
aga 1
▁പ 1
▁ни 1
▁ми 1
ire 1
ino 1
▁das 1
ely 1
▁dari 1
▁cl 1
▁ин 1
ilm 1
فت 1
if 1
elle 1
ρι 1
ins 1
▁tre 1
▁بر 1
ті 1
այ 1
лен 1
tig 1
▁ag 1
▁cons 1
க்க 1
ije 1
าม 1
▁nem 1
жно 1
ന്ന 1
▁memb 1
▁کی 1
ät 1
▁ব 1
asta 1
akt 1
eld 1
▁14 1
ight 1
▁ве 1
่อ 1
ша 1
▁seg 1
ola 1
ako 1
แล 1
▁zu 1
▁sur 1
▁kun 1
▁ক 1
ക്ക 1
ць 1
du 1
tik 1
▁vis 1
anya 1
▁ли 1
▁gen 1
▁sch 1
▁się 1
AT 1
▁με 1
▁ස 1
▁2017 1
▁over 1
▁No 1
aha 1
▁care 1
▁bet 1
▁sek 1
าย 1
cion 1
ille 1
្រ 1
▁ම 1
▁16 1
▁las 1
out 1
▁sl 1
▁క 1
sen 1
▁عل 1
ect 1
です 1
าก 1
▁رو 1
▁30 1
▁Le 1
ild 1
▁þ 1
ство 1
▁í 1
▁vol 1
ან 1
ర్ 1
ank 1
▁வ 1
ده 1
▁sig 1
lı 1
ula 1
▁של 1
ến 1
▁να 1
pt 1
ని 1
▁հ 1
ome 1
yk 1
пра 1
ces 1
ին 1
ét 1
wi 1
▁1. 1
он 1
ova 1
vis 1
wo 1
ings 1
eder 1
▁প 1
mas 1
▁person 1
▁Mar 1
zen 1
▁Na 1
▁sup 1
▁ക 1
▁प्र 1
her 1
gram 1
cl 1
▁25 1
fa 1
▁mil 1
▁sc 1
ול 1
νο 1
este 1
pos 1
स् 1
ха 1
ược 1
న్ 1
ras 1
ikan 1
اری 1
ные 1
وا 1
▁है 1
որ 1
▁هم 1
▁bel 1
్ర 1
nen 1
icht 1
ən 1
own 1
▁все 1
▁sy 1
кра 1
iri 1
ott 1
▁pour 1
line 1
▁сво 1
▁pen 1
esi 1
ột 1
▁17 1
▁sta 1
AL 1
▁있 1
ors 1
udi 1
aliz 1
ด้ 1
▁пред 1
vel 1
▁Re 1
pi 1
▁Е 1
ير 1
orm 1
ում 1
aran 1
iden 1
▁sm 1
்ட 1
ande 1
▁wh 1
▁jed 1
▁Sh 1
니다 1
ත් 1
▁ikke 1
▁& 1
▁jo 1
して 1
▁ett 1
atan 1
▁không 1
ld 1
yo 1
▁под 1
ats 1
▁god 1
▁ча 1
ure 1
ske 1
ър 1
क् 1
▁ge 1
пу 1
▁lu 1
olo 1
10 1
こと 1
ют 1
▁ud 1
fic 1
με 1
▁will 1
сно 1
мы 1
ို 1
▁fa 1
entru 1
une 1
ets 1
ית 1
▁ம 1
rit 1
▁хо 1
alt 1
▁تو 1
▁వ 1
angan 1
▁έ 1
▁các 1
=" 1
▁pra 1
▁inform 1
ega 1
▁este 1
lan 1
▁mag 1
ars 1
unk 1
▁ط 1
ිය 1
نا 1
▁وال 1
▁Com 1
▁ek 1
äm 1
▁Qu 1
ps 1
▁ಮ 1
▁dar 1
ija 1
lich 1
вен 1
par 1
تی 1
ày 1
eti 1
чно 1
▁has 1
tim 1
них 1
ции 1
τικ 1
ekt 1
స్ 1
▁mel 1
▁کے 1
ých 1
ól 1
nik 1
▁out 1
▁được 1
ogy 1
ือ 1
▁fac 1
ства 1
▁த 1
▁। 1
▁उ 1
вно 1
▁ಸ 1
ีย 1
imi 1
נו 1
uv 1
ല് 1
uz 1
▁kat 1
▁మ 1
ole 1
▁dalam 1
▁და 1
ner 1
ros 1
▁της 1
λο 1
▁का 1
ách 1
்ப 1
്ട 1
▁අ 1
1. 1
sh 1
ක් 1
▁ח 1
об 1
سی 1
ukan 1
▁fra 1
▁fi 1
▁ale 1
▁ச 1
ativ 1
▁ker 1
po 1
ạn 1
ém 1
▁ल 1
רו 1
▁የ 1
▁kö 1
нь 1
▁car 1
зна 1
ните 1
ove 1
▁как 1
▁rec 1
ose 1
▁ga 1
وی 1
▁from 1
่ง 1
▁von 1
fr 1
▁απ 1
AS 1
ಲ್ 1
ამ 1
ều 1
pro 1
▁кон 1
var 1
fe 1
ES 1
▁అ 1
зу 1
▁tel 1
atur 1
▁ક 1
ள் 1
30 1
คร 1
ใน 1
رای 1
▁? 1
തി 1
its 1
▁გ 1
oma 1
let 1
tre 1
imo 1
ON 1
las 1
ret 1
τι 1
ivers 1
▁prof 1
ել 1
▁leg 1
рга 1
han 1
uga 1
▁ur 1
org 1
▁mus 1
▁ei 1
ائ 1
্র 1
ười 1
って 1
alo 1
ych 1
▁inte 1
▁அ 1
бу 1
▁жи 1
▁إ 1
ubl 1
gg 1
▁За 1
▁að 1
nu 1
▁pres 1
▁ў 1
▁Ad 1
▁Vi 1
ack 1
▁اس 1
cht 1
▁në 1
▁tur 1
▁nj 1
ideo 1
▁hab 1
▁aj 1
าน 1
aja 1
له 1
த்த 1
ork 1
▁ای 1
▁श 1
้น 1
▁bil 1
▁че 1
▁tem 1
▁nov 1
ies 1
▁pentru 1
▁Per 1
▁egy 1
▁വ 1
кти 1
ser 1
εί 1
▁مو 1
гі 1
▁trong 1
▁ಕ 1
ania 1
▁Am 1
▁την 1
▁eller 1
▁jeg 1
por 1
▁but 1
▁ju 1
ない 1
ần 1
င် 1
ες 1
تر 1
ció 1
apat 1
▁một 1
ướ 1
▁ev 1
ный 1
oto 1
ím 1
2. 1
apa 1
edi 1
ater 1
▁Л 1
▁ef 1
ान 1
ép 1
▁κα 1
▁tidak 1
про 1
▁data 1
ally 1
▁המ 1
▁Х 1
▁So 1
▁sec 1
ores 1
▁post 1
็น 1
▁non 1
ತ್ 1
▁2. 1
▁कर 1
uka 1
zie 1
ัง 1
▁naj 1
ului 1
vat 1
▁fo 1
▁tod 1
▁organ 1
▁24 1
▁ها 1
▁Er 1
▁sit 1
uje 1
ութ 1
▁кото 1
▁је 1
les 1
וד 1
▁ok 1
ներ 1
্য 1
دا 1
▁* 1
eme 1
isti 1
▁sal 1
▁dig 1
вер 1
сте 1
▁ת 1
jon 1
kin 1
ერ 1
ươ 1
ري 1
ция 1
▁han 1
ản 1
ред 1
ico 1
▁ay 1
спо 1
▁itu 1
ës 1
uma 1
▁don 1
ரு 1
ava 1
▁में 1
iki 1
▁auf 1
▁seb 1
▁voor 1
▁100 1
ance 1
મા 1
▁இ 1
▁пере 1
רי 1
aw 1
ிய 1
▁sen 1
▁une 1
ados 1
ให 1
▁પ 1
jer 1
▁Α 1
▁dec 1
ും 1
▁với 1
ίν 1
▁مع 1
”, 1
br 1
▁dos 1
▁2016 1
als 1
िक 1
ิน 1
▁від 1
rem 1
▁kas 1
agy 1
gu 1
alit 1
ού 1
▁It 1
می 1
▁pag 1
نی 1
เป 1
ர் 1
▁jag 1
tab 1
uf 1
do 1
▁את 1
OR 1
った 1
▁è 1
ững 1
▁web 1
และ 1
50 1
▁nas 1
ят 1
бы 1
led 1
▁च 1
वा 1
▁dit 1
anda 1
▁ole 1
▁ئ 1
▁га 1
ember 1
ía 1
con 1
▁እ 1
ের 1
▁form 1
▁hel 1
▁Ph 1
مان 1
ren 1
ությ 1
jet 1
▁To 1
▁probl 1
AM 1
▁vil 1
する 1
ется 1
зе 1
▁für 1
aki 1
▁է 1
eka 1
IS 1
idad 1
αν 1
үү 1
▁الت 1
сле 1
▁să 1
▁sol 1
ays 1
ม่ 1
▁ту 1
▁kor 1
▁же 1
▁ನ 1
ph 1
▁ό 1
▁hogy 1
▁mul 1
▁må 1
ành 1
▁ata 1
len 1
àng 1
▁съ 1
ित 1
▁col 1
àn 1
vor 1
▁य 1
▁On 1
▁так 1
▁ර 1
ág 1
లు 1
get 1
▁! 1
ได้ 1
▁tot 1
ido 1
land 1
▁или 1
ux 1
anje 1
str 1
ook 1
lj 1
▁մ 1
้อ 1
ของ 1
หน 1
ents 1
uar 1
▁може 1
▁സ 1
▁ام 1
". 1
▁tro 1
▁tek 1
эн 1
▁dag 1
▁മ 1
▁mal 1
ään 1
ార 1
ella 1
▁prz 1
ной 1
▁pla 1
▁ye 1
ải 1
رب 1
▁fl 1
ường 1
чен 1
ща 1
anc 1
▁hal 1
ài 1
usi 1
by 1
▁(2 1
▁ку 1
▁nam 1
▁، 1
▁ද 1
بر 1
▁آن 1
▁για 1
нда 1
ska 1
▁Par 1
inh 1
lad 1
▁akan 1
▁người 1
ден 1
ash 1
że 1
și 1
▁ou 1
ನ್ 1
▁зна 1
▁vers 1
▁tar 1
iga 1
▁Sa 1
▁আ 1
▁id 1
▁ul 1
▁pri 1
", 1
▁ส 1
▁ਦ 1
tir 1
met 1
▁ten 1
anie 1
kom 1
ње 1
▁gj 1
▁ந 1
▁की 1
▁qui 1
▁mais 1
▁alle 1
▁wer 1
▁pred 1
▁Te 1
ira 1
▁dur 1
▁đi 1
▁Ка 1
▁inv 1
▁స 1
▁න 1
▁Ind 1
▁př 1
▁ком 1
▁Ε 1
▁pal 1
▁kur 1
able 1
ంద 1
▁ich 1
ake 1
▁nhi 1
▁pada 1
ών 1
zn 1
มี 1
ım 1
▁бай 1
▁fe 1
рт 1
anh 1
él 1
▁had 1
// 1
รา 1
▁fel 1
фи 1
▁చ 1
кт 1
▁And 1
ści 1
ket 1
▁کن 1
ət 1
kr 1
eren 1
▁wir 1
რო 1
▁Π 1
▁അ 1
▁дру 1
ும் 1
ран 1
▁për 1
enta 1
▁Az 1
či 1
▁الأ 1
λλ 1
▁사 1
▁more 1
▁şi 1
ισ 1
EL 1
▁como 1
▁Be 1
▁פ 1
▁ਸ 1
ider 1
▁war 1
▁50 1
▁ле 1
ուն 1
▁pat 1
áv 1
▁lä 1
alan 1
▁nos 1
oni 1
oli 1
▁کرد 1
▁Or 1
cha 1
ัก 1
ış 1
▁مح 1
▁lang 1
▁що 1
▁set 1
pre 1
hu 1
▁cor 1
▁को 1
хи 1
וב 1
ition 1
▁vir 1
לי 1
▁ե 1
▁wy 1
▁vy 1
št 1
▁pel 1
atis 1
▁수 1
▁θ 1
▁સ 1
▁ger 1
▁рабо 1
کی 1
ಲ್ಲ 1
aks 1
▁Di 1
став 1
ương 1
ամ 1
▁Gr 1
inta 1
▁ц 1
▁We 1
▁inf 1
amente 1
нг 1
▁лю 1
▁+ 1
▁int 1
▁میں 1
amo 1
▁او 1
ės 1
тель 1
ান 1
لي 1
ék 1
anta 1
▁pop 1
ვე 1
ail 1
кла 1
▁ম 1
▁wo 1
▁από 1
ந்த 1
▁İ 1
cess 1
▁sex 1
ाल 1
ór 1
”. 1
ಾರ 1
ute 1
▁ө 1
:// 1
əl 1
▁mes 1
▁χ 1
ingen 1
▁kn 1
▁Sp 1
▁ए 1
ಿದ 1
▁uk 1
から 1
יר 1
▁sim 1
▁aus 1
▁που 1
▁vel 1
▁Die 1
ức 1
▁Con 1
ôi 1
▁Ter 1
ations 1
xt 1
eden 1
от 1
▁mon 1
▁gro 1
▁η 1
▁Ver 1
▁rel 1
عد 1
▁under 1
▁Es 1
bar 1
▁ന 1
▁temp 1
▁như 1
jem 1
ijn 1
▁ק 1
нии 1
▁वि 1
▁dom 1
▁dal 1
▁կ 1
iver 1
▁chi 1
▁raz 1
▁dire 1
▁serv 1
▁trans 1
alm 1
ix 1
▁koj 1
vä 1
خت 1
▁kol 1
ната 1
▁Ber 1
ette 1
3. 1
▁በ 1
dy 1
сту 1
ப்ப 1
▁hat 1
ree 1
iy 1
▁sus 1
iste 1
లో 1
يد 1
nes 1
▁cer 1
▁Ab 1
ude 1
ây 1
▁dans 1
▁Sch 1
่น 1
▁nicht 1
▁những 1
▁ди 1
elen 1
▁2015 1
ever 1
pres 1
zer 1
ров 1
▁199 1
.” 1
▁spe 1
nak 1
ही 1
▁አ 1
▁He 1
ET 1
▁nap 1
▁ot 1
▁Me 1
ầu 1
▁Sie 1
тер 1
ている 1
ρά 1
▁peng 1
ament 1
▁și 1
▁sob 1
▁sich 1
▁ci 1
uta 1
ון 1
ín 1
raf 1
▁uz 1
▁aan 1
сли 1
▁For 1
▁program 1
▁cre 1
نگ 1
▁cel 1
yl 1
▁độ 1
▁má 1
▁Ne 1
aba 1
ange 1
фор 1
▁це 1
itet 1
▁Τ 1
து 1
▁As 1
▁All 1
ák 1
ật 1
ận 1
uch 1
τά 1
▁pun 1
она 1
▁Ч 1
▁му 1
▁Ф 1
ước 1
ty 1
▁3. 1
▁tal 1
▁bol 1
app 1
▁से 1
คว 1
▁blog 1
▁kad 1
▁one 1
▁נ 1
сті 1
▁ide 1
▁برای 1
▁als 1
▁• 1
ahan 1
▁συ 1
iko 1
дно 1
▁år 1
▁wi 1
IT 1
▁tan 1
ực 1
alis 1
ator 1
▁they 1
▁الع 1
▁ved 1
▁그 1
že 1
▁mot 1
യി 1
▁amb 1
iện 1
▁Eur 1
тов 1
▁loc 1
▁ਕ 1
لم 1
ăm 1
essa 1
▁21 1
ikk 1
▁Men 1
ों 1
▁hi 1
zo 1
še 1
▁ಅ 1
uni 1
▁dob 1
ular 1
нов 1
▁uma 1
ign 1
ಂದ 1
ര് 1
▁kes 1
uks 1
▁Σ 1
▁Je 1
▁mis 1
amil 1
▁about 1
لام 1
ました 1
inu 1
เล 1
▁على 1
aman 1
tid 1
эг 1
▁Ко 1
ăng 1
при 1
anja 1
▁इ 1
อย 1
▁jest 1
▁may 1
iter 1
▁sed 1
▁dhe 1
▁inn 1
에서 1
▁ins 1
▁nga 1
ính 1
inde 1
ட்ட 1
رت 1
▁oc 1
रा 1
▁gy 1
زی 1
▁sau 1
aca 1
▁غ 1
▁any 1
ას 1
די 1
else 1
▁எ 1
▁ما 1
มา 1
ster 1
ประ 1
▁Pol 1
▁pass 1
ատ 1
وان 1
▁prin 1
dr 1
▁kam 1
af 1
▁жа 1
ény 1
ła 1
ăn 1
▁roz 1
್ರ 1
iek 1
▁dé 1
tif 1
▁để 1
▁کو 1
یا 1
▁ха 1
cer 1
api 1
лар 1
vet 1
OS 1
orn 1
▁Bar 1
▁стра 1
▁) 1
ным 1
▁đã 1
נה 1
эр 1
ная 1
▁že 1
으로 1
▁inst 1
фе 1
12 1
igh 1
▁Ng 1
▁yn 1
▁στο 1
ρί 1
alu 1
▁> 1
ath 1
cu 1
ره 1
ace 1
▁Il 1
▁ಪ 1
del 1
ές 1
bil 1
▁tim 1
ald 1
rt 1
▁best 1
áz 1
." 1
19 1
▁Я 1
ary 1
ule 1
▁fir 1
وب 1
▁हो 1
зы 1
▁पर 1
▁сто 1
utta 1
▁ಹ 1
ται 1
▁Ka 1
▁kap 1
▁sub 1
nih 1
iten 1
AD 1
▁más 1
▁دا 1
▁ন 1
ode 1
εν 1
▁2014 1
cie 1
จะ 1
▁num 1
▁Ho 1
▁let 1
cy 1
▁ប 1
▁maj 1
աս 1
ავ 1
▁cas 1
त्र 1
-2 1
▁Br 1
ız 1
osi 1
▁Та 1
ில் 1
нд 1
▁22 1
▁plus 1
▁ג 1
▁vor 1
▁atau 1
▁ಬ 1
▁khi 1
ว่า 1
▁ste 1
▁thể 1
ходи 1
ilor 1
▁Ма 1
nej 1
ствен 1
▁හ 1
ones 1
ങ് 1
▁cs 1
▁вре 1
ουν 1
▁resp 1
▁bạn 1
ति 1
amm 1
unn 1
▁чи 1
▁beg 1
će 1
▁juga 1
▁Man 1
ร์ 1
▁dia 1
▁Kom 1
ları 1
utt 1
▁kep 1
▁Κ 1
ời 1
▁our 1
▁ख 1
▁Inter 1
aa 1
▁לה 1
mun 1
▁επ 1
каза 1
▁پر 1
ไม่ 1
▁త 1
ρό 1
▁online 1
ero 1
▁get 1
▁ст 1
گر 1
▁بی 1
▁proj 1
area 1
ski 1
ész 1
න්න 1
▁bisa 1
▁prim 1
ને 1
зі 1
mu 1
▁ү 1
istr 1
▁छ 1
▁cap 1
цы 1
tag 1
inin 1
▁τα 1
рова 1
یں 1
ាន 1
▁ben 1
ιο 1
▁ada 1
▁bez 1
יל 1
▁į 1
▁kt 1
ので 1
nosti 1
▁time 1
entr 1
વા 1
▁לא 1
dz 1
്പ 1
ple 1
лно 1
▁ත 1
▁if 1
эл 1
ội 1
▁gl 1
rag 1
เป็น 1
ച് 1
▁New 1
▁ass 1
▁προ 1
้ง 1
ге 1
uss 1
▁Э 1
ती 1
erv 1
▁대 1
▁এ 1
▁jak 1
▁word 1
▁ក 1
▁və 1
▁мі 1
หล 1
вя 1
ого 1
omo 1
▁Pre 1
iet 1
ister 1
isen 1
igt 1
ales 1
▁가 1
కు 1
בר 1
▁ус 1
ulu 1
σει 1
▁ai 1
ống 1
esto 1
্ত 1
▁eine 1
▁mind 1
стра 1
kel 1
▁auch 1
▁ру 1
▁gre 1
▁Du 1
сси 1
هم 1
eth 1
ங்க 1
▁Ha 1
▁ก 1
endo 1
▁menj 1
iva 1
ony 1
uli 1
., 1
вто 1
cij 1
▁ah 1
▁vid 1
▁ने 1
▁inc 1
ền 1
ให้ 1
ük 1
▁ду 1
▁જ 1
▁off 1
▁στη 1
▁Da 1
ستان 1
lov 1
▁part 1
▁کار 1
▁ය 1
wan 1
kat 1
اده 1
▁ס 1
chi 1
יה 1
illa 1
▁wat 1
▁hy 1
ად 1
ws 1
▁ר 1
हा 1
▁mga 1
ło 1
eks 1
่ว 1
ís 1
пре 1
äh 1
▁ад 1
▁کا 1
▁vous 1
▁بال 1
uan 1
▁دار 1
ริ 1
▁their 1
eda 1
fin 1
▁Si 1
▁спо 1
ilo 1
ск 1
over 1
▁تر 1
tions 1
ọc 1
▁parti 1
kar 1
äll 1
ുന്ന 1
ās 1
్య 1
▁dok 1
har 1
▁tut 1
▁adalah 1
▁ග 1
dag 1
▁دی 1
AK 1
▁gu 1
ള് 1
▁sud 1
бі 1
11 1
▁መ 1
ื่อ 1
▁hand 1
oka 1
▁пе 1
าง 1
ας 1
▁ih 1
ინ 1
nych 1
ರು 1
wn 1
ối 1
▁слу 1
▁Μ 1
ник 1
من 1
ား 1
жен 1
ರ್ 1
▁Ak 1
itar 1
▁mü 1
قد 1
iai 1
ิด 1
öl 1
▁meny 1
leg 1
▁أن 1
رف 1
ков 1
ında 1
▁40 1
cip 1
esse 1
anj 1
load 1
▁ہے 1
oi 1
เก 1
owa 1
ความ 1
лько 1
▁nak 1
▁아 1
ական 1
ện 1
ನ್ನ 1
▁tah 1
amos 1
άν 1
▁შ 1
▁just 1
9. 1
▁przy 1
دی 1
ono 1
ån 1
▁하 1
IL 1
8. 1
▁Kar 1
μο 1
▁ત 1
▁על 1
▁แ 1
▁خود 1
وز 1
вет 1
▁ze 1
▁β 1
ี้ 1
▁não 1
્ય 1
▁которы 1
ಾಗ 1
əs 1
▁ז 1
ně 1
▁23 1
yy 1
ơn 1
чу 1
ής 1
▁ਹ 1
▁φ 1
hen 1
▁نی 1
▁ov 1
▁Kr 1
ານ 1
▁công 1
rod 1
▁Ja 1
ijk 1
▁mom 1
alla 1
yi 1
of 1
ump 1
ъл 1
▁kä 1
▁eg 1
▁пла 1
abil 1
▁că 1
enter 1
▁આ 1
ži 1
▁cr 1
క్ 1
▁Har 1
त् 1
ға 1
▁leb 1
▁기 1
UR 1
ತ್ತ 1
ಗಳ 1
▁like 1
▁სა 1
ენ 1
▁орга 1
ավ 1
▁upp 1
ùng 1
otel 1
よう 1
▁Go 1
▁Den 1
▁Med 1
igen 1
ích 1
ée 1
ný 1
▁này 1
osta 1
onom 1
▁thu 1
്ര 1
▁হ 1
▁Pa 1
▁اور 1
้อง 1
kov 1
▁пи 1
гда 1
ök 1
▁ਨ 1
▁କ 1
iau 1
▁26 1
▁ស 1
▁ти 1
▁Не 1
▁само 1
▁ін 1
▁پی 1
ätt 1
▁få 1
▁تا 1
cs 1
bb 1
▁న 1
▁रा 1
▁neg 1
▁Min 1
▁फ 1
▁қа 1
entes 1
▁Pl 1
▁< 1
री 1
▁الس 1
שר 1
anti 1
وں 1
wer 1
ργ 1
▁Š 1
▁kal 1
ív 1
anto 1
esz 1
▁film 1
ownload 1
وە 1
5. 1
μέ 1
▁එ 1
yst 1
▁nog 1
omb 1
тре 1
ника 1
گی 1
7. 1
▁гра 1
وع 1
краї 1
▁ble 1
▁publ 1
ના 1
iku 1
▁della 1
▁organiz 1
oda 1
▁دو 1
▁stud 1
▁σε 1
вле 1
म् 1
чески 1
▁mor 1
ea 1
▁sav 1
हे 1
бли 1
ల్ 1
▁prov 1
ట్ 1
ეს 1
▁polit 1
▁اف 1
ebook 1
ány 1
▁rad 1
isten 1
/201 1
▁end 1
▁Но 1
▁ర 1
اره 1
▁4. 1
OM 1
▁Her 1
▁सा 1
▁plan 1
ಕ್ 1
انه 1
▁” 1
▁problem 1
▁Nam 1
зова 1
▁ପ 1
tek 1
λα 1
▁hu 1
िए 1
▁fil 1
elo 1
مل 1
რი 1
род 1
ões 1
▁ret 1
ട്ട 1
▁what 1
λη 1
▁far 1
кто 1
▁bah 1
ös 1
jes 1
▁ing 1
4. 1
▁без 1
ัด 1
▁pok 1
ში 1
▁Ро 1
». 1
▁fun 1
pen 1
▁red 1
▁saya 1
ional 1
λε 1
▁Ц 1
اف 1
ære 1
▁sang 1
aju 1
▁uit 1
▁priv 1
agai 1
ated 1
న్న 1
▁htt 1
ual 1
ום 1
▁स् 1
▁Bl 1
», 1
▁πα 1
▁sist 1
tur 1
ไป 1
ital 1
ther 1
ין 1
▁شد 1
hal 1
ulle 1
ლო 1
▁tip 1
▁ده 1
▁බ 1
▁ន 1
▁എ 1
▁Dr 1
UN 1
▁مس 1
▁liv 1
્ર 1
▁esc 1
▁his 1
とい 1
war 1
erg 1
▁alla 1
್ಯ 1
▁produk 1
вання 1
గా 1
usta 1
ते 1
▁અ 1
ling 1
▁кра 1
ams 1
្ន 1
omen 1
▁ant 1
▁છ 1
мя 1
▁alt 1
дар 1
▁kel 1
▁dol 1
▁từ 1
▁vý 1
▁pou 1
▁αν 1
yon 1
▁tai 1
aku 1
▁gö 1
▁bud 1
زار 1
ване 1
▁:) 1
ως 1
▁ig 1
▁Su 1
▁سے 1
▁nä 1
▁مت 1
OL 1
▁kita 1
vol 1
یت 1
ebut 1
ument 1
åg 1
▁về 1
▁Des 1
▁कि 1
▁skal 1
ED 1
▁пер 1
هر 1
にな 1
uto 1
forma 1
▁لە 1
kor 1
▁entre 1
ंग 1
40 1
ça 1
อน 1
ög 1
▁bus 1
▁Bu 1
ంచ 1
▁mig 1
▁په 1
▁làm 1
lav 1
▁Anda 1
▁kont 1
дан 1
ები 1
▁some 1
▁fol 1
▁sn 1
▁Dan 1
vr 1
▁sie 1
rac 1
▁už 1
sch 1
▁роз 1
▁iç 1
60 1
▁υ 1
▁ਵ 1
อก 1
וא 1
ایی 1
ίναι 1
▁ସ 1
ën 1
▁đến 1
pu 1
▁hai 1
ốc 1
▁له 1
▁Ex 1
▁You 1
pet 1
▁produc 1
▁tin 1
िय 1
ès 1
▁দ 1
ập 1
▁ges 1
osa 1
▁pak 1
▁Do 1
80 1
пі 1
▁kv 1
▁eur 1
ateg 1
▁фи 1
asti 1
ומ 1
▁2013 1
ಿಸ 1
mail 1
▁ა 1
ioni 1
sm 1
сько 1
▁kw 1
yar 1
ู้ 1
ble 1
нима 1
тся 1
▁nor 1
▁των 1
เร 1
عت 1
oga 1
▁At 1
่าง 1
▁bed 1
▁via 1
▁gan 1
тельно 1
▁did 1
▁sab 1
▁ವ 1
ली 1
▁мен 1
amin 1
mar 1
дна 1
тя 1
ši 1
▁bas 1
pon 1
ුව 1
ży 1
▁بود 1
▁지 1
▁nad 1
▁Ac 1
รับ 1
▁باش 1
▁وا 1
áng 1
▁Im 1
രി 1
റ് 1
▁nek 1
▁zijn 1
ID 1
sel 1
▁Mas 1
uda 1
raz 1
ಗೆ 1
▁خو 1
رک 1
ком 1
бра 1
▁воз 1
▁ez 1
νη 1
idade 1
ော 1
▁он 1
ıl 1
▁Po 1
▁ד 1
van 1
▁(1) 1
isu 1
cep 1
▁pom 1
ını 1
▁lev 1
क्ष 1
▁კ 1
▁ket 1
σε 1
gun 1
▁Ж 1
▁הא 1
▁© 1
US 1
▁თ 1
15 1
bet 1
âm 1
▁most 1
bas 1
▁sind 1
hich 1
▁Nh 1
رم 1
зво 1
▁ali 1
ungen 1
▁hist 1
EM 1
▁й 1
▁ako 1
ũng 1
nost 1
▁ters 1
▁sẽ 1
▁อ 1
amento 1
습니다 1
▁dụ 1
▁অ 1
jel 1
ғы 1
▁zd 1
▁zn 1
▁것 1
▁औ 1
يا 1
▁new 1
lər 1
obil 1
են 1
så 1
▁anda 1
τή 1
ți 1
өр 1
あり 1
▁cả 1
▁Is 1
گاه 1
!!! 1
ender 1
ेश 1
جه 1
▁یک 1
τό 1
ivo 1
ារ 1
ある 1
▁them 1
▁hay 1
ورد 1
▁مش 1
ങ്ങ 1
▁mark 1
▁import 1
áp 1
IC 1
alar 1
可以 1
▁ä 1
▁hier 1
▁dir 1
imin 1
ذا 1
يل 1
▁Ba 1
▁Ö 1
ම් 1
ું 1
▁한 1
,5 1
▁dapat 1
aten 1
▁Ш 1
بت 1
ār 1
▁nec 1
рта 1
ques 1
▁cz 1
วิ 1
də 1
ვი 1
▁обра 1
▁yo 1
▁work 1
ρε 1
תי 1
oug 1
▁시 1
▁전 1
▁Der 1
▁eff 1
nia 1
▁vr 1
▁Ang 1
▁there 1
nic 1
▁video 1
▁Fac 1
дин 1
▁put 1
▁że 1
ություն 1
▁tại 1
され 1
ulo 1
ants 1
▁lag 1
nis 1
▁Δ 1
ολ 1
وه 1
циа 1
一个 1
ái 1
ത്ത 1
ấy 1
▁Fran 1
вля 1
▁Ва 1
aire 1
▁Mo 1
.) 1
ним 1
umi 1
ાર 1
▁lab 1
▁الح 1
▁пу 1
ád 1
בי 1
бле 1
▁тре 1
ồng 1
oks 1
▁art 1
plic 1
тно 1
▁net 1
सा 1
gt 1
▁ค 1
▁عن 1
ін 1
സ് 1
▁تح 1
▁who 1
▁бі 1
стви 1
▁ris 1
cija 1
ைய 1
▁sj 1
自己 1
ope 1
▁gel 1
ory 1
▁gra 1
▁oo 1
▁poz 1
nolog 1
▁Sk 1
mat 1
▁είναι 1
ल् 1
नी 1
ಲ್ಲಿ 1
▁beh 1
เพ 1
▁دان 1
áo 1
ario 1
adr 1
▁; 1
שי 1
▁під 1
wy 1
▁Ko 1
enda 1
bal 1
▁ն 1
قت 1
ence 1
js 1
က် 1
6. 1
▁kul 1
▁ở 1
▁2012 1
▁lib 1
êu 1
nog 1
മാ 1
ades 1
માં 1
▁nev 1
▁لل 1
▁Ο 1
▁aw 1
▁zap 1
▁fot 1
ัว 1
▁27 1
ého 1
▁been 1
با 1
▁sor 1
tar 1
▁pov 1
uti 1
жу 1
▁would 1
▁oleh 1
▁ses 1
tal 1
▁hv 1
▁рас 1
เด 1
▁Reg 1
▁То 1
opp 1
▁mà 1
▁gener 1
▁Ра 1
ţi 1
▁nav 1
ରେ 1
▁vu 1
TA 1
-0 1
▁Про 1
ത്തി 1
▁Co 1
▁보 1
ək 1
▁prop 1
adas 1
▁दि 1
▁któ 1
ğı 1
ển 1
ąc 1
inya 1
mes 1
▁nó 1
▁Мо 1
จาก 1
oko 1
▁और 1
ece 1
▁што 1
▁dil 1
erd 1
▁น 1
▁kem 1
aza 1
▁orang 1
מו 1
форма 1
bat 1
ustr 1
ход 1
ції 1
upa 1
fl 1
кой 1
чки 1
▁nd 1
IA 1
inter 1
▁hàng 1
iro 1
öv 1
ovi 1
▁ще 1
ат 1
eva 1
▁โ 1
elef 1
▁Em 1
рти 1
▁मा 1
่อง 1
▁bij 1
▁ré 1
my 1
▁need 1
▁bek 1
▁which 1
yor 1
പ്പ 1
▁28 1
nek 1
▁pros 1
▁شده 1
дер 1
▁els 1
▁· 1
▁Kh 1
▁come 1
reg 1
▁thi 1
でき 1
тар 1
вати 1
▁bal 1
cri 1
▁lebih 1
azione 1
യാ 1
үй 1
ති 1
ges 1
ople 1
asan 1
▁بە 1
▁koji 1
пла 1
▁pow 1
oro 1
▁pan 1
чы 1
という 1
ุด 1
òng 1
▁iš 1
18 1
▁Car 1
ły 1
▁મ 1
▁gör 1
sten 1
我们 1
200 1
▁буде 1
▁exper 1
tav 1
▁הי 1
▁ത 1
taa 1
su 1
▁І 1
▁tom 1
ном 1
ines 1
kö 1
աց 1
▁છે 1
▁US 1
ść 1
anyak 1
▁ਪ 1
▁60 1
▁सं 1
▁ned 1
امه 1
ју 1
▁Fr 1
▁mog 1
▁ø 1
eto 1
▁much 1
▁also 1
▁bei 1
ской 1
assa 1
ey 1
▁også 1
jt 1
ums 1
▁lain 1
шы 1
▁find 1
bol 1
ей 1
ους 1
▁다 1
▁cũng 1
▁This 1
▁জ 1
кс 1
rio 1
kur 1
ns 1
▁जा 1
čen 1
▁Gi 1
▁say 1
وت 1
tie 1
▁Res 1
▁É 1
▁class 1
▁Mal 1
dan 1
▁when 1
ющи 1
iliz 1
▁थ 1
▁Č 1
för 1
ની 1
▁efter 1
zel 1
▁.. 1
▁ś 1
issa 1
িক 1
▁ବ 1
्ट 1
▁mah 1
trol 1
IK 1
مد 1
▁nhiều 1
▁Mer 1
yen 1
▁Bo 1
▁werden 1
мер 1
ől 1
▁제 1
κε 1
▁сай 1
▁2010 1
ions 1
itas 1
гово 1
жда 1
▁bro 1
▁lại 1
▁Os 1
ον 1
adu 1
فا 1
▁đó 1
▁При 1
▁정 1
▁pap 1
▁ww 1
▁deg 1
▁ල 1
ester 1
esk 1
osti 1
▁että 1
రి 1
ස් 1
▁vào 1
hol 1
لى 1
▁ever 1
▁diff 1
ęd 1
▁nghi 1
iew 1
стоя 1
ով 1
شن 1
▁αυ 1
লা 1
tive 1
lat 1
▁مج 1
▁مد 1
ั้ง 1
▁гэ 1
ady 1
ച്ച 1
рэ 1
▁aqu 1
ება 1
lem 1
eter 1
ào 1
▁5. 1
▁годи 1
้าน 1
יות 1
▁đị 1
▁авто 1
ei 1
▁ri 1
▁mereka 1
лов 1
▁या 1
amat 1
лан 1
стро 1
ват 1
วย 1
▁hav 1
▁θα 1
▁nhà 1
נים 1
▁ngh 1
ків 1
▁gal 1
ction 1
кий 1
▁има 1
▁sobre 1
ണ്ട 1
ทํา 1
▁know 1
▁nag 1
ную 1
▁tul 1
▁سال 1
▁сле 1
hte 1
کن 1
IM 1
▁کہ 1
▁@ 1
▁trên 1
ité 1
يم 1
rz 1
▁bak 1
▁pon 1
esso 1
เท 1
ock 1
ണ് 1
cel 1
▁how 1
iner 1
▁oder 1
med 1
šk 1
ких 1
▁હ 1
anu 1
▁အ 1
▁ktor 1
ics 1
▁wie 1
ాల 1
ex 1
▁વ 1
▁Sel 1
▁자 1
indi 1
ետ 1
▁që 1
▁sunt 1
3) 1
▁най 1
شی 1
▁than 1
ји 1
▁gar 1
▁km 1
▁eng 1
ultur 1
üm 1
úng 1
อบ 1
ను 1
ced 1
▁کر 1
oria 1
ical 1
▁nhất 1
▁ans 1
▁ఆ 1
▁фа 1
ාව 1
:00 1
▁Са 1
कार 1
ahr 1
ogle 1
izi 1
idi 1
ող 1
্ব 1
ytt 1
▁gia 1
▁Ре 1
ām 1
▁Sz 1
OT 1
به 1
hod 1
ảo 1
ෙන 1
▁কর 1
▁rend 1
▁fer 1
▁parte 1
ód 1
▁στην 1
▁Nor 1
▁tv 1
▁ი 1
rov 1
jed 1
▁cal 1
▁dies 1
ур 1
▁start 1
▁ban 1
▁lig 1
25 1
▁www 1
▁ա 1
шо 1
▁dass 1
itä 1
▁πε 1
रे 1
tica 1
▁geb 1
යි 1
▁esta 1
ligt 1
▁نظ 1
AG 1
ush 1
▁chỉ 1
▁kir 1
pat 1
▁now 1
ší 1
AB 1
से 1
ติ 1
▁vä 1
ịch 1
iment 1
▁mend 1
lag 1
▁oli 1
▁pet 1
pan 1
▁ኣ 1
AC 1
▁τον 1
▁see 1
▁über 1
▁боль 1
▁உ 1
ган 1
▁տ 1
ರಿ 1
▁sak 1
▁realiz 1
▁yap 1
ăr 1
▁במ 1
inger 1
17 1
тери 1
eny 1
▁bra 1
▁его 1
вать 1
▁mol 1
íc 1
▁ru 1
▁नि 1
uran 1
ının 1
▁tamb 1
ئی 1
ident 1
▁conc 1
▁nar 1
шу 1
್ದ 1
▁baş 1
ef 1
пер 1
oo 1
▁Ми 1
сан 1
▁และ 1
can 1
ρω 1
ంది 1
ਾਂ 1
▁bre 1
ალ 1
▁vez 1
▁avec 1
▁мы 1
AH 1
itel 1
▁ann 1
▁2011 1
▁Facebook 1
▁internet 1
▁niet 1
▁lok 1
▁vai 1
▁Por 1
▁ప్ర 1
▁ao 1
▁eu 1
ಸ್ 1
▁29 1
lam 1
▁въ 1
hd 1
▁Ta 1
-- 1
เข 1
▁н 1
gal 1
логи 1
▁kann 1
▁compl 1
▁dụng 1
▁ከ 1
▁ร 1
▁grup 1
يت 1
▁väl 1
▁Kon 1
āk 1
▁یا 1
▁bis 1
тел 1
áb 1
▁Ap 1
▁học 1
▁other 1
▁bị 1
▁ਮ 1
ating 1
2018 1
cio 1
uer 1
▁полу 1
▁બ 1
AP 1
kon 1
นี้ 1
טי 1
▁شود 1
▁tik 1
eten 1
▁nach 1
డి 1
▁bul 1
ίας 1
ied 1
atal 1
ydd 1
hy 1
ità 1
▁ке 1
rop 1
eber 1
▁tech 1
▁после 1
ופ 1
▁från 1
قی 1
ấp 1
ções 1
▁1, 1
ром 1
▁Ա 1
▁động 1
▁۱ 1
▁ต 1
▁ska 1
▁Со 1
డు 1
лага 1
เส 1
▁Հ 1
...] 1
▁saat 1
▁سی 1
▁cond 1
nom 1
▁Ob 1
éd 1
▁zo 1
▁incl 1
ee 1
▁sự 1
▁ម 1
กับ 1
രു 1
▁log 1
▁պ 1
ves 1
▁bec 1
▁ю 1
▁PR 1
▁sar 1
ुर 1
▁прои 1
▁ook 1
ils 1
▁Украї 1
emos 1
▁II 1
▁एक 1
▁тех 1
vin 1
▁พ 1
្ត 1
ww 1
▁дол 1
กล 1
лық 1
▁ച 1
▁ર 1
ık 1
▁neb 1
ул 1
▁tam 1
itor 1
unda 1
uku 1
▁$ 1
▁До 1
ดี 1
▁Во 1
▁τους 1
ası 1
enie 1
▁dim 1
ът 1
ná 1
ational 1
▁nou 1
16 1
ген 1
▁ഇ 1
гла 1
▁đầu 1
▁uns 1
ục 1
וק 1
୍ର 1
ếu 1
▁people 1
ιά 1
òn 1
14 1
င္ 1
נות 1
13 1
▁kommer 1
iem 1
UL 1
▁opp 1
ەی 1
க்கு 1
ayan 1
▁köz 1
ู่ 1
▁Om 1
▁make 1
▁mun 1
รม 1
▁js 1
ρη 1
▁Ser 1
▁ну 1
ած 1
ал 1
ume 1
दा 1
▁ला 1
ým 1
כל 1
▁това 1
▁تع 1
▁bon 1
tern 1
▁их 1
▁const 1
▁Jeg 1
▁τι 1
▁være 1
vu 1
три 1
ère 1
▁she 1
ổi 1
▁wor 1
ють 1
mm 1
▁Ed 1
▁ಆ 1
หม 1
úc 1
▁port 1
ड़ 1
nder 1
▁rom 1
▁gratis 1
▁menjadi 1
IR 1
▁dh 1
сла 1
ภา 1
▁dik 1
▁প্র 1
iny 1
ệc 1
ours 1
▁як 1
▁site 1
odi 1
իր 1
ారు 1
ặt 1
وری 1
atie 1
▁პ 1
하는 1
ული 1
▁mass 1
▁dating 1
fo 1
umu 1
▁რო 1
шен 1
ების 1
oss 1
้ว 1
▁آم 1
ote 1
తు 1
ọn 1
▁një 1
▁бол 1
lah 1
ორ 1
σης 1
ାର 1
adan 1
▁sho 1
oth 1
▁cur 1
▁dev 1
▁Nu 1
ós 1
には 1
iser 1
edd 1
▁हु 1
ciones 1
kol 1
лей 1
▁= 1
▁არ 1
ன்ற 1
ovan 1
▁public 1
ایت 1
ству 1
▁land 1
▁får 1
لك 1
ிற 1
raw 1
▁mir 1
नि 1
▁prom 1
اء 1
▁Ro 1
▁lah 1
▁% 1
▁बा 1
▁apr 1
esh 1
▁long 1
▁գ 1
▁sil 1
iske 1
தி 1
▁If 1
▁syst 1
▁hiện 1
▁dre 1
eller 1
hl 1
iji 1
▁مق 1
中国 1
▁sú 1
▁rem 1
்ச 1
▁سا 1
ative 1
▁ಇ 1
yg 1
êm 1
と思 1
вали 1
usa 1
ows 1
েন 1
▁super 1
ంట 1
зя 1
▁võ 1
▁주 1
▁phải 1
▁sudah 1
cije 1
пол 1
ەر 1
▁ху 1
ជា 1
▁ত 1
ôn 1
▁quan 1
▁năm 1
وق 1
▁hum 1
سم 1
ody 1
▁cum 1
▁việc 1
▁kepada 1
коно 1
▁Et 1
imit 1
دم 1
▁Ви 1
▁natur 1
▁Да 1
,” 1
▁դ 1
тив 1
egen 1
יד 1
नु 1
24 1
▁szer 1
ನ್ನು 1
ନ୍ 1
شر 1
▁Ag 1
ize 1
ობ 1
▁घ 1
▁even 1
では 1
âu 1
▁বি 1
ador 1
াল 1
вро 1
äng 1
▁Est 1
▁drug 1
рия 1
ād 1
▁الج 1
▁acc 1
ian 1
-3 1
▁thành 1
اند 1
jar 1
inan 1
▁ایر 1
tain 1
perti 1
▁צ 1
▁ट 1
ublik 1
▁Бо 1
yb 1
▁tä 1
▁før 1
ặc 1
▁сло 1
▁වි 1
70 1
▁zak 1
akukan 1
▁dei 1
▁บ 1
▁http 1
сты 1
elig 1
▁لا 1
лек 1
ემ 1
်း 1
▁tersebut 1
▁bien 1
▁ple 1
ći 1
▁Cl 1
▁Бе 1
ਾਰ 1
ugh 1
▁బ 1
ല്ല 1
ið 1
?? 1
ุณ 1
▁tôi 1
ắc 1
car 1
▁Ki 1
▁dist 1
▁satu 1
▁trad 1
▁tab 1
▁telah 1
▁Vo 1
▁обла 1
ton 1
ener 1
▁ras 1
tra 1
ませ 1
فر 1
клю 1
cher 1
atr 1
▁[...] 1
▁нь 1
ელ 1
▁Rom 1
iler 1
uat 1
jek 1
нию 1
▁Á 1
งาน 1
azi 1
▁want 1
ල් 1
tes 1
ონ 1
pis 1
▁ذ 1
▁בא 1
رار 1
kk 1
▁Ke 1
▁Bel 1
▁спе 1
ын 1
▁kil 1
ിയ 1
▁kos 1
गा 1
том 1
ръ 1
▁div 1
itter 1
▁job 1
▁skr 1
▁nel 1
قل 1
▁fost 1
▁mill 1
jan 1
ajo 1
▁pes 1
itat 1
fter 1
▁hem 1
য়ে 1
公司 1
▁qual 1
ています 1
▁Les 1
▁ting 1
่ม 1
aut 1
▁осно 1
onesia 1
▁bagi 1
owe 1
ագ 1
irm 1
▁kön 1
ција 1
ности 1
ുക 1
▁որ 1
▁số 1
aren 1
рын 1
▁نم 1
▁kami 1
ман 1
▁რ 1
▁ön 1
ằng 1
▁tri 1
site 1
ful 1
has 1
lə 1
▁ತ 1
ван 1
▁წ 1
kez 1
лови 1
▁можно 1
▁ess 1
อร์ 1
enden 1
▁الإ 1
▁svoj 1
yan 1
▁ആ 1
▁kut 1
وس 1
ตร 1
င်း 1
ടെ 1
▁tout 1
ंच 1
▁ເ 1
▁kwa 1
▁star 1
▁için 1
▁help 1
ikt 1
uter 1
ња 1
eck 1
zia 1
▁ont 1
▁وه 1
mal 1
▁quy 1
ාර 1
▁ili 1
▁sing 1
ются 1
▁بد 1
uu 1
нен 1
▁শ 1
▁said 1
ello 1
▁test 1
▁look 1
isto 1
www 1
▁უ 1
▁kj 1
iệu 1
▁famil 1
1, 1
iệt 1
מה 1
uyên 1
▁Η 1
nim 1
▁aku 1
ượng 1
нк 1
▁نے 1
xa 1
▁were 1
▁Sam 1
▁पा 1
ture 1
ாக 1
oti 1
če 1
▁ngày 1
▁ά 1
▁tag 1
ەک 1
ube 1
/0 1
اک 1
jd 1
▁vot 1
ví 1
その 1
▁אי 1
▁hos 1
istä 1
vir 1
خص 1
▁ಎ 1
ạo 1
▁ven 1
าว 1
ев 1
▁ነ 1
urg 1
▁ఇ 1
vers 1
▁ді 1
ningen 1
90 1
▁جم 1
▁DE 1
حد 1
▁sebagai 1
θη 1
工作 1
്യ 1
ского 1
▁će 1
ೆಯ 1
ικό 1
▁cent 1
▁tud 1
صل 1
йг 1
▁բ 1
▁Ü 1
▁bat 1
டி 1
▁Mon 1
▁tent 1
▁stat 1
2, 1
itate 1
▁Op 1
▁δια 1
▁អ 1
press 1
▁informa 1
▁ня 1
▁into 1
йте 1
ellen 1
▁только 1
▁exp 1
antes 1
וח 1
▁ile 1
شته 1
üt 1
▁198 1
▁karena 1
κα 1
apan 1
▁IN 1
▁finn 1
▁λ 1
стве 1
▁vien 1
▁norm 1
ません 1
etr 1
بي 1
skap 1
▁دست 1
oba 1
ệt 1
4) 1
cis 1
mit 1
رس 1
▁කර 1
▁απο 1
▁הח 1
▁use 1
▁era 1
▁wel 1
дь 1
ень 1
▁모 1
▁מה 1
νε 1
▁kok 1
edia 1
ның 1
▁인 1
▁bor 1
▁ਜ 1
dd 1
აც 1
▁Um 1
▁нас 1
▁tas 1
▁ost 1
θε 1
▁sou 1
▁TV 1
▁Ra 1
áll 1
nt 1
ண்ட 1
▁եւ 1
▁Amer 1
▁الن 1
ության 1
סי 1
▁banyak 1
กร 1
▁spr 1
ẩm 1
▁Val 1
кон 1
্ট 1
▁име 1
ことが 1
อา 1
▁दे 1
cional 1
بل 1
▁mund 1
▁કર 1
▁Song 1
▁hor 1
▁mang 1
▁materi 1
ungan 1
بار 1
тели 1
▁ens 1
iran 1
əm 1
ering 1
▁ដ 1
▁Jo 1
▁telef 1
▁уча 1
ిన 1
reb 1
ಿಯ 1
▁heb 1
ism 1
▁Па 1
▁vit 1
▁які 1
akin 1
▁tö 1
▁hot 1
жна 1
▁80 1
▁ар 1
▁san 1
šan 1
که 1
▁मु 1
▁cli 1
වා 1
بی 1
uba 1
▁sono 1
رات 1
▁года 1
▁други 1
akar 1
ื่อง 1
σεις 1
▁way 1
öt 1
▁lap 1
▁кои 1
зда 1
▁Mus 1
▁انت 1
ért 1
lim 1
▁Mat 1
▁bers 1
yle 1
▁تم 1
▁Str 1
ham 1
uke 1
▁nước 1
5) 1
▁نو 1
iness 1
▁6. 1
פר 1
▁imp 1
ểm 1
▁Mi 1
uhan 1
ек 1
ved 1
▁pem 1
▁term 1
▁dib 1
▁הת 1
▁хү 1
▁Nov 1
▁оста 1
ool 1
οι 1
▁soci 1
▁social 1
▁رس 1
iska 1
▁iş 1
htë 1
▁ві 1
▁بن 1
نده 1
पा 1
czy 1
gel 1
▁הש 1
▁fre 1
▁oper 1
лее 1
ھی 1
▁app 1
కి 1
ång 1
▁Jag 1
▁lik 1
ულ 1
▁الق 1
ayo 1
esa 1
▁Av 1
ices 1
▁вла 1
ød 1
▁រ 1
▁czy 1
يس 1
ارد 1
▁its 1
opa 1
▁компа 1
ộc 1
▁biz 1
▁много 1
שה 1
▁perf 1
▁kra 1
▁fut 1
▁ମ 1
▁eks 1
▁فر 1
mak 1
▁pad 1
▁dü 1
uru 1
▁sua 1
тен 1
▁مط 1
ení 1
เม 1
▁Bi 1
▁arr 1
ტი 1
▁ض 1
stand 1
...... 1
ří 1
tat 1
▁الا 1
กัน 1
▁dam 1
▁camp 1
onn 1
▁nost 1
enia 1
لس 1
াম 1
▁나 1
▁selv 1
ulla 1
▁thì 1
ใช 1
▁AB 1
etta 1
uden 1
▁dop 1
្ល 1
▁good 1
▁conf 1
▁лі 1
▁δεν 1
この 1
almente 1
▁गर् 1
эд 1
olu 1
▁kho 1
▁conta 1
реди 1
▁شو 1
ීම 1
рен 1
▁dla 1
ând 1
▁70 1
▁ተ 1
ურ 1
ilt 1
mp 1
ots 1
lin 1
▁bin 1
▁här 1
▁وی 1
ingga 1
øl 1
өл 1
الی 1
▁ඇ 1
eno 1
ші 1
gar 1
uw 1
್ಟ 1
▁lui 1
▁mie 1
▁vagy 1
▁sản 1
▁фор 1
▁ड 1
▁ал 1
▁mell 1
ється 1
يه 1
▁ги 1
▁일 1
мет 1
▁прави 1
UM 1
के 1
▁stand 1
ẫn 1
▁гру 1
OD 1
ിക്ക 1
öz 1
ót 1
▁એ 1
ார 1
▁ఉ 1
stä 1
▁Chr 1
plo 1
99 1
▁giá 1
II 1
▁למ 1
▁Tu 1
▁chính 1
leri 1
andi 1
ắt 1
▁stor 1
▁possi 1
esc 1
ứng 1
ség 1
可能 1
▁nur 1
▁ద 1
▁მო 1
▁enc 1
mis 1
▁wird 1
ින් 1
▁nghiệ 1
▁हैं 1
ạt 1
▁Қ 1
▁위 1
▁ஆ 1
▁ή 1
ấn 1
inte 1
▁någ 1
▁ਤ 1
▁वा 1
▁nat 1
▁cm 1
▁prav 1
ợp 1
ram 1
▁ఎ 1
▁помо 1
▁ਅ 1
▁הע 1
▁back 1
lex 1
ša 1
▁ren 1
▁Γ 1
▁hvor 1
rá 1
▁vari 1
▁بعد 1
वि 1
bay 1
▁کش 1
had 1
หร 1
▁fram 1
ασ 1
ët 1
ycz 1
اید 1
rad 1
erne 1
▁noch 1
мента 1
▁’ 1
vez 1
äs 1
χει 1
teri 1
▁maar 1
▁hj 1
▁seperti 1
▁органи 1
iap 1
▁einen 1
vent 1
emi 1
▁sum 1
▁Tur 1
▁rak 1
ोग 1
mon 1
▁lagi 1
▁più 1
āt 1
elu 1
▁sag 1
:0 1
▁경 1
ograf 1
веде 1
▁Việt 1
います 1
рон 1
kal 1
டு 1
▁seu 1
45 1
hir 1
▁οι 1
▁Ge 1
▁सम 1
▁tiế 1
▁doc 1
ทย 1
url 1
ijo 1
ून 1
▁sont 1
▁చే 1
▁very 1
ği 1
نه 1
ця 1
åd 1
▁ani 1
inc 1
დი 1
rar 1
▁إلى 1
AY 1
▁Post 1
▁Indonesia 1
▁וה 1
льного 1
▁จ 1
▁اند 1
▁situ 1
urt 1
▁ак 1
▁cam 1
şı 1
▁ئە 1
зва 1
▁Mil 1
▁الد 1
וג 1
▁ped 1
ници 1
ική 1
▁Som 1
ادی 1
וע 1
IV 1
▁nan 1
қа 1
▁Od 1
ูก 1
▁wak 1
▁gib 1
té 1
zd 1
▁bag 1
gang 1
▁every 1
▁Univers 1
ັນ 1
cur 1
ների 1
▁send 1
▁Google 1
▁Li 1
orang 1
▁Download 1
ánh 1
לה 1
▁Das 1
▁My 1
rib 1
▁време 1
িত 1
▁sah 1
▁kao 1
гийн 1
pad 1
▁نه 1
▁está 1
jak 1
▁ord 1
odo 1
лове 1
▁nhân 1
▁lat 1
▁90 1
.0 1
▁lie 1
imb 1
▁цен 1
ահ 1
эх 1
▁qua 1
пы 1
▁hon 1
▁необ 1
▁hun 1
): 1
ప్ 1
aste 1
▁add 1
nad 1
ката 1
lt 1
▁mới 1
arch 1
▁hơn 1
empre 1
▁Mu 1
▁2009 1
ху 1
▁tet 1
▁only 1
▁гла 1
▁dep 1
▁τις 1
ơi 1
ată 1
ზე 1
▁när 1
▁Ste 1
▁nous 1
▁tahun 1
িন 1
▁ना 1
▁कार 1
تم 1
▁дан 1
доб 1
EC 1
цен 1
ผู้ 1
▁forma 1
▁Video 1
▁San 1
вого 1
EK 1
чна 1
fel 1
▁teh 1
arn 1
▁real 1
UT 1
ål 1
▁בע 1
▁등 1
▁sama 1
▁day 1
▁berb 1
▁air 1
▁чу 1
▁வி 1
iks 1
▁ки 1
ില 1
ates 1
▁list 1
нер 1
ók 1
ST 1
ρισ 1
iza 1
▁Sal 1
elor 1
inti 1
لف 1
رح 1
▁ث 1
ρώ 1
nym 1
▁Sup 1
23 1
тай 1
하고 1
▁hợp 1
▁35 1
▁ብ 1
:3 1
▁공 1
вания 1
ivid 1
aje 1
امل 1
oon 1
nika 1
▁الله 1
вой 1
▁Mag 1
ưa 1
▁thế 1
▁pie 1
akat 1
▁ná 1
ونه 1
▁gam 1
arna 1
द् 1
sto 1
ност 1
▁cha 1
abr 1
нан 1
▁Tak 1
▁того 1
റ്റ 1
anga 1
ես 1
▁כל 1
▁well 1
▁будет 1
jav 1
ску 1
▁sangat 1
▁ទ 1
inden 1
ั้น 1
▁ked 1
▁finan 1
▁سر 1
▁Pers 1
▁rum 1
▁rev 1
ալ 1
jas 1
▁profess 1
हि 1
רא 1
zą 1
▁main 1
6) 1
▁fam 1
▁Ç 1
ায় 1
ję 1
▁door 1
่าน 1
ಿದ್ದ 1
umb 1
▁speci 1
▁vad 1
▁Online 1
▁lj 1
entar 1
ின் 1
▁oh 1
bor 1
▁ons 1
▁тако 1
ious 1
▁định 1
ಿಕ 1
eve 1
ίδ 1
ANG 1
▁cop 1
▁ይ 1
ин 1
▁minut 1
тия 1
▁зо 1
▁испо 1
gl 1
▁Ş 1
дом 1
▁here 1
▁Го 1
▁App 1
hor 1
øre 1
abi 1
▁blir 1
▁lar 1
▁ши 1
▁activ 1
▁bur 1
▁thông 1
“, 1
ອງ 1
▁tə 1
▁są 1
ảng 1
σα 1
▁Joh 1
▁Ба 1
לא 1
inda 1
user 1
ūs 1
μό 1
▁중 1
▁prote 1
▁اج 1
عه 1
▁dro 1
եւ 1
ето 1
ึง 1
▁आप 1
omat 1
ivi 1
можно 1
zione 1
िया 1
цца 1
บบ 1
lek 1
cul 1
ෙන් 1
▁Web 1
▁μέ 1
▁ព 1
רים 1
▁እን 1
los 1
▁first 1
unu 1
▁sinh 1
ments 1
duk 1
ində 1
ิต 1
▁What 1
▁ս 1
szy 1
жде 1
▁لی 1
▁xu 1
rea 1
gov 1
▁comun 1
▁mình 1
▁što 1
дра 1
ంత 1
عة 1
就是 1
▁Ku 1
idos 1
لو 1
▁ανα 1
emu 1
▁kab 1
▁mad 1
imento 1
▁زی 1
nal 1
▁vl 1
ған 1
▁top 1
▁све 1
asjon 1
ması 1
نے 1
far 1
▁mik 1
▁pil 1
▁2019 1
▁prac 1
зни 1
ρέ 1
ems 1
7) 1
▁אח 1
▁ඉ 1
inal 1
eza 1
рите 1
ος 1
▁осо 1
row 1
yw 1
onder 1
ುವ 1
▁ರ 1
μά 1
22 1
▁më 1
өө 1
bin 1
aria 1
▁tư 1
▁ข 1
ាំ 1
▁או 1
בל 1
idades 1
▁фо 1
imas 1
▁zá 1
inst 1
▁Ah 1
▁চ 1
▁като 1
▁গ 1
▁kup 1
чение 1
etu 1
▁ایران 1
слу 1
▁Rep 1
▁عم 1
でも 1
▁روز 1
▁وت 1
▁ته 1
▁тра 1
▁jan 1
▁dell 1
ное 1
ર્ 1
тэ 1
ลา 1
тро 1
ारी 1
▁years 1
▁think 1
▁Sep 1
', 1
▁sử 1
▁გა 1
▁செ 1
NG 1
▁случа 1
ters 1
ଙ୍ 1
▁500 1
बा 1
▁র 1
▁hari 1
ეთ 1
ektr 1
▁εκ 1
чень 1
дат 1
цій 1
тере 1
லை 1
いて 1
▁nes 1
út 1
▁litt 1
irt 1
▁prost 1
▁fyr 1
ිර 1
▁Eng 1
ốt 1
amu 1
▁asi 1
aji 1
▁Fl 1
ữa 1
اص 1
்ற 1
▁nên 1
arte 1
▁ન 1
ungs 1
▁cao 1
▁Ek 1
omi 1
▁ป 1
▁ты 1
▁ბ 1
▁volt 1
▁الش 1
▁kit 1
▁pert 1
แล้ว 1
▁Col 1
ties 1
▁дей 1
ough 1
neh 1
▁tap 1
▁было 1
▁Росси 1
yll 1
ταν 1
▁आहे 1
▁рі 1
▁వి 1
▁Kan 1
▁haben 1
ման 1
itan 1
imp 1
ใจ 1
▁గ 1
▁pemb 1
ún 1
▁Ti 1
▁við 1
▁ም 1
คน 1
ová 1
▁Ze 1
juk 1
вни 1
avo 1
दी 1
हर 1
стави 1
▁شما 1
▁sat 1
▁ос 1
రు 1
▁может 1
пера 1
▁שה 1
åde 1
▁faz 1
▁время 1
дни 1
ก็ 1
▁could 1
kap 1
▁aktiv 1
▁hom 1
था 1
టి 1
ிர 1
▁cách 1
▁Gu 1
ír 1
▁ша 1
▁aga 1
elser 1
стан 1
▁هر 1
ING 1
▁vill 1
гаа 1
いた 1
▁mid 1
ndan 1
लाई 1
▁υπ 1
cr 1
ших 1
▁மு 1
iec 1
▁bli 1
▁Allah 1
λλά 1
ības 1
quip 1
ार् 1
iej 1
▁sik 1
riend 1
▁rep 1
enk 1
יק 1
нови 1
سب 1
▁last 1
▁վ 1
▁osob 1
ته 1
▁если 1
▁য 1
▁artic 1
rab 1
วัน 1
ການ 1
सी 1
ễn 1
aye 1
▁vet 1
iset 1
റെ 1
▁jos 1
▁జ 1
кан 1
▁εν 1
ốn 1
ئے 1
ях 1
ði 1
▁moment 1
▁2008 1
յան 1
▁fund 1
elm 1
ox 1
ają 1
ัย 1
▁rest 1
▁گفت 1
▁ท 1
▁Î 1
▁cost 1
▁7. 1
inder 1
▁cir 1
▁오 1
äk 1
▁bit 1
uts 1
▁Pal 1
кре 1
▁سو 1
లి 1
olg 1
ற்ற 1
▁dod 1
▁fav 1
▁aber 1
▁information 1
▁которые 1
તા 1
▁اد 1
▁these 1
-201 1
चा 1
▁kot 1
▁Jan 1
عل 1
ða 1
▁كه 1
ání 1
▁ia 1
▁ಮಾ 1
▁ill 1
▁реа 1
ាក 1
▁-- 1
imm 1
▁trường 1
▁còn 1
вање 1
вори 1
▁oss 1
▁helt 1
дей 1
▁► 1
▁admin 1
ilis 1
▁31 1
▁mov 1
æk 1
ложе 1
ष्ट 1
▁sistem 1
eksi 1
3, 1
ართ 1
eria 1
æl 1
▁Dis 1
▁char 1
▁Ing 1
▁apa 1
▁نا 1
୍ୟ 1
vik 1
:5 1
ovo 1
▁여 1
نج 1
ρχ 1
▁vend 1
ными 1
вых 1
▁ї 1
ాయ 1
rek 1
fen 1
কে 1
arr 1
ılı 1
eting 1
sko 1
เว 1
ります 1
▁điều 1
cias 1
▁ਦੇ 1
zz 1
λογ 1
רכ 1
▁tit 1
▁2, 1
лся 1
OK 1
ต่ 1
div 1
ēt 1
unan 1
спе 1
▁있다 1
▁Aut 1
▁어 1
▁dv 1
▁memil 1
▁rất 1
คุณ 1
த்து 1
త్ 1
▁delle 1
▁проце 1
▁dest 1
▁ہیں 1
ischen 1
▁thời 1
ities 1
ób 1
▁zum 1
וצ 1
ồi 1
▁ја 1
▁Pe 1
▁რომ 1
▁نش 1
гүй 1
ینی 1
ია 1
šn 1
abe 1
1) 1
лось 1
itos 1
ober 1
йл 1
чни 1
▁olan 1
ступ 1
icz 1
など 1
enc 1
ვა 1
▁поли 1
▁сред 1
कर 1
▁Home 1
قة 1
▁cơ 1
▁dự 1
▁اح 1
▁부 1
eben 1
▁hur 1
тів 1
īt 1
لب 1
"> 1
rd 1
nings 1
▁باشد 1
▁sve 1
▁utiliz 1
fs 1
▁einer 1
▁ps 1
තු 1
EO 1
ünk 1
خر 1
้าง 1
▁cook 1
▁ਬ 1
▁week 1
▁ҳ 1
EG 1
▁Tag 1
▁197 1
▁מא 1
▁ט 1
▁ഒ 1
hed 1
▁mont 1
▁상 1
owy 1
▁añ 1
▁jel 1
esp 1
ahi 1
asz 1
▁уже 1
ிக 1
▁מש 1
▁dra 1
ća 1
ార్ 1
▁đồng 1
ကို 1
نت 1
мати 1
▁hanya 1
▁են 1
მა 1
▁kako 1
▁dost 1
ней 1
act 1
▁чтобы 1
▁ref 1
ểu 1
▁result 1
▁theo 1
▁այ 1
▁vår 1
фі 1
▁над 1
▁ہو 1
▁vie 1
irs 1
ဲ့ 1
▁pero 1
جود 1
ihan 1
▁dru 1
óg 1
▁им 1
▁информа 1
▁vær 1
▁લ 1
ause 1
▁thro 1
▁Pod 1
▁هست 1
льзова 1
▁voc 1
," 1
▁있는 1
▁Va 1
▁ಪ್ರ 1
▁جد 1
▁દ 1
RA 1
тан 1
кри 1
▁many 1
▁10. 1
ires 1
▁пробле 1
▁luc 1
้ํา 1
oms 1
nem 1
▁програ 1
itus 1
ús 1
▁sw 1
round 1
▁pää 1
5, 1
▁slu 1
ids 1
รง 1
sol 1
▁aug 1
вод 1
ische 1
hold 1
▁vara 1
นา 1
?” 1
▁bang 1
▁kter 1
▁nett 1
▁rez 1
▁ਲ 1
στε 1
lä 1
られ 1
▁pens 1
します 1
▁pris 1
▁thực 1
▁इस 1
ورت 1
▁പ്ര 1
ће 1
ด้วย 1
▁Og 1
▁Ве 1
6, 1
δο 1
▁oraz 1
πα 1
▁^ 1
rij 1
ょう 1
▁waar 1
\\ 1
יי 1
▁том 1
▁Ir 1
عی 1
ður 1
▁해 1
IP 1
▁sø 1
èn 1
σι 1
ible 1
▁Mod 1
ött 1
қы 1
▁내 1
发展 1
▁peri 1
igi 1
▁syn 1
uro 1
▁lý 1
▁الخ 1
さん 1
▁تن 1
arbe 1
ởng 1
▁dette 1
өн 1
▁einem 1
лон 1
▁શ 1
▁arbe 1
▁email 1
iso 1
king 1
4, 1
াত 1
▁actu 1
embre 1
28 1
ạnh 1
▁mobil 1
▁ช 1
▁کې 1
▁andre 1
ára 1
▁hình 1
mark 1
dir 1
ety 1
▁mp 1
没有 1
ogo 1
▁gir 1
▁ध 1
▁Ev 1
▁الك 1
▁تص 1
▁마 1
▁anak 1
▁ace 1
liga 1
▁divers 1
miş 1
▁Dar 1
▁suc 1
さい 1
র্ 1
usti 1
▁کم 1
ตัว 1
▁nep 1
▁വി 1
▁ม 1
▁cat 1
▁tij 1
əy 1
▁ee 1
čk 1
iniz 1
▁Ein 1
اط 1
CH 1
7, 1
τί 1
äv 1
رام 1
21 1
▁(2) 1
eft 1
ape 1
▁mere 1
ню 1
▁year 1
▁просто 1
▁full 1
▁работа 1
стру 1
▁experien 1
ပါ 1
▁viên 1
ээр 1
▁AL 1
▁မ 1
▁kop 1
ќе 1
อย่าง 1
nas 1
мент 1
▁živ 1
की 1
ərbay 1
▁ener 1
▁gew 1
▁should 1
alia 1
▁him 1
▁Þ 1
▁ದ 1
ogra 1
ني 1
ିବ 1
ான 1
▁profes 1
▁اول 1
In 1
▁جه 1
ebru 1
▁compr 1
หน้า 1
2) 1
なく 1
▁sport 1
▁elektr 1
abb 1
▁sé 1
▁جو 1
▁Ih 1
apt 1
▁ó 1
▁सु 1
▁przez 1
های 1
▁ê 1
бя 1
OP 1
▁भी 1
▁עם 1
▁Het 1
▁kell 1
▁Вы 1
▁есть 1
しま 1
▁right 1
▁8. 1
מי 1
▁хи 1
▁denne 1
▁pay 1
▁khách 1
▁wal 1
гля 1
idas 1
▁مي 1
▁zur 1
теля 1
ures 1
▁Те 1
mek 1
▁prez 1
ள்ள 1
▁ಜ 1
дов 1
▁소 1
मी 1
▁anti 1
ით 1
वर 1
ÛÛ 1
رز 1
▁२ 1
ribu 1
anz 1
usk 1
бор 1
श् 1
▁Za 1
▁Ut 1
▁tun 1
▁disc 1
▁anal 1
भा 1
▁ένα 1
rah 1
▁Ni 1
だけ 1
туа 1
▁når 1
emm 1
льні 1
رة 1
しょう 1
jal 1
ności 1
▁фу 1
▁contr 1
▁अप 1
▁esp 1
▁alg 1
▁mm 1
öm 1
eler 1
▁Ν 1
▁گر 1
▁کند 1
▁mož 1
▁મા 1
emo 1
usia 1
▁né 1
▁lin 1
▁Hotel 1
ných 1
hand 1
iger 1
▁bū 1
▁menc 1
▁pend 1
▁ts 1
fore 1
əb 1
ların 1
▁funk 1
▁But 1
ager 1
▁vụ 1
使用 1
▁مص 1
▁kay 1
alau 1
tia 1
▁individ 1
lie 1
вор 1
▁great 1
asy 1
▁phẩm 1
াদ 1
▁Пре 1
もの 1
▁ច 1
อด 1
▁свои 1
▁Ž 1
▁זה 1
iju 1
▁website 1
▁개 1
▁الب 1
ี่ย 1
сни 1
লে 1
נת 1
antu 1
лко 1
▁zam 1
▁없 1
āj 1
osp 1
▁επι 1
nar 1
zet 1
stav 1
▁chúng 1
▁ନ 1
▁고 1
uen 1
ové 1
▁Lat 1
лом 1
imal 1
เช 1
▁jou 1
col 1
лект 1
▁چه 1
wat 1
26 1
▁45 1
▁acest 1
æt 1
▁stran 1
▁الف 1
▁Cr 1
▁vš 1
▁harus 1
▁nuk 1
iei 1
▁dou 1
▁कु 1
pak 1
וס 1
▁Isl 1
▁sul 1
▁Ny 1
▁már 1
ریک 1
▁Inform 1
▁этом 1
▁By 1
▁ότι 1
▁take 1
isch 1
▁free 1
▁নি 1
世界 1
▁Tel 1
okat 1
ทาง 1
ელი 1
▁lid 1
లా 1
▁secara 1
angkan 1
▁með 1
▁000 1
cept 1
elijk 1
▁process 1
▁लिए 1
▁ساز 1
ēr 1
▁requ 1
▁pä 1
chod 1
IG 1
▁anche 1
▁play 1
ต้อง 1
acji 1
▁autor 1
arda 1
ภาพ 1
ją 1
pas 1
ıs 1
বে 1
ites 1
▁حال 1
▁Pas 1
▁princip 1
▁apl 1
estiv 1
▁pul 1
lige 1
рг 1
च्या 1
▁jako 1
▁Ve 1
pun 1
▁Ol 1
▁fan 1
дзе 1
했다 1
рат 1
▁Ben 1
ět 1
8) 1
▁Ur 1
▁Ges 1
▁går 1
úp 1
τέ 1
▁باز 1
ุก 1
▁yer 1
▁१ 1
ていた 1
▁ແ 1
▁elő 1
▁pit 1
▁ham 1
▁kak 1
atta 1
▁biết 1
स्त 1
▁ڕ 1
▁Sen 1
ása 1
▁буду 1
▁ach 1
▁votre 1
▁lek 1
ଙ୍କ 1
lec 1
▁челове 1
▁hak 1
▁Can 1
▁Mark 1
κο 1
▁pob 1
▁بو 1
рак 1
oso 1
▁نام 1
▁서 1
▁관 1
ึ่ง 1
รี 1
ną 1
është 1
▁wan 1
אל 1
▁över 1
▁ла 1
▁iyo 1
▁ug 1
▁право 1
uste 1
▁ዝ 1
יע 1
ــ 1
▁baik 1
писа 1
ီး 1
▁Ки 1
:4 1
ապ 1
ர்க 1
בה 1
▁todo 1
▁kā 1
ware 1
ගේ 1
มาก 1
▁place 1
owych 1
ature 1
▁TH 1
▁oldu 1
ол 1
قه 1
upakan 1
rie 1
▁saja 1
▁Bal 1
angg 1
ախ 1
φο 1
▁koje 1
▁nagy 1
▁News 1
▁peny 1
heid 1
illä 1
▁bay 1
▁design 1
كن 1
▁الص 1
нием 1
▁vre 1
▁godine 1
تا 1
եղ 1
▁naar 1
ပြ 1
ەوە 1
▁där 1
nah 1
తి 1
▁after 1
▁prí 1
▁zab 1
▁two 1
▁poč 1
▁Ни 1
▁є 1
▁́ 1
それ 1
OV 1
ward 1
жду 1
ดย 1
ುದ 1
▁mehr 1
▁është 1
▁ভ 1
▁samo 1
ivat 1
berg 1
▁CH 1
ର୍ 1
日本 1
öd 1
▁بخ 1
▁aux 1
াই 1
arkan 1
ប់ 1
▁Се 1
▁todos 1
rip 1
▁Ik 1
▁উ 1
▁sein 1
uten 1
ഞ് 1
tet 1
▁də 1
▁onder 1
▁къ 1
eket 1
▁Ali 1
emy 1
▁التي 1
лення 1
wah 1
▁ও 1
jec 1
RE 1
န် 1
▁fant 1
▁Ich 1
ikat 1
ikka 1
▁sis 1
taj 1
нее 1
▁Kl 1
առ 1
▁trình 1
ibil 1
▁Blog 1
▁они 1
വി 1
ছে 1
нет 1
eberapa 1
▁бү 1
หา 1
થી 1
ках 1
▁mö 1
▁saj 1
▁также 1
หรือ 1
▁bad 1
▁dah 1
Ph 1
▁kre 1
ਾਲ 1
TE 1
▁đang 1
▁progr 1
▁gang 1
лару 1
pecial 1
▁Sem 1
ម្ 1
▁ji 1
வி 1
tige 1
▁insp 1
▁defin 1
voj 1
▁nào 1
▁Lu 1
ply 1
▁können 1
htt 1
▁Hot 1
сов 1
▁special 1
如果 1
이다 1
▁kai 1
▁обо 1
▁lis 1
▁HD 1
ahkan 1
нэ 1
igur 1
וי 1
াস 1
ály 1
ಿನ 1
یه 1
▁ที่ 1
ason 1
▁Internet 1
▁دە 1
zu 1
▁tien 1
▁€ 1
wie 1
سان 1
▁України 1
isin 1
▁áll 1
нес 1
▁mange 1
ματα 1
เจ 1
▁Lo 1
nov 1
▁ለ 1
ihat 1
▁aff 1
alen 1
▁đây 1
▁Don 1
▁vas 1
▁read 1
нал 1
▁hol 1
▁För 1
▁스 1
ência 1
unya 1
▁mutta 1
▁ਵਿ 1
▁(3 1
▁않 1
вих 1
elő 1
ლის 1
ලා 1
▁sug 1
れば 1
▁cùng 1
▁mest 1
цу 1
amy 1
▁Han 1
води 1
▁pur 1
най 1
29 1
▁moż 1
▁فی 1
aden 1
▁khác 1
▁myös 1
vert 1
εται 1
bes 1
▁hành 1
▁سه 1
টি 1
▁ወ 1
▁bab 1
สุด 1
▁centr 1
▁tor 1
▁cấp 1
▁теле 1
生活 1
τικό 1
ezi 1
станов 1
ื้อ 1
▁foto 1
alth 1
▁May 1
▁só 1
▁पु 1
▁try 1
▁trav 1
ից 1
▁ví 1
oku 1
▁ці 1
iente 1
ления 1
яви 1
▁ə 1
ذه 1
▁old 1
elsen 1
▁κά 1
ียน 1
▁ան 1
isia 1
▁zb 1
▁bene 1
ulan 1
▁rela 1
▁hac 1
▁Tw 1
stan 1
ában 1
▁유 1
▁plat 1
▁foi 1
▁boleh 1
▁still 1
сэн 1
ंद 1
itte 1
▁vál 1
лись 1
ron 1
قي 1
ουμε 1
▁быть 1
ness 1
▁비 1
▁เพ 1
▁hotel 1
▁vz 1
▁verd 1
▁Sur 1
erea 1
▁sti 1
ēj 1
▁mb 1
▁ν 1
▁ඔ 1
μπ 1
irk 1
▁really 1
▁300 1
ल्या 1
agen 1
прав 1
しい 1
жил 1
λή 1
▁نہ 1
▁ስ 1
тор 1
ික 1
ため 1
ಕ್ಕ 1
در 1
κό 1
▁ხ 1
▁मि 1
قع 1
▁kons 1
elah 1
▁telefon 1
شه 1
▁mult 1
ssä 1
óp 1
АН 1
▁Cor 1
▁შე 1
▁proces 1
▁berk 1
▁chuy 1
feren 1
skih 1
ске 1
egi 1
▁очень 1
tigt 1
▁orig 1
▁μας 1
ạng 1
way 1
ध्य 1
▁then 1
▁ә 1
ικά 1
.000 1
▁AN 1
▁skulle 1
▁ગ 1
ệnh 1
▁nom 1
цион 1
upun 1
▁пі 1
ingan 1
สํา 1
▁Tra 1
ใช้ 1
▁lehet 1
▁Met 1
ése 1
▁nói 1
▁(19 1
▁link 1
▁Hal 1
вър 1
▁Ме 1
▁شه 1
▁tym 1
tere 1
tel 1
ári 1
dom 1
erk 1
▁energ 1
roid 1
▁nhưng 1
ην 1
வு 1
čno 1
時間 1
avi 1
өг 1
ago 1
▁ques 1
وي 1
▁جن 1
▁gün 1
assen 1
▁нау 1
heten 1
чо 1
▁систе 1
hip 1
დე 1
▁اص 1
াক 1
▁hid 1
рма 1
вата 1
чі 1
▁hit 1
нали 1
xim 1
elf 1
ですが 1
was 1
▁intr 1
▁roku 1
log 1
▁fal 1
unia 1
▁because 1
ット 1
▁kart 1
lichen 1
▁отно 1
utan 1
्रा 1
▁semua 1
▁및 1
ining 1
पाल 1
рь 1
▁które 1
▁کنید 1
27 1
▁Ger 1
ված 1
▁ly 1
▁ри 1
▁vide 1
▁lug 1
рів 1
▁bh 1
▁meer 1
vij 1
tima 1
عم 1
▁face 1
dır 1
▁jen 1
▁მი 1
▁Ca 1
▁מת 1
▁исто 1
zat 1
▁mê 1
▁bill 1
▁pic 1
eze 1
▁lub 1
ომ 1
▁phát 1
している 1
үүл 1
▁ජ 1
▁ნ 1
ള്ള 1
рабо 1
▁Sm 1
▁já 1
urile 1
эм 1
oved 1
▁Tür 1
λά 1
้อม 1
дела 1
тите 1
рой 1
eko 1
▁cần 1
▁196 1
▁Gre 1
▁36 1
▁năng 1
льных 1
▁دور 1
indows 1
▁econ 1
▁قرار 1
рд 1
ැන 1
▁sun 1
ახ 1
-4 1
AV 1
раз 1
▁ай 1
adh 1
▁които 1
▁nya 1
▁проду 1
▁ਇ 1
arm 1
▁него 1
arang 1
▁sid 1
▁ис 1
vod 1
utat 1
смо 1
▁voi 1
cket 1
▁AS 1
▁թ 1
тому 1
ilan 1
हीं 1
cho 1
umat 1
nego 1
▁fort 1
tok 1
▁kali 1
ọng 1
▁service 1
▁dic 1
▁необходи 1
▁ქ 1
▁ning 1
మా 1
▁Aus 1
yaa 1
ոն 1
管理 1
▁ආ 1
elles 1
▁ले 1
ads 1
aro 1
ക്ക് 1
▁Hai 1
▁සි 1
lia 1
▁مرد 1
ands 1
່າ 1
▁where 1
▁nhận 1
चे 1
óa 1
λέ 1
ລະ 1
▁baru 1
nin 1
лийн 1
▁merupakan 1
提供 1
▁πολ 1
rent 1
▁ци 1
▁vs 1
▁kval 1
ages 1
不是 1
emen 1
ড় 1
fü 1
▁etter 1
▁IS 1
▁Kat 1
▁Para 1
▁cil 1
▁seh 1
▁fat 1
▁love 1
▁etc 1
▁הק 1
▁тем 1
อยู่ 1
▁ფ 1
▁Dom 1
▁Bes 1
▁jul 1
▁резу 1
utton 1
▁nghiệp 1
اهد 1
▁miss 1
day 1
τική 1
▁nok 1
▁anh 1
ına 1
tiin 1
▁מע 1
▁keh 1
▁Azərbay 1
▁بار 1
rif 1
▁ଆ 1
▁aby 1
▁favor 1
एको 1
▁Mah 1
▁ଏ 1
▁તે 1
▁Ä 1
тын 1
▁ଦ 1
▁могу 1
שים 1
▁свя 1
isan 1
isc 1
▁ჩ 1
льта 1
ilen 1
▁Де 1
▁בי 1
▁worden 1
فی 1
ونی 1
ುತ್ತ 1
▁olar 1
ดู 1
ča 1
ips 1
ေး 1
▁Sex 1
▁kle 1
▁gü 1
ijos 1
▁model 1
wal 1
▁مه 1
▁اخ 1
рии 1
іль 1
ấu 1
ప్ప 1
unden 1
amen 1
▁prij 1
tit 1
▁high 1
▁바 1
ład 1
ily 1
▁нача 1
▁эти 1
преде 1
ेल 1
▁business 1
▁9. 1
▁ត 1
ించ 1
ativa 1
بد 1
ండ 1
post 1
▁consider 1
اتی 1
▁máy 1
▁Kur 1
▁Iz 1
hs 1
ന്റെ 1
); 1
▁համ 1
▁lên 1
▁bahwa 1
▁sä 1
▁Sing 1
дя 1
ким 1
ження 1
ower 1
▁frem 1
кры 1
▁우 1
▁brug 1
éc 1
▁cara 1
בע 1
▁دانش 1
▁viel 1
্ষ 1
جا 1
▁bare 1
amis 1
مه 1
▁tako 1
▁got 1
роб 1
žen 1
OG 1
ତି 1
▁לע 1
▁mond 1
▁does 1
бира 1
ρή 1
אי 1
arb 1
9, 1
▁بۆ 1
▁svo 1
▁ਦੀ 1
▁구 1
वी 1
اسی 1
▁чем 1
ская 1
8, 1
的人 1
فته 1
ikut 1
heter 1
ảm 1
ξε 1
cas 1
▁объ 1
▁event 1
▁len 1
▁nim 1
▁suk 1
▁// 1
เต 1
чин 1
աղ 1
əsi 1
ಂತ 1
▁lan 1
▁cada 1
gest 1
▁gol 1
▁ബ 1
▁ге 1
тура 1
▁wur 1
▁vec 1
ης 1
TI 1
▁день 1
▁הפ 1
ées 1
▁Fre 1
▁blev 1
▁ಗ 1
▁Så 1
ader 1
▁pog 1
▁만 1
lack 1
▁۲ 1
edy 1
▁mə 1
คา 1
▁naz 1
ਿਆ 1
စ် 1
ທີ 1
ลง 1
amas 1
ắn 1
නය 1
▁lot 1
▁وأ 1
▁произво 1
yat 1
あります 1
نامه 1
▁лу 1
▁комп 1
fik 1
▁kamp 1
ران 1
▁soll 1
τας 1
▁hard 1
▁Gl 1
▁Ker 1
っている 1
▁حس 1
usan 1
-5 1
cent 1
▁through 1
▁bun 1
▁final 1
rer 1
▁bev 1
▁안 1
oten 1
▁prev 1
▁ovat 1
کل 1
เน 1
▁жә 1
。” 1
▁system 1
▁projek 1
▁teg 1
▁gå 1
رض 1
▁faire 1
рно 1
ಾನ 1
합니다 1
нения 1
▁നി 1
اري 1
esen 1
вые 1
፡፡ 1
ोज 1
έρ 1
▁اب 1
▁csak 1
▁жы 1
▁بل 1
▁دارد 1
▁અને 1
redit 1
▁év 1
inas 1
▁кла 1
امی 1
ëm 1
uno 1
UK 1
æg 1
رك 1
ást 1
▁media 1
▁mud 1
▁Это 1
▁كان 1
▁ub 1
▁memiliki 1
▁você 1
▁kis 1
χε 1
الب 1
szer 1
ारा 1
▁Wir 1
▁cour 1
くだ 1
▁még 1
cut 1
▁gran 1
ivel 1
▁cos 1
чка 1
ugu 1
▁lớ 1
▁Mit 1
tos 1
▁مل 1
▁cle 1
ninger 1
erta 1
ல்ல 1
▁생 1
atori 1
▁emb 1
▁yr 1
abor 1
μβ 1
▁اسلام 1
▁حق 1
▁home 1
alle 1
▁ซ 1
▁past 1
イン 1
▁kah 1
▁lượng 1
bre 1
▁zas 1
▁การ 1
▁artik 1
35 1
▁более 1
▁신 1
▁ment 1
ਸ਼ 1
▁мно 1
inar 1
ollow 1
▁연 1
“. 1
▁ஒ 1
că 1
▁stan 1
▁استف 1
▁uw 1
ယ် 1
רה 1
ordan 1
▁daha 1
▁resta 1
ර් 1
uns 1
צי 1
▁membuat 1
стер 1
তি 1
▁vida 1
▁있습니다 1
▁veg 1
▁eh 1
เห 1
▁Если 1
▁bila 1
وش 1
ลิ 1
ன்ன 1
endi 1
ls 1
▁Sec 1
ੂੰ 1
سي 1
▁тру 1
▁contra 1
▁обще 1
ึก 1
menu 1
til 1
▁kro 1
▁ສ 1
urn 1
▁מס 1
מת 1
▁mô 1
場合 1
▁gw 1
▁happ 1
ുന്നു 1
▁kans 1
▁الذ 1
ėl 1
ція 1
▁masih 1
ский 1
ọi 1
ço 1
▁ric 1
ljen 1
ück 1
ълга 1
▁ល 1
ثر 1
▁Ce 1
աստ 1
▁Ya 1
▁미 1
▁ክ 1
▁such 1
áj 1
▁توان 1
лась 1
▁Wa 1
ota 1
נית 1
▁mur 1
็ก 1
вре 1
▁무 1
ύν 1
▁ner 1
δα 1
▁және 1
▁Մ 1
▁bara 1
að 1
्री 1
▁коли 1
rap 1
▁będ 1
สม 1
▁Jos 1
ची 1
▁vin 1
▁call 1
τος 1
гле 1
่าย 1
▁naš 1
▁perm 1
нинг 1
olt 1
ставля 1
▁samt 1
▁συν 1
gj 1
лаго 1
ских 1
dar 1
▁کشور 1
ningar 1
▁led 1
ಂದು 1
bit 1
▁lak 1
▁הוא 1
button 1
▁cand 1
lio 1
▁пры 1
публи 1
bud 1
▁Β 1
hoz 1
ন্ 1
▁casa 1
▁ý 1
▁조 1
▁Sar 1
▁beste 1
▁tudi 1
▁Í 1
▁niin 1
otta 1
▁داد 1
▁jej 1
▁שי 1
▁သ 1
▁або 1
AI 1
▁Sr 1
▁deze 1
▁kül 1
raj 1
дам 1
▁три 1
▁ଅ 1
▁ně 1
▁Off 1
في 1
▁Pen 1
ضوع 1
他们 1
ایش 1
fat 1
▁member 1
▁univers 1
▁(0 1
▁ekonom 1
atel 1
itiv 1
▁Slov 1
まで 1
ază 1
▁chất 1
ผล 1
tico 1
ปร 1
▁kod 1
▁Hr 1
▁tự 1
άλ 1
ார் 1
чения 1
રા 1
▁més 1
enu 1
▁toim 1
▁Pres 1
зыва 1
▁dog 1
രാ 1
▁kind 1
तर 1
企业 1
åll 1
▁ਰ 1
देश 1
▁ngo 1
▁「 1
▁finns 1
angk 1
▁fem 1
▁ու 1
▁Би 1
▁ք 1
▁Kal 1
zej 1
▁მა 1
▁intern 1
egu 1
▁ilə 1
uksen 1
ржа 1
של 1
▁zi 1
aru 1
sti 1
▁ਗ 1
ási 1
▁How 1
▁wenn 1
က္ 1
▁gli 1
▁mě 1
▁cette 1
ələr 1
ໍາ 1
▁tart 1
▁הר 1
oru 1
ାଇ 1
▁szám 1
vas 1
▁의 1
▁jav 1
▁show 1
▁sok 1
ុង 1
ოს 1
amer 1
▁sempre 1
▁kết 1
▁yra 1
etter 1
ướng 1
▁2000 1
سته 1
▁cy 1
什么 1
zik 1
jekt 1
iche 1
ление 1
imu 1
..... 1
▁तो 1
▁обе 1
▁durch 1
▁استفاده 1
▁وب 1
▁Seb 1
تاب 1
owi 1
▁дека 1
▁Dep 1
▁Bir 1
▁xe 1
ێت 1
▁Cons 1
▁선 1
▁viz 1
▁Apr 1
▁samp 1
▁Kas 1
▁ହ 1
▁bruk 1
akit 1
ley 1
▁life 1
тни 1
▁agr 1
▁zm 1
▁ken 1
▁Af 1
цо 1
ула 1
ரி 1
▁vär 1
สิ 1
▁solo 1
▁olarak 1
uman 1
▁Prof 1
eki 1
▁nuest 1
▁zad 1
▁разви 1
▁3, 1
ینه 1
▁gì 1
▁lí 1
īg 1
unta 1
▁unter 1
▁Jah 1
пові 1
ämä 1
▁Air 1
PS 1
▁чо 1
เง 1
wen 1
szyst 1
▁زم 1
ည် 1
▁zw 1
▁personal 1
▁Vis 1
▁ខ 1
▁kuin 1
elum 1
▁own 1
цию 1
iller 1
▁шко 1
ാന 1
▁Rad 1
oup 1
!” 1
sku 1
רת 1
▁sad 1
▁राज 1
دار 1
▁empres 1
ต่อ 1
▁tör 1
ements 1
▁ele 1
ерез 1
▁çok 1
τυ 1
▁ల 1
රු 1
фо 1
▁aç 1
jä 1
▁խ 1
▁beberapa 1
եց 1
▁made 1
▁maka 1
šie 1
šen 1
ENT 1
▁EU 1
ossa 1
▁ihr 1
یل 1
▁вер 1
ंड 1
▁bảo 1
▁Си 1
▁apro 1
▁vra 1
▁cô 1
▁fog 1
需要 1
ിച്ച 1
ảnh 1
▁уче 1
▁mand 1
sker 1
▁От 1
фа 1
100 1
▁:: 1
шения 1
▁Как 1
▁ඒ 1
کس 1
▁हा 1
UD 1
ेट 1
▁अस 1
▁contin 1
कि 1
enge 1
کر 1
oca 1
oji 1
▁fait 1
▁gian 1
▁hø 1
ային 1
MT 1
▁bard 1
μη 1
час 1
nica 1
▁game 1
ări 1
▁Ин 1
▁toàn 1
год 1
ப் 1
▁being 1
ellä 1
abo 1
nyt 1
זה 1
циона 1
▁bem 1
iego 1
ismo 1
တ် 1
▁too 1
▁mặt 1
▁fly 1
oper 1
▁dav 1
▁мне 1
▁לפ 1
▁commun 1
▁noi 1
▁fu 1
▁sí 1
istan 1
▁There 1
▁Ú 1
▁она 1
▁pří 1
▁явля 1
σο 1
▁pin 1
▁those 1
▁בת 1
▁kost 1
▁Untuk 1
▁Mel 1
øn 1
skog 1
τικά 1
ajar 1
isesti 1
tak 1
▁tâm 1
▁zem 1
▁apar 1
рот 1
hus 1
▁še 1
чита 1
▁trước 1
mos 1
▁necess 1
▁hele 1
▁sö 1
▁nær 1
את 1
▁194 1
็ด 1
▁лет 1
▁jog 1
▁rek 1
້າ 1
▁segu 1
inner 1
που 1
▁ні 1
ują 1
▁partic 1
▁ജ 1
▁Бу 1
onte 1
ihin 1
прави 1
عات 1
▁bude 1
▁Port 1
eba 1
uki 1
▁Mor 1
ത്ര 1
under 1
▁pret 1
ської 1
▁לי 1
▁Το 1
oy 1
▁33 1
ring 1
ებს 1
icial 1
անի 1
▁дела 1
▁UN 1
▁сту 1
▁नहीं 1
▁både 1
ags 1
дова 1
▁vì 1
akter 1
rot 1
ಂಡ 1
▁ё 1
▁ло 1
stra 1
▁최 1
▁before 1
ლა 1
úbl 1
▁dy 1
▁pier 1
кого 1
▁пока 1
Sh 1
ಾಗಿ 1
óm 1
▁Peng 1
lep 1
anger 1
▁hội 1
▁문 1
▁Bil 1
▁atas 1
ษา 1
▁ഉ 1
自分 1
▁tari 1
▁برا 1
ស់ 1
▁tế 1
▁Moh 1
ides 1
usu 1
нде 1
evo 1
▁thiết 1
▁download 1
лия 1
das 1
▁komment 1
▁הג 1
▁Ty 1
ưởng 1
ชา 1
▁él 1
▁Ci 1
我們 1
ậy 1
իս 1
agu 1
▁Del 1
▁Å 1
ieren 1
cm 1
iert 1
▁ಶ 1
▁кри 1
▁چې 1
ட்டு 1
rom 1
ಿದೆ 1
ыз 1
▁ded 1
שת 1
▁στα 1
▁God 1
ẹp 1
▁fyrir 1
лни 1
üz 1
ുടെ 1
▁त्या 1
▁باید 1
▁គ 1
stvo 1
9) 1
igo 1
ான் 1
これ 1
▁ton 1
▁չ 1
75 1
ział 1
ray 1
▁mam 1
▁Cop 1
▁സ് 1
▁Mart 1
ย์ 1
inə 1
egy 1
▁Naj 1
ազ 1
шение 1
▁pus 1
▁elec 1
▁tho 1
▁nay 1
▁prem 1
▁מי 1
ită 1
น์ 1
▁כי 1
kä 1
ัญ 1
▁150 1
▁Nie 1
かった 1
hau 1
ambi 1
මා 1
ರೆ 1
▁ამ 1
▁پیش 1
▁kinh 1
▁матери 1
▁bộ 1
▁Cre 1
ность 1
▁մի 1
▁def 1
лын 1
▁방 1
▁SM 1
liche 1
ไทย 1
▁смо 1
ვის 1
▁nun 1
▁два 1
▁ही 1
ください 1
这个 1
gunakan 1
▁တ 1
чина 1
ద్ 1
णा 1
ror 1
тки 1
▁বা 1
្ស 1
▁going 1
ében 1
▁أو 1
▁big 1
▁kec 1
tea 1
▁لم 1
▁پس 1
itik 1
▁تج 1
▁εί 1
▁bằng 1
ély 1
▁zar 1
лари 1
▁down 1
▁War 1
として 1
▁world 1
▁phòng 1
▁tempo 1
问题 1
لود 1
▁hiệu 1
▁På 1
▁projekt 1
сло 1
▁μια 1
▁deb 1
inga 1
▁→ 1
ungkin 1
mad 1
▁செய 1
uko 1
ikip 1
▁thị 1
▁100% 1
▁ات 1
zī 1
obile 1
ować 1
anan 1
čne 1
znál 1
▁chủ 1
▁xuất 1
▁Для 1
▁kata 1
▁tốt 1
െയ 1
▁вас 1
▁خبر 1
▁세 1
▁Kol 1
▁Fra 1
udio 1
▁ומ 1
▁जि 1
స్త 1
ited 1
دي 1
重要 1
▁quả 1
▁реги 1
▁Пра 1
▁вам 1
▁prip 1
▁Sim 1
ంగ 1
мери 1
▁lite 1
చ్ 1
▁ని 1
▁dov 1
esu 1
▁доб 1
бен 1
angi 1
▁اپ 1
▁same 1
дже 1
▁કે 1
▁ST 1
▁때 1
▁пове 1
▁odp 1
▁спа 1
ris 1
▁dels 1
ιδ 1
ကြ 1
▁живо 1
ného 1
▁ќе 1
ző 1
acy 1
емы 1
other 1
▁unser 1
▁Art 1
▁ವಿ 1
əd 1
▁Fil 1
▁She 1
كل 1
▁Ə 1
ball 1
▁организа 1
нова 1
▁zaj 1
eln 1
tac 1
ნი 1
▁בה 1
▁Rec 1
▁Из 1
▁drž 1
▁కా 1
▁сте 1
▁jour 1
▁מק 1
▁čas 1
▁കാ 1
__ 1
▁ан 1
▁aller 1
ways 1
zenia 1
▁.... 1
▁ប្រ 1
▁kommun 1
čin 1
▁zv 1
▁gov 1
▁🙂 1
▁도 1
▁(201 1
য়া 1
▁Vil 1
šte 1
ပ် 1
▁Set 1
▁доку 1
▁вопро 1
▁הב 1
▁rat 1
ック 1
eken 1
item 1
▁Nem 1
owie 1
▁рай 1
▁ری 1
ടു 1
▁πο 1
ది 1
▁prv 1
▁amin 1
кие 1
▁besar 1
▁когда 1
▁fakt 1
тей 1
▁hely 1
گان 1
▁tạo 1
▁yar 1
▁lá 1
ถึง 1
ruc 1
▁dân 1
The 1
▁Leg 1
▁след 1
▁ን 1
▁وي 1
кси 1
▁пар 1
▁aur 1
oven 1
▁hệ 1
şi 1
čka 1
▁بھی 1
▁cin 1
ంగా 1
▁اگر 1
▁ই 1
ັດ 1
мон 1
မှ 1
ερ 1
▁bản 1
▁Sin 1
▁mint 1
ční 1
กระ 1
▁اع 1
▁hod 1
▁sens 1
ikin 1
▁लाग 1
▁smo 1
ття 1
▁št 1
▁разли 1
vid 1
▁tình 1
▁කිය 1
ค้า 1
اي 1
▁iti 1
ირ 1
▁stra 1
▁လ 1
▁Bud 1
телей 1
▁ප් 1
rez 1
ью 1
▁tác 1
▁cit 1
igu 1
▁kli 1
▁সম 1
iksi 1
ığı 1
そう 1
▁ನಿ 1
▁salah 1
▁Aug 1
ਤੇ 1
のは 1
所以 1
▁Inst 1
▁گو 1
unci 1
▁Pra 1
dat 1
▁band 1
▁себе 1
SS 1
ըն 1
▁২ 1
▁sep 1
rin 1
▁ایک 1
مة 1
som 1
▁жо 1
щен 1
тру 1
▁điểm 1
তে 1
ന്ന് 1
fol 1
લા 1
▁muito 1
kas 1
▁jika 1
▁интере 1
ण्या 1
des 1
▁rol 1
▁байна 1
न्द 1
▁thấy 1
kim 1
▁koja 1
ერთ 1
िर 1
▁Sol 1
▁déc 1
▁godt 1
▁Liet 1
essä 1
▁dip 1
ില് 1
άρ 1
▁ਹੈ 1
ovat 1
▁32 1
णि 1
▁ሰ 1
lay 1
▁2007 1
▁ఈ 1
▁nye 1
nat 1
្យ 1
입니다 1
▁quel 1
ると 1
▁еще 1
▁خان 1
ulis 1
umo 1
▁tay 1
▁tổ 1
▁AM 1
لال 1
die 1
PR 1
bed 1
чні 1
▁üz 1
▁store 1
▁sett 1
▁muy 1
▁kontakt 1
▁Pos 1
▁bank 1
▁¿ 1
▁nik 1
▁heeft 1
▁joka 1
скі 1
▁jur 1
ึ้น 1
▁προσ 1
pada 1
DA 1
тка 1
wor 1
▁Kont 1
ół 1
▁გამ 1
ಾವ 1
vit 1
▁Tim 1
▁Cas 1
ាក់ 1
▁În 1
▁Afr 1
ール 1
hout 1
ском 1
▁investi 1
τρο 1
Phone 1
ିଲ 1
▁Wi 1
ีก 1
шь 1
oden 1
36 1
▁tuy 1
▁forsk 1
▁fak 1
ابل 1
cin 1
▁вико 1
▁сме 1
▁เป 1
▁teng 1
▁giúp 1
社会 1
▁اما 1
ныя 1
▁راه 1
▁قد 1
jest 1
▁wię 1
▁ау 1
▁nije 1
ັບ 1
▁comm 1
▁lö 1
▁mej 1
▁специа 1
вши 1
uth 1
▁ห 1
▁zav 1
্প 1
ief 1
ìm 1
bum 1
▁mac 1
▁Son 1
зь 1
▁оп 1
сна 1
לו 1
▁nab 1
▁הס 1
▁pelo 1
-) 1
ęp 1
▁Ру 1
▁serta 1
▁말 1
եկ 1
LE 1
▁этого 1
▁kung 1
▁tính 1
很多 1
▁hver 1
▁Gro 1
▁uno 1
▁gas 1
▁vik 1
▁eta 1
ât 1
тва 1
知道 1
研究 1
▁fond 1
表示 1
▁Gal 1
ستی 1
▁Ga 1
▁important 1
IE 1
isz 1
ряд 1
▁tol 1
ciju 1
▁plas 1
▁Dat 1
▁동 1
▁نظر 1
▁recom 1
▁đối 1
orum 1
▁wr 1
▁altern 1
ário 1
ාල 1
્ટ 1
▁영 1
▁между 1
▁اط 1
น้ํา 1
▁موضوع 1
▁발 1
εις 1
ського 1
వా 1
▁Top 1
▁акти 1
一個 1
▁loại 1
esten 1
ете 1
hez 1
▁2018. 1
▁උ 1
หรับ 1
ತಿ 1
менно 1
вести 1
יים 1
▁ml 1
▁Об 1
▁وس 1
ustri 1
▁jy 1
IB 1
ieš 1
zon 1
oa 1
▁ung 1
וכ 1
eds 1
ms 1
▁Part 1
▁giới 1
▁שמ 1
▁run 1
▁наше 1
pol 1
▁nå 1
▁иг 1
▁ông 1
щу 1
▁strateg 1
▁مورد 1
ạch 1
idd 1
▁л 1
▁دول 1
▁пло 1
▁organis 1
ද් 1
▁Так 1
ml 1
ուր 1
ığ 1
▁Azərbaycan 1
orth 1
▁hr 1
▁dzie 1
▁mycket 1
▁propos 1
ুর 1
▁motor 1
▁makan 1
▁siden 1
mény 1
ület 1
▁08 1
ந்து 1
ési 1
▁spre 1
▁Ban 1
דר 1
▁интер 1
▁ор 1
▁hus 1
▁sop 1
▁svar 1
▁भा 1
▁asp 1
▁тү 1
cak 1
nj 1
▁ask 1
▁예 1
▁εξ 1
adores 1
▁senti 1
aty 1
,000 1
▁đề 1
änd 1
▁lim 1
▁ăn 1
koz 1
▁pela 1
imiz 1
▁ско 1
och 1
uny 1
▁nyt 1
▁меня 1
▁olduğ 1
лади 1
▁ର 1
ird 1
▁11. 1
టు 1
▁ማ 1
▁poss 1
▁לח 1
▁како 1
aly 1
▁present 1
▁එක 1
ように 1
ിക 1
ската 1
ält 1
▁каче 1
▁Wor 1
ური 1
非常 1
ånd 1
ադ 1
▁yg 1
वे 1
▁δη 1
สน 1
olla 1
obi 1
zin 1
▁extra 1
▁Sc 1
τες 1
sung 1
▁bé 1
95 1
mış 1
▁кли 1
▁poate 1
▁neces 1
žd 1
▁सर 1
▁họ 1
▁Kos 1
जा 1
▁refer 1
شد 1
adem 1
ős 1
ocia 1
▁շ 1
▁hen 1
ಾದ 1
利用 1
ที 1
▁biti 1
▁prob 1
▁igen 1
▁یہ 1
icos 1
etty 1
ỏi 1
alog 1
▁возможно 1
ЕН 1
▁nez 1
▁tiếp 1
▁Var 1
▁Wat 1
▁Dur 1
جام 1
▁Meng 1
▁Jul 1
▁παρα 1
kså 1
▁Dec 1
▁baz 1
ült 1
▁kort 1
▁କର 1
,“ 1
▁då 1
▁few 1
िका 1
▁هی 1
рам 1
اح 1
يز 1
▁dann 1
त्री 1
▁виде 1
▁kus 1
rž 1
ustom 1
▁medi 1
ander 1
кономи 1
▁국 1
правле 1
ποι 1
▁ล 1
▁Все 1
▁Pet 1
ından 1
αλ 1
▁kamu 1
▁koh 1
▁sehr 1
▁interess 1
TV 1
گه 1
より 1
tific 1
▁Europ 1
▁потре 1
▁contact 1
xi 1
▁lø 1
льной 1
▁יש 1
▁song 1
ευ 1
าล 1
otos 1
icar 1
▁kateg 1
▁περι 1
▁Net 1
▁fas 1
▁timp 1
▁ہے۔ 1
▁రా 1
సు 1
يف 1
▁iden 1
▁ζ 1
АР 1
▁ശ 1
ais 1
ening 1
▁alebo 1
▁medic 1
owej 1
▁Mp 1
▁bukan 1
شار 1
▁تب 1
▁đường 1
▁الط 1
▁هذا 1
▁equip 1
εια 1
▁Wo 1
▁Of 1
▁опреде 1
erna 1
国家 1
หาร 1
üs 1
▁Sil 1
▁NA 1
vil 1
▁מח 1
▁jadi 1
▁මේ 1
▁pré 1
ිස 1
ίσ 1
velop 1
▁jer 1
▁получи 1
▁իր 1
TM 1
▁Ι 1
aux 1
éri 1
▁கு 1
kus 1
န္ 1
▁kế 1
ेर 1
▁сказа 1
ାନ 1
▁Vol 1
▁نمی 1
▁Қа 1
ítás 1
fan 1
▁trang 1
ress 1
ỗi 1
च् 1
γρα 1
▁gem 1
र्ष 1
▁vå 1
▁också 1
เงิน 1
▁ვ 1
ুল 1
မျ 1
ican 1
osto 1
BC 1
▁ये 1
▁Windows 1
▁них 1
▁Pak 1
▁daar 1
▁הה 1
▁کنند 1
▁меди 1
▁wil 1
▁przed 1
ahl 1
▁12. 1
▁тер 1
.[ 1
iera 1
кар 1
kem 1
▁چی 1
▁okt 1
▁ima 1
నే 1
ਿੰ 1
▁jam 1
దు 1
▁än 1
▁https 1
▁Bas 1
nam 1
▁feel 1
▁vị 1
тин 1
▁آب 1
▁Công 1
▁chu 1
atz 1
▁Serv 1
лік 1
שב 1
▁wszyst 1
にも 1
▁điện 1
▁되 1
ам 1
ക്ഷ 1
αρ 1
dis 1
▁Up 1
▁Yang 1
▁нови 1
cat 1
▁Hol 1
ők 1
uju 1
keit 1
ียง 1
тэй 1
▁بین 1
たい 1
дың 1
یس 1
▁кө 1
್ಮ 1
ठी 1
ขึ้น 1
▁popul 1
чат 1
▁comme 1
СТ 1
mt 1
▁rumah 1
▁sept 1
▁são 1
ної 1
رکت 1
่วน 1
▁κατα 1
ünd 1
▁был 1
่อน 1
ље 1
▁ust 1
ները 1
▁سایت 1
ưu 1
▁저 1
ಡಿ 1
▁Jak 1
chaft 1
स्ट 1
▁تق 1
nici 1
▁tapi 1
▁cầu 1
thing 1
▁kör 1
jadi 1
мат 1
▁کرده 1
的一 1
num 1
▁menggunakan 1
istas 1
▁Pi 1
▁성 1
▁grande 1
▁oma 1
الم 1
▁difer 1
んな 1
olen 1
▁tentang 1
ria 1
েশ 1
▁ফ 1
▁One 1
යේ 1
▁ያ 1
ừa 1
▁195 1
39 1
▁local 1
اني 1
▁despre 1
▁continu 1
ята 1
▁вели 1
odu 1
emat 1
▁въз 1
คล 1
zk 1
▁đẹp 1
▁Ul 1
▁права 1
▁pār 1
OB 1
▁Gen 1
вый 1
enas 1
▁anvä 1
्रे 1
ėj 1
جی 1
▁مث 1
▁keb 1
:30 1
▁õ 1
▁__ 1
nit 1
▁Hy 1
▁تھ 1
illi 1
▁ย 1
▁Ass 1
oney 1
▁polic 1
ครับ 1
▁kez 1
但是 1
できる 1
tai 1
▁στι 1
ửa 1
од 1
کار 1
▁jet 1
੍ਰ 1
▁ça 1
▁glob 1
ña 1
stva 1
рал 1
inis 1
աշ 1
▁sendiri 1
▁très 1
▁üç 1
▁bere 1
▁total 1
▁Red 1
▁Sab 1
▁things 1
amaan 1
ắng 1
့် 1
▁तर 1
bel 1
▁οπο 1
റി 1
▁trị 1
▁kaik 1
▁году 1
erste 1
θεί 1
hon 1
aszt 1
ష్ 1
buah 1
اض 1
▁통 1
▁fast 1
▁Tar 1
вая 1
▁control 1
▁година 1
rig 1
ச்ச 1
OC 1
ænd 1
นะ 1
▁Mov 1
eke 1
kes 1
γκ 1
aksi 1
▁نق 1
ething 1
▁Ј 1
ารถ 1
▁Und 1
tiva 1
▁सि 1
▁ਨੂੰ 1
ായി 1
▁rap 1
▁type 1
▁sammen 1
сля 1
แบบ 1
▁Program 1
▁amer 1
تي 1
▁educ 1
▁autom 1
▁grand 1
▁Tom 1
▁Pan 1
▁भार 1
▁savo 1
nan 1
▁wit 1
uo 1
▁adv 1
▁போ 1
▁34 1
▁Mac 1
▁услови 1
mod 1
▁ዘ 1
▁وز 1
▁bib 1
eker 1
▁melakukan 1
už 1
▁Mak 1
ộng 1
▁پاک 1
ిత 1
▁Auf 1
გი 1
IF 1
TT 1
▁झ 1
▁otr 1
כו 1
▁lum 1
ств 1
▁მე 1
mel 1
▁support 1
юще 1
сын 1
▁mich 1
ţii 1
▁هو 1
▁Kor 1
ică 1
▁اش 1
▁گذ 1
ері 1
-6 1
▁స్ 1
rob 1
▁Су 1
ቸው 1
▁bệnh 1
cze 1
▁Fin 1
▁час 1
jat 1
▁гу 1
fall 1
▁schon 1
เข้า 1
▁cuk 1
▁سب 1
▁شهر 1
▁хоро 1
▁نیز 1
▁arī 1
▁flere 1
지만 1
▁(3) 1
▁любо 1
ajú 1
▁இரு 1
▁quando 1
▁give 1
▁Dit 1
▁friend 1
▁án 1
▁бъ 1
sub 1
īdz 1
وط 1
服务 1
▁enn 1
ља 1
▁histor 1
▁Trans 1
ligen 1
▁around 1
▁fall 1
▁modern 1
▁హ 1
vē 1
▁fit 1
▁Los 1
▁לב 1
▁ար 1
▁fj 1
▁kunne 1
▁ца 1
ต์ 1
▁ram 1
▁grad 1
owania 1
નો 1
▁дер 1
▁شم 1
▁zg 1
▁komun 1
AA 1
uş 1
atte 1
วน 1
▁১ 1
▁ry 1
chten 1
uses 1
skom 1
また 1
bir 1
▁Pred 1
cji 1
шта 1
kil 1
▁پای 1
▁porno 1
▁Kap 1
▁Film 1
anten 1
▁prá 1
人的 1
▁questo 1
ival 1
▁دیگر 1
pla 1
▁ਉ 1
ಾಯ 1
ិង 1
▁ભ 1
▁የሚ 1
nou 1
▁kép 1
ிரு 1
▁tha 1
进行 1
tan 1
ρεί 1
▁եր 1
▁iki 1
▁Hà 1
▁sebuah 1
او 1
adda 1
▁child 1
▁ár 1
▁barn 1
▁mana 1
▁Sloven 1
చ్చ 1
üy 1
ян 1
▁TR 1
owo 1
nice 1
ஸ் 1
geb 1
▁прода 1
▁direc 1
▁اين 1
atti 1
출장 1
▁AR 1
▁date 1
▁уве 1
▁memp 1
▁ਕਰ 1
issä 1
set 1
зақ 1
کان 1
яза 1
▁aktu 1
▁dor 1
atra 1
سه 1
laş 1
gende 1
ანი 1
▁गरे 1
▁yaş 1
usto 1
ationen 1
▁така 1
ére 1
ojen 1
▁Ale 1
▁restaur 1
▁Kun 1
lja 1
▁tus 1
▁pam 1
▁Ini 1
oval 1
▁nhiên 1
▁thường 1
áció 1
▁stop 1
▁ಚ 1
وص 1
▁مست 1
עות 1
▁αγ 1
▁առ 1
ალი 1
iba 1
чного 1
▁Twitter 1
ктор 1
▁Pri 1
▁Las 1
isse 1
agement 1
▁Produk 1
▁Sek 1
աք 1
▁hoặc 1
▁They 1
▁Mich 1
ທີ່ 1
▁offer 1
▁результа 1
รั 1
ране 1
стре 1
▁друго 1
▁follow 1
▁Dav 1
▁caso 1
όν 1
▁ara 1
了一 1
▁leng 1
cc 1
▁тран 1
88 1
▁mut 1
રી 1
АТ 1
fur 1
▁Park 1
тері 1
клад 1
▁exc 1
innen 1
ồn 1
▁sai 1
вні 1
▁дома 1
sak 1
ạc 1
▁Tan 1
▁എന്ന 1
▁Cont 1
▁chức 1
تما 1
▁inde 1
▁լ 1
ney 1
ਾਨ 1
▁integr 1
▁minden 1
हु 1
▁mens 1
▁аб 1
▁Chi 1
▁Ս 1
ares 1
▁dot 1
▁Islam 1
▁team 1
▁दु 1
▁kultur 1
quer 1
▁খ 1
▁неко 1
ieni 1
taan 1
્યા 1
ತ್ತು 1
bul 1
▁בח 1
▁Egy 1
خل 1
▁Quốc 1
▁zdrav 1
▁garan 1
нок 1
▁prima 1
▁sent 1
yal 1
ປະ 1
▁можете 1
نان 1
ነት 1
▁сти 1
гато 1
▁분 1
▁μα 1
▁meget 1
ionale 1
oke 1
▁ll 1
▁desde 1
ោះ 1
▁spor 1
øk 1
wr 1
ikasi 1
ict 1
▁sure 1
hav 1
▁بز 1
šanas 1
erc 1
▁ekki 1
▁وق 1
lev 1
प् 1
▁අප 1
вал 1
fir 1
บริ 1
klad 1
れる 1
▁second 1
▁être 1
▁Bak 1
▁אות 1
legg 1
▁הכ 1
рито 1
▁który 1
▁России 1
ート 1
▁City 1
▁hän 1
▁који 1
yun 1
sg 1
▁который 1
▁დ 1
rik 1
▁құ 1
▁solu 1
▁ep 1
رائ 1
▁стро 1
▁dư 1
ంలో 1
льные 1
unga 1
▁зем 1
тера 1
▁jaar 1
clus 1
يع 1
ális 1
דים 1
▁immer 1
เรา 1
band 1
▁tema 1
▁hin 1
▁yak 1
ởi 1
šč 1
DF 1
▁dispon 1
▁صورت 1
▁Dire 1
▁ژ 1
▁говори 1
gn 1
▁kim 1
ில 1
▁bör 1
ளை 1
▁נו 1
▁тө 1
▁thức 1
ால் 1
必要 1
▁liên 1
ارت 1
▁peut 1
时间 1
▁الل 1
▁politik 1
▁invest 1
▁بع 1
▁ست 1
▁tới 1
พิ 1
▁профе 1
üş 1
สาม 1
▁info 1
ovať 1
▁imm 1
ought 1
▁includ 1
▁соб 1
▁group 1
▁phần 1
▁400 1
▁doanh 1
▁आणि 1
大家 1
▁полити 1
ატ 1
▁maks 1
▁더 1
▁ല 1
кта 1
▁पू 1
▁לק 1
▁hjem 1
াজ 1
ώς 1
▁jsem 1
aban 1
▁cảm 1
вр 1
▁SP 1
▁mí 1
と思います 1
ница 1
ങ്ങള 1
▁wieder 1
▁tec 1
ាប់ 1
рата 1
roj 1
▁civ 1
▁גם 1
▁lov 1
▁ảnh 1
教育 1
▁Sl 1
▁(4 1
ಟ್ಟ 1
ような 1
▁Dem 1
▁ее 1
AZ 1
iven 1
▁มี 1
πε 1
ின 1
▁Χ 1
ebb 1
ño 1
-10 1
▁appro 1
fort 1
ogu 1
▁Ста 1
μέν 1
▁rés 1
UP 1
▁bán 1
▁mendapat 1
▁خط 1
▁cele 1
▁وم 1
льный 1
▁ama 1
itz 1
නා 1
▁tài 1
▁little 1
дера 1
estival 1
ಗಳು 1
kh 1
▁fig 1
ាយ 1
▁Fa 1
▁પ્ર 1
▁око 1
лер 1
ាល 1
▁yan 1
▁וא 1
들이 1
uge 1
▁Ez 1
EP 1
▁pháp 1
วง 1
▁dzi 1
gat 1
рийн 1
▁uu 1
▁lahko 1
טר 1
▁respons 1
▁Rus 1
▁Nas 1
▁veel 1
▁katika 1
ഞ്ഞ 1
▁differ 1
ប្រ 1
▁habe 1
▁trab 1
▁interes 1
▁Ср 1
fu 1
contr 1
▁даже 1
▁â 1
▁програм 1
▁gev 1
ือน 1
ług 1
▁verk 1
▁yêu 1
▁Cara 1
දු 1
लो 1
డ్ 1
▁каж 1
▁Mad 1
▁wordt 1
adt 1
inė 1
▁Free 1
прия 1
▁ရ 1
▁Kab 1
▁đại 1
▁klub 1
द्ध 1
▁Wh 1
ੋਂ 1
▁masa 1
▁IT 1
▁Lib 1
▁sống 1
▁institu 1
▁czas 1
▁used 1
ION 1
▁실 1
▁tháng 1
сс 1
▁55 1
שו 1
▁38 1
▁Person 1
▁something 1
▁افز 1
üks 1
▁Cu 1
▁andra 1
▁بازی 1
رگ 1
▁nr 1
▁Кон 1
▁교 1
łem 1
รร 1
▁kuri 1
政府 1
▁lalu 1
ént 1
▁नेपाल 1
▁Ку 1
යක් 1
AND 1
чення 1
?" 1
▁где 1
▁μπο 1
şa 1
న్ని 1
▁Sport 1
▁دانلود 1
▁lớn 1
▁bok 1
ské 1
▁मो 1
olah 1
present 1
மி 1
cej 1
▁tej 1
like 1
▁через 1
ross 1
▁нужно 1
க் 1
▁جان 1
etti 1
ضا 1
vad 1
шти 1
34 1
▁निर् 1
38 1
alış 1
▁econom 1
ások 1
rec 1
▁пода 1
▁même 1
ാന് 1
тур 1
▁થ 1
anden 1
try 1
▁ใน 1
▁must 1
ас 1
▁particip 1
సి 1
▁نہیں 1
▁dùng 1
ток 1
лет 1
▁tum 1
▁бў 1
hin 1
ayı 1
▁گی 1
خاب 1
▁desc 1
▁رہ 1
зиден 1
обра 1
▁кой 1
▁Android 1
▁زند 1
ହି 1
▁там 1
▁спосо 1
▁nej 1
ानी 1
▁игра 1
▁hö 1
▁noen 1
▁கொ 1
▁mj 1
▁več 1
▁arg 1
▁bod 1
ការ 1
ит 1
▁dí 1
блі 1
已经 1
▁cul 1
▁ኣብ 1
▁Super 1
ratis 1
ույ 1
elk 1
ρου 1
ệm 1
ங்கள் 1
▁الر 1
yright 1
▁complet 1
▁حض 1
нка 1
fica 1
судар 1
ավոր 1
▁Tek 1
▁Fe 1
ission 1
▁hebben 1
▁ain 1
воре 1
▁Θ 1
▁کیا 1
▁Ok 1
▁Nach 1
iah 1
▁tav 1
▁vast 1
sal 1
niej 1
isë 1
рода 1
▁Ram 1
ẩn 1
▁esper 1
ίου 1
umar 1
▁ευ 1
▁sistema 1
pal 1
▁geh 1
▁ingen 1
▁base 1
▁khu 1
zem 1
idir 1
ijke 1
टा 1
▁tego 1
▁vég 1
▁point 1
▁zaman 1
▁durante 1
▁پێ 1
▁بين 1
▁Hi 1
▁azt 1
.: 1
▁많 1
▁bài 1
2017 1
▁през 1
▁mw 1
جم 1
▁mua 1
entro 1
AJ 1
▁zna 1
▁kui 1
▁Mai 1
▁услу 1
իկ 1
गर 1
▁ກ 1
ازی 1
дели 1
زم 1
ľa 1
یده 1
තා 1
▁giải 1
وال 1
pend 1
▁00 1
▁Vor 1
▁сре 1
▁0, 1
utar 1
abu 1
વી 1
自己的 1
ടി 1
▁impl 1
▁pode 1
qa 1
َّ 1
oft 1
స్తు 1
安全 1
baik 1
▁تش 1
ても 1
▁جدید 1
▁Bur 1
چه 1
▁wax 1
▁keep 1
]. 1
før 1
▁Bre 1
▁iPhone 1
▁também 1
▁Bet 1
ιν 1
▁enk 1
▁دي 1
ცი 1
▁સા 1
ћи 1
▁mare 1
▁ago 1
▁вси 1
essen 1
ții 1
ának 1
vend 1
änn 1
sam 1
son 1
ப்பு 1
▁algun 1
▁nə 1
ību 1
▁Unter 1
▁έχει 1
▁hang 1
▁май 1
isha 1
EB 1
▁Nội 1
▁09 1
ίζ 1
שות 1
ندی 1
лог 1
اش 1
▁waktu 1
▁ئه 1
▁తె 1
дол 1
▁Ay 1
▁ES 1
▁좋 1
▁робо 1
డా 1
ದಲ್ಲಿ 1
▁olla 1
ikipedia 1
óng 1
▁кори 1
▁سن 1
▁послед 1
▁భ 1
▁tú 1
▁haz 1
▁sehingga 1
▁مرا 1
▁temps 1
▁świ 1
ราคา 1
elik 1
нем 1
той 1
▁Full 1
ότε 1
▁37 1
ாய 1
▁Mic 1
ুন 1
▁ingin 1
ั่น 1
▁sia 1
ുള്ള 1
都是 1
▁ಈ 1
owanie 1
▁poder 1
ירות 1
▁Tid 1
▁bild 1
▁практи 1
rok 1
▁always 1
ues 1
ches 1
bild 1
▁dispos 1
not 1
ppen 1
্যা 1
▁hvis 1
alne 1
▁book 1
▁sap 1
▁Як 1
▁absol 1
เพื่อ 1
lak 1
▁kull 1
)) 1
кур 1
▁посе 1
▁необходимо 1
▁لو 1
▁ყ 1
37 1
ğlı 1
вом 1
њи 1
▁cookies 1
เอ 1
พระ 1
▁Rev 1
▁4, 1
んで 1
▁iar 1
▁മാ 1
غان 1
ukt 1
дал 1
enz 1
ژه 1
▁같 1
ciu 1
▁njih 1
▁Gener 1
▁gest 1
▁side 1
▁læ 1
▁premi 1
▁auto 1
▁Ю 1
第一 1
plan 1
टी 1
▁agar 1
liy 1
ilik 1
▁skup 1
▁mundo 1
לק 1
jev 1
mus 1
ദ് 1
ystem 1
▁ور 1
▁الث 1
▁거 1
jud 1
كان 1
▁school 1
▁क् 1
▁perc 1
inge 1
%, 1
▁حک 1
▁পর 1
otte 1
מים 1
cions 1
čí 1
имо 1
▁Pour 1
▁each 1
▁wyk 1
▁muka 1
xx 1
▁진 1
▁శ 1
atura 1
tte 1
нің 1
▁vac 1
anak 1
▁آموز 1
agg 1
dal 1
▁đo 1
တွ 1
кова 1
เลย 1
.1 1
▁memper 1
▁tub 1
▁never 1
ungi 1
▁75 1
▁adres 1
▁към 1
ision 1
▁қи 1
▁seorang 1
▁Bol 1
▁Band 1
рок 1
スト 1
▁individu 1
йы 1
▁gibt 1
ial 1
istrat 1
▁tempat 1
▁Kir 1
市场 1
เบ 1
▁Til 1
intre 1
ాలు 1
,... 1
ames 1
▁temper 1
ათ 1
▁dua 1
▁vos 1
ಂಗ 1
▁сві 1
କୁ 1
▁48 1
лого 1
▁Евро 1
ός 1
▁Ant 1
etting 1
▁új 1
▁bid 1
në 1
▁tyl 1
unde 1
▁Bah 1
▁kontr 1
▁fö 1
нието 1
azioni 1
大的 1
에게 1
▁PS 1
▁ظ 1
▁πρό 1
▁siis 1
▁gaz 1
ój 1
ործ 1
▁нај 1
▁open 1
▁қо 1
oran 1
▁ayaa 1
ответ 1
▁Este 1
υσ 1
icas 1
▁svoje 1
حی 1
.00 1
ทั้ง 1
▁sü 1
▁нет 1
क्र 1
ళ్ 1
▁част 1
▁ഒരു 1
ellt 1
▁μου 1
▁كل 1
NA 1
▁లో 1
obb 1
aller 1
▁запо 1
udd 1
szág 1
▁Sta 1
riv 1
ුණ 1
▁Din 1
ณ์ 1
лин 1
bus 1
▁또 1
▁před 1
ारे 1
ุม 1
ไร 1
▁Sver 1
▁توس 1
▁одно 1
وار 1
არი 1
лиза 1
▁وجود 1
▁Tre 1
వు 1
▁רו 1
ટે 1
▁Seg 1
ře 1
▁ଜ 1
ній 1
▁иде 1
óc 1
حت 1
ēm 1
▁due 1
atok 1
▁sampai 1
وو 1
▁بت 1
▁több 1
▁mener 1
▁pm 1
▁kõ 1
▁tras 1
นัก 1
▁پرو 1
heit 1
▁seks 1
yang 1
omp 1
ို့ 1
əh 1
្វ 1
нија 1
omet 1
▁prze 1
▁situa 1
的是 1
عب 1
▁Nord 1
▁Bon 1
▁созда 1
▁Dev 1
▁yhte 1
كم 1
▁develop 1
▁Rah 1
1& 1
▁люди 1
acă 1
▁sao 1
▁кі 1
▁гро 1
▁vrij 1
▁anim 1
▁muốn 1
▁Not 1
▁té 1
yer 1
▁θέ 1
шки 1
used 1
టీ 1
▁minim 1
▁ib 1
▁hans 1
خی 1
istra 1
ưng 1
▁cứ 1
สะ 1
▁andere 1
बर 1
▁Us 1
ned 1
▁tiền 1
のか 1
▁його 1
▁especial 1
ються 1
▁mogu 1
▁chọn 1
▁उप 1
▁ಅವ 1
time 1
▁sér 1
נס 1
▁ግ 1
▁нам 1
▁nod 1
▁AP 1
ison 1
тал 1
вала 1
alui 1
▁मे 1
skim 1
लि 1
▁сва 1
▁tän 1
rak 1
గు 1
▁jär 1
▁potreb 1
▁ነው 1
aler 1
eman 1
ОВ 1
▁cui 1
قات 1
cker 1
▁Hier 1
վել 1
пад 1
▁روی 1
▁nut 1
ệu 1
▁beb 1
▁ေ 1
▁essere 1
▁euro 1
edet 1
idente 1
▁muk 1
ಾಲ 1
ικο 1
▁Gra 1
emente 1
כם 1
▁uni 1
▁vấn 1
▁quá 1
nú 1
ٹی 1
tom 1
estä 1
เคร 1
▁Zeit 1
ará 1
мени 1
ards 1
▁က 1
▁больше 1
▁profession 1
ющих 1
jum 1
udo 1
ffe 1
▁ул 1
▁imag 1
dk 1
▁kend 1
▁mau 1
ევ 1
мите 1
▁lit 1
ittel 1
▁Sv 1
▁Έ 1
▁ül 1
▁benef 1
usz 1
▁هە 1
ekom 1
▁element 1
考え 1
▁ਆ 1
сці 1
▁primer 1
▁momento 1
unto 1
aram 1
đen 1
ერი 1
▁nich 1
ออก 1
óż 1
icio 1
tember 1
asında 1
▁át 1
เลือ 1
美国 1
liv 1
мага 1
بال 1
▁ше 1
ingu 1
▁porque 1
▁while 1
▁mata 1
ုံ 1
chte 1
▁även 1
也是 1
ussa 1
▁väh 1
UB 1
פי 1
▁نس 1
▁prime 1
▁रहे 1
▁бли 1
जी 1
▁disp 1
▁produ 1
imana 1
▁था 1
▁país 1
ελ 1
Al 1
▁water 1
▁장 1
න්නේ 1
asje 1
icion 1
play 1
▁gut 1
▁bot 1
につ 1
ahu 1
▁së 1
▁ថ 1
▁Vers 1
öglich 1
arten 1
్యా 1
łam 1
MA 1
idh 1
▁بح 1
ffen 1
erar 1
ford 1
▁či 1
▁Pot 1
▁USA 1
ával 1
িল 1
▁dịch 1
▁nella 1
▁Land 1
حة 1
▁život 1
▁better 1
ecz 1
▁tập 1
▁Sub 1
كون 1
▁første 1
عال 1
▁] 1
▁един 1
▁Maj 1
▁۱۳ 1
ral 1
əc 1
oren 1
ิง 1
table 1
uck 1
IO 1
▁pati 1
▁lever 1
мина 1
▁Cap 1
▁صف 1
ิก 1
▁ori 1
▁ville 1
▁stre 1
▁rich 1
▁пол 1
ैं 1
时候 1
▁Jes 1
ිව 1
eku 1
чных 1
▁использова 1
▁հետ 1
рин 1
ừng 1
96 1
▁viss 1
ợi 1
▁utan 1
aysia 1
▁Kam 1
चार 1
▁один 1
ambar 1
▁ماه 1
▁wys 1
▁แต่ 1
rup 1
ಿಗೆ 1
▁sebelum 1
▁rob 1
▁Trung 1
▁кор 1
▁पनि 1
▁sym 1
ίες 1
box 1
▁2006 1
лик 1
inių 1
▁बि 1
▁техно 1
াৰ 1
borg 1
▁oly 1
मु 1
ตาม 1
▁muut 1
▁пита 1
▁LA 1
▁ora 1
уд 1
하여 1
▁Bh 1
lis 1
▁typ 1
zés 1
▁Ihr 1
▁käytt 1
торы 1
▁علی 1
▁disse 1
▁triển 1
แก 1
▁daripada 1
ம்ப 1
▁wurde 1
▁самы 1
▁zah 1
elain 1
erer 1
ква 1
▁pav 1
▁hall 1
▁ტ 1
kaz 1
רג 1
▁عمل 1
äd 1
▁direct 1
▁bert 1
стей 1
▁yaz 1
əri 1
ík 1
▁учи 1
▁Bay 1
راد 1
▁Λ 1
kaan 1
▁allt 1
▁Tor 1
▁tylko 1
peci 1
▁üçün 1
がある 1
गी 1
▁ұ 1
مت 1
کھ 1
organ 1
▁кни 1
▁Apple 1
▁Sy 1
τω 1
▁truy 1
ettu 1
▁rezult 1
nga 1
మ్ 1
▁фі 1
▁работы 1
▁vẫn 1
▁കു 1
▁rod 1
▁ըն 1
endre 1
▁مان 1
لة 1
技术 1
akarta 1
лт 1
▁nú 1
onda 1
країн 1
lang 1
▁termin 1
▁soo 1
▁nei 1
▁داشت 1
ির 1
кен 1
arak 1
iman 1
логі 1
▁Bro 1
?! 1
жли 1
▁року 1
עה 1
فق 1
▁fiz 1
因为 1
▁ano 1
▁شی 1
כול 1
ieg 1
olj 1
▁действи 1
经济 1
▁çalış 1
▁அவ 1
เย 1
▁Gar 1
zenie 1
▁Att 1
▁seus 1
zę 1
աբ 1
äär 1
出来 1
ogat 1
ින 1
บ้าน 1
ций 1
ники 1
▁گرد 1
orde 1
▁Ди 1
▁sitten 1
ترین 1
ecek 1
▁wsp 1
▁Sw 1
▁هذه 1
abar 1
孩子 1
मान 1
▁vom 1
ன்று 1
▁exist 1
▁ál 1
▁That 1
▁~ 1
▁rece 1
▁سي 1
▁harga 1
▁محمد 1
▁ky 1
▁хэр 1
ом 1
▁ர 1
SK 1
▁już 1
▁text 1
▁یه 1
▁next 1
сон 1
▁été 1
шка 1
ন্ত 1
▁Hand 1
方法 1
ството 1
▁sonra 1
ント 1
▁Га 1
▁වෙ 1
▁general 1
希望 1
▁mok 1
ક્ 1
мини 1
▁Best 1
▁1000 1
▁públ 1
▁vasta 1
▁tell 1
▁pesso 1
▁ав 1
▁Van 1
▁представ 1
યા 1
▁live 1
ście 1
าส 1
▁interest 1
▁និង 1
તી 1
▁telev 1
▁прове 1
ρια 1
▁aussi 1
▁trebu 1
ಕ್ಷ 1
▁Pop 1
่วย 1
▁twe 1
▁Camp 1
crip 1
▁αλλά 1
کت 1
▁mening 1
▁شب 1
ξη 1
ିବା 1
▁años 1
کرد 1
▁MP 1
▁different 1
nosť 1
▁famili 1
▁Euro 1
▁उन 1
qip 1
▁փ 1
מן 1
даг 1
atos 1
▁keluar 1
▁fotograf 1
▁báo 1
oki 1
▁הנ 1
чко 1
▁ไม่ 1
ilah 1
וו 1
OW 1
▁Alle 1
enting 1
▁ged 1
nega 1
▁vē 1
▁öz 1
▁kum 1
▁себя 1
▁ಭ 1
▁fran 1
▁bardzo 1
στη 1
ombre 1
▁rund 1
▁결 1
▁सरकार 1
dh 1
пло 1
到了 1
▁pub 1
хід 1
▁SH 1
好的 1
จํา 1
▁føl 1
▁alles 1
▁PC 1
▁зада 1
ché 1
▁Vir 1
▁сдела 1
이라 1
以上 1
▁Log 1
стри 1
▁але 1
php 1
owany 1
كر 1
▁фото 1
āl 1
▁مخ 1
ρες 1
85 1
โล 1
▁ફ 1
▁בש 1
երի 1
ầm 1
سا 1
่าว 1
▁Các 1
▁access 1
▁κατά 1
▁há 1
▁αυτό 1
قتص 1
▁motiv 1
▁הצ 1
ська 1
▁vậy 1
▁доста 1
▁той 1
udu 1
▁මෙ 1
▁हम 1
ίκ 1
Th 1
roz 1
iseen 1
omas 1
вает 1
йти 1
▁chat 1
ละ 1
▁Dil 1
▁এক 1
▁transport 1
льна 1
▁sesu 1
AW 1
▁predstav 1
redi 1
▁proc 1
िव 1
▁सम् 1
בור 1
ftware 1
kiem 1
▁વિ 1
üh 1
صد 1
▁현 1
▁خی 1
▁kadar 1
▁ast 1
▁sekä 1
▁Dengan 1
tii 1
າມ 1
tori 1
ാണ് 1
ives 1
▁වැ 1
eles 1
پی 1
ായ 1
▁ಯ 1
nje 1
▁bio 1
šu 1
сите 1
čių 1
33 1
▁Dia 1
▁Rob 1
▁Ал 1
ąz 1
▁ବି 1
شم 1
ový 1
▁organiza 1
ūt 1
ститу 1
ላይ 1
ogen 1
ոս 1
بط 1
ุน 1
▁gebru 1
ಟ್ 1
▁нав 1
▁Arbe 1
aniu 1
▁شرکت 1
vy 1
▁ول 1
acter 1
까지 1
▁hóa 1
▁cou 1
тие 1
▁mein 1
ุ่น 1
ិត 1
itatea 1
▁із 1
▁Bang 1
בות 1
υν 1
▁tăng 1
▁tilb 1
дын 1
▁może 1
▁всего 1
▁kuwa 1
▁Pok 1
▁Thi 1
▁Bus 1
ető 1
▁vind 1
жения 1
icip 1
▁edil 1
とな 1
▁પર 1
وج 1
▁ପ୍ର 1
▁rik 1
▁dunia 1
大学 1
ිබ 1
chu 1
▁ér 1
▁trat 1
▁ott 1
▁øn 1
▁tant 1
вий 1
▁fung 1
жы 1
сё 1
▁Фе 1
▁Ха 1
qi 1
▁была 1
方面 1
вест 1
▁perform 1
▁signi 1
▁έχ 1
▁Read 1
▁importante 1
slag 1
▁alap 1
unakan 1
xe 1
▁1- 1
▁nast 1
▁Copyright 1
▁ска 1
บุ 1
▁kand 1
କ୍ 1
क्षा 1
നി 1
▁moet 1
▁noe 1
▁мину 1
▁держа 1
問題 1
duc 1
upan 1
йна 1
▁thương 1
راه 1
ieb 1
▁úl 1
▁следу 1
▁Πα 1
▁John 1
▁viet 1
ebr 1
мь 1
uso 1
▁ż 1
▁upor 1
▁Sto 1
▁الذي 1
▁ті 1
▁gaan 1
▁found 1
كت 1
стью 1
قط 1
▁بسی 1
▁вклю 1
ंत 1
usaha 1
▁사람 1
▁υπο 1
▁doma 1
łą 1
нів 1
рил 1
ßen 1
▁चा 1
▁puede 1
via 1
▁Fer 1
TR 1
▁visit 1
▁থ 1
现在 1
▁mű 1
65 1
▁keç 1
▁prot 1
ческих 1
තර 1
oč 1
šta 1
▁stør 1
▁dana 1
▁позво 1
▁Мі 1
baru 1
empat 1
ekl 1
以及 1
▁பெ 1
phone 1
▁ఏ 1
īb 1
▁technolog 1
▁ситуа 1
▁ofer 1
виси 1
ธิ 1
າຍ 1
ண் 1
▁það 1
חת 1
▁Kel 1
▁στον 1
적인 1
يات 1
ціа 1
▁கா 1
▁trọng 1
lá 1
▁lle 1
itud 1
▁hade 1
izz 1
▁ಒ 1
ング 1
▁देख 1
вам 1
▁Stor 1
াব 1
▁(5 1
idan 1
ိုင် 1
▁diese 1
inā 1
▁tw 1
▁Ե 1
อล 1
ष् 1
▁XX 1
▁mess 1
aring 1
▁강 1
▁mine 1
धिक 1
▁thống 1
្ម 1
▁sme 1
ımız 1
▁pir 1
▁rapp 1
હે 1
ói 1
▁जो 1
ード 1
沒有 1
▁Mens 1
▁неза 1
μι 1
ยัง 1
ുമ 1
▁опера 1
▁2- 1
ショ 1
▁اطلا 1
όγ 1
fil 1
▁custom 1
▁pik 1
▁spec 1
kam 1
▁Белару 1
▁lay 1
בו 1
▁pis 1
yarakat 1
▁Bras 1
▁व्य 1
▁päiv 1
▁cuộc 1
▁Dalam 1
شتر 1
мата 1
▁bør 1
▁کل 1
pel 1
▁قبل 1
▁गा 1
▁ಮಾಡ 1
ingi 1
готов 1
▁мя 1
ště 1
شان 1
▁sedan 1
▁út 1
▁ży 1
▁ces 1
▁Mul 1
ικής 1
▁функ 1
рани 1
ський 1
▁buat 1
osk 1
ლობ 1
čke 1
ште 1
▁EN 1
▁2017. 1
▁multe 1
rs 1
▁Bank 1
▁ves 1
τών 1
97 1
▁ಉ 1
akti 1
▁Hrvat 1
▁ચ 1
▁образова 1
▁normal 1
▁liter 1
ването 1
עת 1
atif 1
onna 1
ດ້ 1
▁article 1
▁leur 1
owego 1
▁является 1
חה 1
IJ 1
يو 1
ради 1
▁Lond 1
▁possible 1
▁goed 1
্থ 1
▁komp 1
▁мето 1
▁cab 1
▁همه 1
вите 1
▁behand 1
▁tous 1
▁rá 1
▁στις 1
orte 1
▁σας 1
▁lai 1
бря 1
▁bilo 1
▁partner 1
▁알 1
▁jó 1
கள் 1
▁ketika 1
不同 1
evi 1
▁setiap 1
▁кан 1
▁optim 1
▁nah 1
فس 1
▁spot 1
empo 1
▁mé 1
▁օ 1
hit 1
▁ਦਾ 1
രിക്ക 1
တာ 1
▁تک 1
plat 1
▁65 1
▁Meg 1
▁genom 1
शा 1
ìn 1
ាម 1
▁gibi 1
▁නැ 1
imat 1
▁pró 1
▁01 1
ージ 1
љу 1
tivo 1
чних 1
ែល 1
▁ڈ 1
▁Far 1
ijas 1
ème 1
ds 1
▁days 1
▁perlu 1
▁share 1
▁ква 1
▁até 1
▁family 1
▁250 1
ged 1
▁साथ 1
self 1
▁tiêu 1
▁hindi 1
ಮ್ಮ 1
спа 1
кедо 1
ез 1
▁Fir 1
▁lic 1
▁уда 1
▁huy 1
็บ 1
פה 1
▁सो 1
▁शा 1
▁luk 1
vest 1
صر 1
ರುವ 1
▁colle 1
▁nego 1
▁Tal 1
ържа 1
▁05 1
soci 1
▁stav 1
ಂಬ 1
lus 1
▁дея 1
▁Φ 1
atus 1
▁dẫn 1
ことを 1
ถูก 1
zym 1
▁пот 1
ใหม่ 1
rift 1
ulta 1
▁prepar 1
ियो 1
▁5, 1
▁tie 1
▁кто 1
▁već 1
▁lần 1
bra 1
▁obs 1
▁ktoré 1
BA 1
▁대한 1
zw 1
▁mia 1
main 1
▁facil 1
▁Ven 1
▁hvordan 1
▁tips 1
iona 1
▁health 1
เซ 1
▁použ 1
▁ажил 1
твер 1
▁jäl 1
съ 1
เทศ 1
▁düş 1
▁علي 1
▁nen 1
CM 1
ختلف 1
▁р 1
▁Ли 1
ikal 1
▁aika 1
сен 1
lju 1
ăt 1
:“ 1
utin 1
▁memberikan 1
wad 1
ිත 1
▁trí 1
▁edhe 1
▁fors 1
ούν 1
▁anos 1
▁geen 1
лта 1
āv 1
▁شن 1
্ৰ 1
ាត 1
▁людей 1
▁vores 1
▁foarte 1
▁успе 1
▁לש 1
▁който 1
žu 1
▁Tab 1
धी 1
ឹង 1
▁bao 1
▁ارت 1
部分 1
ผม 1
ತ್ರ 1
▁jau 1
▁दो 1
▁ради 1
▁merc 1
ექ 1
rum 1
An 1
ното 1
▁Norge 1
धान 1
aliza 1
▁благо 1
▁vic 1
యా 1
한다 1
▁gad 1
ශ් 1
ury 1
utus 1
▁биз 1
ాయి 1
จัด 1
었다 1
ilu 1
▁trở 1
▁smart 1
▁nal 1
もし 1
▁dez 1
▁press 1
ិន 1
▁hij 1
▁dup 1
▁могут 1
▁ért 1
▁kuk 1
▁memang 1
μφ 1
▁государ 1
文化 1
क्त 1
▁tìm 1
lament 1
dés 1
▁Pag 1
ols 1
พร 1
ому 1
▁dus 1
ูล 1
đu 1
▁할 1
osh 1
▁پار 1
ittä 1
▁Neg 1
▁zat 1
ést 1
▁ជ 1
нах 1
-7 1
イト 1
▁lịch 1
▁services 1
▁ជា 1
▁эр 1
▁kaj 1
▁скла 1
▁might 1
нски 1
▁برنامه 1
øg 1
വാ 1
▁Form 1
ूर 1
▁sr 1
ໃນ 1
rai 1
ules 1
▁veľ 1
reich 1
פת 1
▁ଭ 1
▁geç 1
▁44 1
▁юм 1
▁Muh 1
▁kän 1
אות 1
έν 1
▁мл 1
▁vita 1
ries 1
▁emp 1
▁在 1
ẳng 1
łu 1
▁öl 1
▁değ 1
обще 1
atakan 1
▁Was 1
ਰੀ 1
дел 1
ıyor 1
▁луч 1
otto 1
empl 1
osc 1
โร 1
бва 1
▁Ras 1
▁Мы 1
▁expl 1
ises 1
▁사용 1
த் 1
▁When 1
▁rok 1
ject 1
▁constru 1
中心 1
ujú 1
▁World 1
▁сер 1
▁þess 1
▁inne 1
ipp 1
▁hoạt 1
fach 1
пли 1
stu 1
▁kg 1
▁thủ 1
▁ด 1
31 1
ಲು 1
itions 1
entre 1
▁감 1
င္း 1
▁mys 1
там 1
ющие 1
count 1
yti 1
ન્ 1
▁ngay 1
▁сі 1
▁avail 1
▁Malaysia 1
ותר 1
מש 1
▁massage 1
▁мар 1
▁کە 1
tick 1
▁15. 1
▁области 1
▁ina 1
▁stad 1
്മ 1
gas 1
▁kontrol 1
▁کړ 1
▁ც 1
、「 1
pli 1
▁zal 1
▁yi 1
▁Christ 1
▁registr 1
▁chị 1
ultura 1
ুক 1
фере 1
产品 1
េះ 1
udian 1
▁više 1
▁две 1
คม 1
vien 1
▁nghĩ 1
दै 1
** 1
▁1/ 1
하게 1
цыя 1
▁кар 1
▁프 1
ried 1
noj 1
itra 1
ائی 1
nut 1
▁EL 1
▁inspir 1
▁bom 1
▁hacer 1
▁կար 1
▁deter 1
▁후 1
▁тому 1
▁انجام 1
yyət 1
ąd 1
▁ਹੋ 1
hadap 1
▁kalau 1
uktur 1
▁Ket 1
▁note 1
สามารถ 1
work 1
▁polí 1
דה 1
▁nás 1
нки 1
IZ 1
مر 1
-20 1
ター 1
ạm 1
atii 1
råd 1
زه 1
▁tj 1
ิจ 1
ədə 1
でしょう 1
▁Mun 1
▁ఫ 1
τητα 1
▁Türki 1
▁pernah 1
дите 1
▁viv 1
ween 1
▁jud 1
▁page 1
ając 1
▁Pat 1
St 1
title 1
лады 1
▁mic 1
xo 1
▁grav 1
▁ദ 1
ôm 1
km 1
ঙ্ 1
▁biệt 1
าร์ 1
▁हि 1
▁human 1
weg 1
▁кру 1
หว 1
date 1
uren 1
itta 1
śli 1
οιν 1
cies 1
▁Char 1
atas 1
▁Dette 1
ūr 1
▁diri 1
пен 1
▁13. 1
знача 1
▁njeg 1
▁انتخاب 1
▁prec 1
ဖြ 1
dre 1
▁здо 1
כת 1
AF 1
▁تول 1
▁โดย 1
▁uy 1
בים 1
ậu 1
▁kunnen 1
▁oll 1
▁части 1
yet 1
lap 1
%. 1
▁!! 1
,, 1
▁מצ 1
▁Bib 1
▁More 1
是一 1
▁ठ 1
μή 1
▁Uk 1
▁सब 1
▁ખ 1
▁Europa 1
▁ஒரு 1
ikas 1
▁เป็น 1
eret 1
▁prés 1
▁nebo 1
▁मह 1
່ງ 1
undo 1
▁melalui 1
▁אני 1
عا 1
▁trẻ 1
▁diper 1
anju 1
▁map 1
личи 1
ének 1
▁cái 1
▁были 1
انون 1
wang 1
▁služ 1
▁agen 1
строй 1
onta 1
ān 1
ţă 1
بری 1
▁மா 1
र्व 1
▁tara 1
▁Organ 1
प्र 1
arti 1
▁всех 1
▁120 1
▁suis 1
▁Abd 1
▁question 1
▁जी 1
ನೆ 1
▁gh 1
▁Mem 1
čky 1
тися 1
▁Ju 1
ירה 1
▁چند 1
▁Plan 1
hm 1
▁ര 1
▁sans 1
xy 1
ทุก 1
▁proced 1
▁klik 1
лем 1
▁regul 1
▁Europe 1
▁sha 1
▁sac 1
สั 1
▁ତ 1
▁Star 1
▁контро 1
▁läh 1
▁tren 1
▁văn 1
▁avo 1
▁paling 1
મે 1
▁Hindi 1
▁доро 1
ουργ 1
▁моло 1
▁problema 1
ส์ 1
жо 1
వి 1
ordin 1
รู้ 1
▁دل 1
umen 1
▁› 1
entuk 1
▁modo 1
obra 1
unj 1
▁quốc 1
▁දෙ 1
isme 1
▁Anh 1
▁doar 1
▁čo 1
▁mengh 1
▁ць 1
▁추 1
98 1
▁우리 1
▁hold 1
▁SE 1
▁неско 1
▁Sant 1
yla 1
▁Ros 1
▁Tech 1
▁Nak 1
amba 1
אה 1
▁miejs 1
どう 1
▁їх 1
▁Play 1
▁Och 1
▁oz 1
▁Vel 1
ček 1
მი 1
▁meu 1
'' 1
вої 1
rou 1
える 1
ങ്ക 1
▁Sed 1
▁natural 1
ální 1
чет 1
▁forum 1
дів 1
эт 1
▁idea 1
▁ساخت 1
nol 1
这样 1
▁Fo 1
▁själ 1
▁perso 1
▁няма 1
▁kond 1
▁Una 1
ื่น 1
▁experience 1
▁مر 1
abat 1
бар 1
arii 1
alta 1
▁DI 1
asse 1
▁tiếng 1
▁Он 1
dig 1
osten 1
ючи 1
▁пери 1
▁wen 1
гре 1
▁buh 1
τές 1
▁Baş 1
star 1
CC 1
▁liệu 1
jalan 1
▁перед 1
ందు 1
▁rồi 1
րան 1
▁آنها 1
▁fok 1
ność 1
▁بي 1
▁نیست 1
▁шу 1
สําหรับ 1
▁eigen 1
▁IP 1
▁علا 1
ಾಮ 1
dem 1
▁tanto 1
▁success 1
▁عد 1
ähr 1
▁order 1
▁zač 1
மை 1
▁ና 1
▁alm 1
▁фе 1
▁lagu 1
ällä 1
▁మా 1
▁trabal 1
unun 1
enten 1
АЛ 1
ingar 1
▁გან 1
этому 1
▁ประ 1
▁21. 1
▁وہ 1
из 1
हरु 1
ēc 1
ایل 1
▁Tah 1
▁δι 1
тить 1
▁וב 1
▁nici 1
ύτε 1
▁Publ 1
▁години 1
மா 1
▁చె 1
▁bất 1
ಿತ 1
▁فرو 1
eling 1
▁forts 1
క్క 1
▁куль 1
▁elektron 1
▁až 1
cı 1
▁នៅ 1
▁今 1
▁popular 1
δη 1
enger 1
▁07 1
▁голо 1
なら 1
ife 1
▁따 1
aber 1
▁เม 1
▁Een 1
pä 1
▁байгаа 1
▁Non 1
کو 1
unar 1
▁المت 1
▁bland 1
íd 1
▁Хо 1
http 1
▁dl 1
▁sir 1
▁автомо 1
▁зу 1
▁1) 1
ρία 1
مار 1
!" 1
utu 1
▁Jed 1
▁dien 1
.“ 1
æð 1
▁çı 1
▁год 1
▁kaz 1
▁(4) 1
▁won 1
כה 1
alı 1
alin 1
ونو 1
යා 1
पी 1
▁সং 1
вна 1
▁>> 1
▁හැ 1
san 1
▁dilakukan 1
LA 1
▁capac 1
▁dejt 1
▁тек 1
ილ 1
▁fie 1
▁мини 1
dən 1
ecer 1
tait 1
oman 1
▁внима 1
▁Pu 1
▁dere 1
osan 1
▁הז 1
үр 1
zar 1
ỉnh 1
iskt 1
▁відпові 1
▁ea 1
token 1
▁عنوان 1
των 1
ค์ 1
에는 1
▁odnos 1
íz 1
ardi 1
▁उत् 1
▁politi 1
anza 1
▁Κα 1
ضع 1
క్ష 1
32 1
atk 1
лку 1
iding 1
▁posta 1
48 1
tual 1
ходя 1
รก 1
lič 1
imes 1
▁Ле 1
bst 1
ικού 1
ками 1
▁поч 1
▁원 1
▁sell 1
ibus 1
▁uv 1
▁trebuie 1
▁taj 1
stå 1
▁предо 1
▁Au 1
իտ 1
ಿಂದ 1
▁افغان 1
טים 1
arin 1
▁foc 1
ຂອງ 1
▁radi 1
▁Mur 1
ಕ್ಕೆ 1
▁спи 1
させ 1
heim 1
ható 1
▁coun 1
wet 1
นั้น 1
▁York 1
▁podr 1
▁{ 1
▁2) 1
▁eru 1
σω 1
▁ép 1
кту 1
үн 1
upp 1
กว่า 1
▁electr 1
▁호 1
elet 1
рябва 1
াহ 1
aian 1
éz 1
我的 1
keen 1
្នុង 1
ầy 1
▁hingga 1
นํา 1
erah 1
स्थ 1
▁שא 1
πει 1
▁alk 1
▁ок 1
epat 1
win 1
ំព 1
لاح 1
▁semb 1
1] 1
▁programa 1
▁lực 1
▁AD 1
▁Nav 1
▁вне 1
лай 1
ləri 1
ieve 1
video 1
▁poh 1
ric 1
▁amely 1
wak 1
▁06 1
שראל 1
мов 1
owied 1
▁प्रति 1
alaman 1
akse 1
▁đơn 1
▁clear 1
▁וע 1
▁company 1
▁fur 1
▁3- 1
▁ት 1
шення 1
▁څ 1
▁material 1
▁포 1
▁இந்த 1
▁ול 1
▁பு 1
▁ল 1
ದು 1
▁வே 1
ћа 1
▁coment 1
▁कार्य 1
yv 1
hop 1
▁Tai 1
leb 1
▁III 1
పు 1
▁vig 1
▁Max 1
▁ami 1
▁dej 1
▁dess 1
льних 1
rev 1
▁kullan 1
ાય 1
rog 1
▁сист 1
rim 1
▁مردم 1
kii 1
▁weer 1
indo 1
▁incre 1
其他 1
▁tham 1
▁اعت 1
ेत 1
▁ster 1
cijas 1
ង្ 1
ოვ 1
▁ఒ 1
...) 1
▁Tod 1
leich 1
ค่ 1
▁both 1
بان 1
سر 1
▁mesmo 1
▁आज 1
nio 1
▁Ø 1
ریکا 1
▁הד 1
joy 1
▁viết 1
eniu 1
▁isang 1
bang 1
קה 1
▁14. 1
▁cred 1
▁kemb 1
isy 1
▁thought 1
حه 1
ınız 1
▁bine 1
▁dokument 1
rael 1
▁ند 1
▁Mes 1
▁lainnya 1
▁2005 1
▁ແລະ 1
▁vár 1
▁Ն 1
λευ 1
▁کردن 1
▁الي 1
kte 1
pra 1
▁منت 1
▁Cel 1
▁재 1
▁fik 1
▁tok 1
▁남 1
▁Lab 1
んだ 1
ples 1
▁fy 1
▁insan 1
နှ 1
NE 1
ချ 1
▁Movie 1
лна 1
▁én 1
يرة 1
▁buk 1
Ad 1
▁մաս 1
▁ola 1
▁klar 1
▁tipo 1
▁रु 1
▁thêm 1
ادة 1
▁yet 1
vær 1
▁ext 1
▁hva 1
TER 1
νω 1
शी 1
▁nội 1
SA 1
▁case 1
orts 1
ිට 1
▁היא 1
ću 1
itti 1
ównie 1
իմ 1
▁writ 1
▁giờ 1
▁dek 1
ãy 1
情報 1
▁20. 1
▁number 1
TO 1
▁което 1
рах 1
້ນ 1
цю 1
راق 1
▁poten 1
▁tang 1
▁geg 1
▁бар 1
owane 1
▁Intern 1
ait 1
▁جام 1
vn 1
▁því 1
ებული 1
▁ዓ 1
▁догово 1
▁නො 1
▁२० 1
üd 1
▁report 1
што 1
▁tā 1
Ar 1
жение 1
▁arm 1
▁অন 1
▁گزار 1
ണ്ട് 1
عي 1
▁чер 1
σία 1
สิน 1
▁rész 1
спубли 1
imiento 1
ψη 1
нци 1
▁sod 1
▁прое 1
ям 1
ous 1
▁Bor 1
▁ligger 1
חר 1
agem 1
νομ 1
▁dön 1
разу 1
িব 1
rian 1
▁đều 1
でした 1
▁작 1
▁nama 1
aling 1
తో 1
▁deres 1
arios 1
しか 1
▁strán 1
μένο 1
ளு 1
▁všet 1
▁прав 1
sson 1
kaa 1
лып 1
ecto 1
rel 1
▁значи 1
▁applic 1
الت 1
▁בר 1
▁available 1
များ 1
▁പോ 1
දී 1
▁회 1
▁Aqu 1
になる 1
▁אל 1
▁פר 1
▁ին 1
▁ው 1
▁tend 1
▁Srb 1
不能 1
▁Kes 1
▁تمام 1
дық 1
ーム 1
目前 1
▁Կ 1
▁oike 1
▁conv 1
اہ 1
ാര 1
▁industr 1
نین 1
ριν 1
▁line 1
▁тя 1
▁stabil 1
▁ਚ 1
▁ling 1
▁spraw 1
▁rag 1
▁1: 1
સ્ 1
รัก 1
▁매 1
صول 1
▁može 1
ైన 1
▁kanssa 1
▁comment 1
▁စ 1
දා 1
ță 1
▁받 1
▁gez 1
unge 1
▁chưa 1
▁§ 1
▁sitt 1
▁пос 1
quot 1
ิ่ม 1
▁බව 1
tera 1
▁Austr 1
ré 1
▁instr 1
▁hoàn 1
▁Gol 1
▁خدم 1
▁pih 1
▁pare 1
erson 1
ién 1
laus 1
ือง 1
能力 1
edes 1
信息 1
กํา 1
stagram 1
ండి 1
▁terd 1
քի 1
▁Comp 1
▁toate 1
inės 1
▁случае 1
▁tutti 1
▁вра 1
куп 1
-8 1
ନ୍ତ 1
▁sana 1
okrat 1
▁without 1
してい 1
▁ის 1
▁bên 1
▁inten 1
▁kaip 1
unds 1
▁multi 1
lip 1
מצ 1
vé 1
യും 1
▁проек 1
▁marketing 1
▁hil 1
ному 1
▁ደ 1
くな 1
าท 1
agaimana 1
▁detail 1
YA 1
tres 1
▁mail 1
▁бю 1
hel 1
ক্ষ 1
▁ره 1
▁Hel 1
▁mejor 1
▁ros 1
VD 1
▁kész 1
योग 1
خو 1
อม 1
▁chang 1
गे 1
เรียน 1
ammad 1
▁shi 1
▁Mae 1
λι 1
▁Ist 1
று 1
ዎች 1
▁Cho 1
▁वर्ष 1
▁Ye 1
▁Nag 1
ូវ 1
రా 1
▁negara 1
фекти 1
outh 1
▁пози 1
▁Dig 1
inci 1
▁свое 1
▁അവ 1
▁បាន 1
▁sos 1
uč 1
▁nhau 1
ئيس 1
▁Ud 1
▁AK 1
нение 1
iens 1
пита 1
нення 1
ραγ 1
▁medlem 1
▁again 1
を見 1
▁alc 1
78 1
burg 1
▁Kami 1
▁Media 1
ත්ත 1
ורה 1
▁Հայ 1
▁también 1
▁record 1
▁September 1
ուս 1
ticas 1
держа 1
▁area 1
▁name 1
▁불 1
▁felt 1
णी 1
▁detta 1
بة 1
pap 1
▁będzie 1
▁(200 1
kod 1
æs 1
▁сам 1
יש 1
▁насе 1
ints 1
通过 1
yes 1
erte 1
所有 1
արկ 1
▁hä 1
▁rig 1
▁Мон 1
GB 1
▁aud 1
ів 1
▁giao 1
чество 1
etah 1
θηκε 1
بو 1
▁partir 1
▁кур 1
лів 1
şti 1
▁daug 1
▁werk 1
▁jsou 1
▁major 1
▁yaitu 1
学生 1
рая 1
▁masyarakat 1
▁харак 1
▁rekl 1
abad 1
▁review 1
▁sci 1
øb 1
▁तु 1
śmy 1
egar 1
▁خواهد 1
▁žel 1
ชี 1
ってい 1
▁egen 1
ific 1
▁ຫ 1
هران 1
acc 1
▁вече 1
▁هه 1
44 1
ությունը 1
ួយ 1
▁mõ 1
ills 1
anka 1
ώρα 1
vär 1
▁зая 1
▁jas 1
zeit 1
▁địa 1
▁With 1
dzi 1
agt 1
ські 1
лд 1
▁آه 1
▁looking 1
▁సి 1
▁หรือ 1
▁vé 1
しています 1
▁haar 1
วั 1
тий 1
一定 1
▁सह 1
راء 1
omis 1
▁ការ 1
bon 1
▁lé 1
▁agus 1
μού 1
मि 1
▁ኢ 1
nja 1
ଛି 1
шин 1
лена 1
▁pia 1
izione 1
ەك 1
▁Pem 1
fte 1
ято 1
▁պատ 1
อะ 1
ਆਂ 1
▁Mot 1
▁высо 1
▁зако 1
empel 1
▁limit 1
▁coll 1
▁idő 1
สด 1
▁masuk 1
▁tanpa 1
สู 1
▁lor 1
мпа 1
ಪ್ 1
▁можна 1
▁Nap 1
▁hadde 1
hur 1
▁Tot 1
▁able 1
▁обу 1
òa 1
цыі 1
▁Pada 1
▁ngoài 1
▁बना 1
▁göra 1
▁bola 1
ίο 1
▁Just 1
▁fler 1
יו 1
▁cad 1
ència 1
▁соответ 1
▁노 1
ใหญ 1
נג 1
▁szerint 1
▁Mir 1
▁Pla 1
ђе 1
▁служ 1
▁ако 1
ərə 1
ρος 1
дзі 1
قا 1
▁čl 1
றி 1
ắm 1
шим 1
tua 1
▁മു 1
▁спра 1
▁langsung 1
▁tour 1
veis 1
▁estar 1
TS 1
inä 1
მე 1
▁අව 1
▁aceste 1
▁deux 1
πό 1
▁chuyên 1
atkan 1
▁करने 1
ěl 1
ftar 1
▁Jahr 1
ebab 1
สร 1
หลัง 1
ложи 1
▁ση 1
aron 1
imą 1
ємо 1
פו 1
▁belum 1
▁tiene 1
▁ပ 1
რა 1
روز 1
▁Mr 1
ាំង 1
ipa 1
πως 1
▁vain 1
בת 1
▁April 1
eu 1
ologi 1
▁нема 1
فه 1
▁Бълга 1
ories 1
менти 1
▁tes 1
▁läng 1
▁уста 1
▁україн 1
ไล 1
▁thai 1
▁sáng 1
ปล 1
▁પણ 1
▁vlast 1
▁rus 1
▁đổi 1
ებით 1
raft 1
▁Jika 1
ውን 1
▁mungkin 1
عود 1
▁НА 1
▁කො 1
▁अनु 1
▁اه 1
olgál 1
gin 1
▁peu 1
kir 1
▁특 1
▁ನೀ 1
asser 1
▁sic 1
▁Let 1
tam 1
зен 1
▁fej 1
пей 1
▁призна 1
ними 1
obe 1
ازه 1
▁elle 1
्ह 1
▁nin 1
▁Word 1
▁دید 1
▁xem 1
ាស 1
ЕР 1
▁Khan 1
αγ 1
ោយ 1
▁partici 1
▁Hu 1
acht 1
▁زمان 1
▁standard 1
חק 1
▁shum 1
▁govern 1
▁लि 1
akah 1
ampu 1
▁배 1
vern 1
▁cual 1
▁another 1
▁پاکستان 1
▁Foto 1
الي 1
elek 1
▁trung 1
اج 1
στα 1
▁jeho 1
▁thing 1
▁финан 1
▁ade 1
mb 1
▁ଗ 1
index 1
▁rằng 1
lara 1
人民 1
أن 1
▁производ 1
▁компании 1
▁wid 1
▁sách 1
▁सक 1
ົນ 1
વે 1
itori 1
НИ 1
מות 1
▁slik 1
க்கும் 1
▁আম 1
০১ 1
മായി 1
▁build 1
ists 1
▁tetapi 1
▁ainda 1
▁18. 1
ට් 1
stre 1
▁firm 1
ียว 1
ସ୍ 1
čas 1
▁किया 1
▁phương 1
▁39 1
一些 1
orie 1
jø 1
!) 1
orno 1
avat 1
nap 1
годня 1
ایه 1
▁terhadap 1
timo 1
▁ಸ್ 1
▁ise 1
▁bö 1
▁Bab 1
▁West 1
▁зе 1
kul 1
▁هستند 1
/200 1
лата 1
▁김 1
▁Με 1
▁swo 1
▁ő 1
óð 1
iving 1
fac 1
▁شخص 1
▁설 1
ոլ 1
ровать 1
▁mọi 1
kv 1
かな 1
ێك 1
▁direkt 1
▁σχ 1
ອນ 1
要求 1
నికి 1
डी 1
atro 1
▁خار 1
ಾರೆ 1
▁onze 1
SI 1
▁ते 1
βα 1
teur 1
rosoft 1
льзу 1
▁мэд 1
▁prior 1
ición 1
ەڵ 1
▁ചെയ 1
▁یکی 1
▁antara 1
телно 1
amiento 1
ယ္ 1
ាង 1
ativo 1
âng 1
▁mengen 1
▁بخش 1
စ္ 1
рован 1
▁puh 1
▁Моск 1
▁გამო 1
dam 1
▁notre 1
▁đất 1
▁ઉ 1
rej 1
▁Leb 1
itur 1
▁ທ 1
eldig 1
▁proiz 1
10. 1
жээ 1
erl 1
τού 1
▁förs 1
identi 1
жет 1
нера 1
เรื่อง 1
િક 1
им 1
сом 1
▁گرو 1
ilar 1
ếm 1
▁اي 1
ampa 1
▁ат 1
▁using 1
▁ਨੇ 1
лах 1
▁экс 1
лайн 1
▁19. 1
agian 1
▁Укра 1
ങ്ങള് 1
▁계 1
▁finans 1
方式 1
rei 1
vious 1
ไม 1
▁zosta 1
ելու 1
▁Kad 1
▁usu 1
▁Black 1
▁уни 1
▁nghệ 1
न्छ 1
▁vand 1
-12 1
▁Ар 1
elas 1
▁compet 1
না 1
кам 1
▁هاي 1
bur 1
iais 1
▁eleg 1
каз 1
γραφ 1
▁sven 1
csol 1
적으로 1
▁показа 1
われ 1
▁dij 1
▁dintre 1
▁Ib 1
▁κυ 1
ental 1
้ม 1
วม 1
いい 1
▁हे 1
▁16. 1
▁član 1
▁anni 1
▁nhập 1
500 1
▁mitt 1
▁lugar 1
▁terjadi 1
内容 1
▁why 1
▁Ham 1
stell 1
anjut 1
tır 1
▁17. 1
▁μεγ 1
шли 1
▁үйл 1
োগ 1
▁sekali 1
▁caz 1
▁حد 1
▁2016. 1
▁Nar 1
fn 1
▁isso 1
▁ഗ 1
▁ši 1
ไว 1
▁vak 1
edz 1
jde 1
について 1
▁många 1
ört 1
▁bä 1
▁febru 1
▁тор 1
▁Cum 1
▁офи 1
46 1
ිම 1
▁게 1
▁کتاب 1
şte 1
▁Stud 1
▁طرح 1
кая 1
ність 1
لمان 1
▁στ 1
▁between 1
▁minist 1
▁será 1
DE 1
リー 1
▁interna 1
▁6, 1
▁kurs 1
▁أي 1
▁doen 1
▁obser 1
apos 1
▁mij 1
ולם 1
▁ô 1
▁жизни 1
▁вто 1
▁check 1
▁당 1
itim 1
▁پاس 1
▁nasta 1
खा 1
▁conse 1
▁menos 1
看到 1
▁Aku 1
തു 1
▁სამ 1
▁precis 1
▁пр 1
▁بم 1
ಷ್ಟ 1
▁sedang 1
ugi 1
ardo 1
ిక 1
ێن 1
خه 1
しました 1
▁simple 1
lık 1
▁тур 1
▁industri 1
blog 1
ongan 1
▁καθ 1
пример 1
▁сла 1
жива 1
▁wij 1
▁недо 1
っと 1
▁propri 1
▁δε 1
čaj 1
▁jeden 1
▁ald 1
▁mắt 1
▁бъде 1
ყო 1
▁Cer 1
▁Lietuv 1
这些 1
ад 1
اور 1
ਿੱ 1
▁trava 1
▁crit 1
▁една 1
によ 1
▁buvo 1
tw 1
льше 1
▁مختلف 1
▁Pel 1
entu 1
▁CD 1
izo 1
stat 1
toj 1
▁food 1
▁bliver 1
вся 1
▁Что 1
▁ድ 1
้อย 1
това 1
▁vah 1
▁Mais 1
ńst 1
▁ני 1
اله 1
arik 1
less 1
▁konkur 1
▁វ 1
ніза 1
ARA 1
maz 1
▁tahu 1
टर 1
▁काम 1
anii 1
ستم 1
uruh 1
HA 1
ต่าง 1
хан 1
▁Oh 1
ospod 1
▁labor 1
uca 1
ческой 1
▁zona 1
øy 1
alitate 1
▁folk 1
▁hierdie 1
ished 1
▁każ 1
▁Trump 1
▁Tin 1
他的 1
кро 1
▁Als 1
▁ଯ 1
tis 1
▁vys 1
▁করে 1
פור 1
▁Ту 1
ژی 1
▁Nä 1
▁этой 1
ţa 1
ודה 1
▁või 1
▁ισ 1
▁diffic 1
▁lun 1
acz 1
жны 1
tay 1
▁sức 1
▁arb 1
▁Ό 1
▁단 1
▁prie 1
▁والم 1
▁گزارش 1
▁Next 1
▁మీ 1
▁indic 1
▁трябва 1
▁aki 1
▁degli 1
▁todas 1
▁gł 1
ects 1
եմ 1
ciji 1
▁emo 1
ollen 1
の方 1
lož 1
▁ಮು 1
্ম 1
▁Lis 1
▁помощ 1
▁vam 1
▁koko 1
भी 1
▁akkor 1
aps 1
▁hasta 1
ož 1
oin 1
ısı 1
▁Це 1
▁three 1
▁Пе 1
vek 1
סק 1
вое 1
λος 1
▁داشته 1
ász 1
▁பா 1
▁этот 1
▁Resp 1
ส่วน 1
▁power 1
▁Lang 1
สี 1
▁vod 1
baar 1
▁jum 1
wab 1
▁bilder 1
▁оче 1
76 1
indən 1
▁sở 1
emain 1
ঙ্গ 1
▁Sams 1
▁rah 1
▁ถ 1
▁которо 1
▁November 1
▁PM 1
æn 1
ëve 1
▁اله 1
▁стру 1
이트 1
сій 1
▁قط 1
▁jih 1
="/ 1
чь 1
▁etm 1
bind 1
▁പറ 1
▁дви 1
ssz 1
▁gebruik 1
▁publik 1
กรรม 1
▁dj 1
▁apie 1
▁Aj 1
▁бра 1
▁Barcel 1
agyar 1
朋友 1
හා 1
ấm 1
▁još 1
ោក 1
▁vô 1
のが 1
▁hộ 1
▁PER 1
ことは 1
▁arv 1
부터 1
▁כא 1
oter 1
▁työ 1
▁kë 1
ορ 1
▁dieser 1
▁със 1
▁ড 1
▁lát 1
にお 1
ikus 1
ilir 1
▁заме 1
iben 1
▁period 1
▁konk 1
skoj 1
iday 1
▁ditt 1
utz 1
▁promo 1
നെ 1
▁600 1
▁46 1
▁día 1
▁изме 1
▁można 1
acja 1
▁Cal 1
▁إن 1
ည္ 1
▁ür 1
▁حقوق 1
▁కొ 1
ිප 1
▁xa 1
▁thích 1
ension 1
▁בק 1
▁خر 1
▁Những 1
▁اسلامی 1
▁Щ 1
▁xx 1
υνα 1
▁место 1
▁követ 1
▁chế 1
▁свою 1
ادر 1
ంచి 1
ップ 1
▁рэ 1
нат 1
эс 1
ıq 1
ढ़ 1
▁tích 1
ynn 1
▁роди 1
主要 1
▁жен 1
த்தில் 1
▁nivel 1
▁сы 1
▁Jakarta 1
mend 1
EV 1
▁szem 1
▁mø 1
▁TP 1
▁יותר 1
と言 1
ılan 1
="0 1
မ် 1
▁thân 1
▁Centr 1
ateľ 1
ikh 1
light 1
▁تغ 1
▁Blu 1
▁Bạn 1
য়ার 1
ised 1
▁Қазақ 1
າດ 1
▁hub 1
ayi 1
tors 1
▁since 1
สุ 1
▁kada 1
lü 1
▁yeni 1
сса 1
ják 1
▁Hall 1
тами 1
њу 1
ból 1
ทร 1
čki 1
▁pasi 1
orge 1
нето 1
▁Stre 1
єм 1
現在 1
zent 1
▁uč 1
▁bulan 1
wei 1
ība 1
▁Ide 1
▁אם 1
▁pang 1
▁nuo 1
▁представи 1
tä 1
ців 1
▁Mari 1
ழு 1
▁यह 1
त्य 1
▁być 1
▁mudah 1
дің 1
▁22. 1
▁något 1
▁tat 1
https 1
▁Che 1
▁ਕਿ 1
▁studi 1
цията 1
▁2018, 1
ível 1
▁quyền 1
▁تاری 1
χν 1
GA 1
ંગ 1
感じ 1
orden 1
லா 1
РА 1
əti 1
ใหญ่ 1
▁продук 1
▁Kem 1
かり 1
sug 1
ρού 1
▁SA 1
្ទ 1
▁190 1
▁fine 1
साठी 1
▁cukup 1
▁Срби 1
▁YA 1
ţie 1
▁energi 1
▁سلام 1
ếp 1
▁rit 1
anjang 1
▁لت 1
гол 1
▁espa 1
▁материа 1
▁terus 1
▁categ 1
▁पो 1
ิว 1
▁þe 1
▁million 1
אים 1
▁кро 1
EZ 1
imet 1
▁ផ 1
▁też 1
▁Ө 1
ıld 1
▁Ru 1
▁rid 1
▁lama 1
яз 1
▁міс 1
almaz 1
▁ಸಂ 1
▁encontr 1
inos 1
цію 1
wala 1
verk 1
ристи 1
ମ୍ 1
▁dub 1
▁mẹ 1
arg 1
▁thuật 1
▁zag 1
▁Ele 1
▁Beg 1
fra 1
▁Пу 1
▁ứng 1
▁away 1
ラン 1
▁automat 1
lega 1
ुरु 1
▁Bos 1
▁Meh 1
ácie 1
▁deix 1
ėjo 1
▁któr 1
▁2004 1
▁today 1
▁sred 1
▁lå 1
▁nang 1
ಾಜ 1
▁Pil 1
ský 1
ил 1
▁oko 1
▁tuk 1
ەن 1
▁технологи 1
▁நா 1
▁saa 1
rol 1
цио 1
▁lip 1
▁lop 1
▁phí 1
uksia 1
▁setelah 1
itut 1
ண்டு 1
lasti 1
▁£ 1
icy 1
ضاف 1
▁quyết 1
▁kant 1
nev 1
▁mos 1
edo 1
▁Gratis 1
cle 1
னை 1
▁նախ 1
▁nám 1
▁spel 1
աջ 1
غه 1
▁kesk 1
▁ilg 1
▁برد 1
▁ను 1
▁(10 1
ومت 1
▁PH 1
▁հայ 1
ksom 1
ários 1
▁olun 1
▁Bat 1
াপ 1
וז 1
сут 1
ოდ 1
ðu 1
▁buy 1
ਤੀ 1
▁بان 1
тік 1
yas 1
▁perfect 1
▁Sum 1
▁artikel 1
lal 1
MP 1
لاف 1
▁dab 1
▁unui 1
▁fü 1
älle 1
ିକ 1
ர்கள் 1
▁magyar 1
zych 1
det 1
▁suka 1
oty 1
ष्ट्र 1
bh 1
▁bran 1
▁امام 1
▁repre 1
▁nada 1
▁42 1
itive 1
▁اقتص 1
ਦਾ 1
▁ký 1
▁beliau 1
▁فعال 1
▁hoe 1
agn 1
▁02 1
ките 1
தை 1
▁Mỹ 1
▁Uni 1
▁kér 1
▁сторо 1
▁små 1
▁करें 1
▁klas 1
▁بگ 1
fy 1
ุง 1
▁Cha 1
ೇಶ 1
onto 1
▁гэта 1
РО 1
▁ট 1
▁Bra 1
▁reci 1
▁cuando 1
ปี 1
▁Your 1
▁Sun 1
▁народ 1
▁tử 1
▁ಮತ್ತು 1
▁acord 1
▁ایم 1
etet 1
dress 1
jam 1
лася 1
▁svet 1
▁ọ 1
▁skol 1
શે 1
вь 1
▁dad 1
ektiv 1
▁nếu 1
▁آپ 1
ells 1
▁საქ 1
ikke 1
▁Οι 1
▁hidup 1
▁vse 1
▁ear 1
▁проти 1
▁զ 1
▁manif 1
មាន 1
hos 1
wia 1
ným 1
▁mã 1
седа 1
шко 1
iel 1
▁mendapatkan 1
▁학 1
графи 1
▁India 1
come 1
рад 1
▁tár 1
িস 1
лото 1
▁хам 1
▁Trong 1
unyai 1
øm 1
▁maak 1
▁нэг 1
નું 1
因為 1
צה 1
▁Ten 1
undi 1
▁ασ 1
wię 1
▁olyan 1
▁produkt 1
lon 1
inio 1
▁Real 1
▁пъ 1
▁dine 1
▁человек 1
บน 1
ource 1
▁Лу 1
كي 1
▁project 1
だった 1
.- 1
atud 1
▁használ 1
▁pren 1
ходит 1
▁fazer 1
sin 1
тего 1
бой 1
77 1
??? 1
iland 1
▁Comm 1
▁gd 1
▁thứ 1
’, 1
անակ 1
▁всички 1
▁bersama 1
្នក 1
▁Mik 1
TC 1
▁grund 1
▁참 1
合作 1
மிழ 1
▁nakon 1
▁चु 1
▁nhanh 1
่อย 1
!!!! 1
▁경우 1
▁سپ 1
▁ľ 1
enza 1
дне 1
▁Esc 1
▁méd 1
urut 1
▁поня 1
▁mye 1
▁pont 1
▁waj 1
df 1
നു 1
▁apart 1
▁Ó 1
▁भएको 1
angen 1
วด 1
▁7, 1
нами 1
▁확 1
віт 1
▁blo 1
▁تهران 1
▁akhir 1
▁هن 1
▁ég 1
▁לת 1
rada 1
ством 1
▁kembali 1
▁arch 1
ագր 1
ໄດ້ 1
ము 1
▁bef 1
▁Naz 1
▁region 1
▁giảm 1
▁파 1
▁laik 1
ató 1
utsch 1
▁lead 1
▁دانشگاه 1
▁Maria 1
▁einfach 1
▁ihan 1
▁адре 1
gra 1
▁vừa 1
▁jalan 1
▁chuyển 1
▁ټ 1
▁lời 1
▁Saya 1
▁Que 1
ické 1
▁Mass 1
▁says 1
▁nombre 1
kah 1
рай 1
ාර් 1
▁Ві 1
▁eb 1
▁Social 1
ണം 1
▁ຄ 1
tice 1
ตั้ง 1
дай 1
▁ana 1
ტო 1
RI 1
živ 1
健康 1
▁입 1
back 1
वार 1
čiau 1
▁들 1
▁change 1
▁ພ 1
ienia 1
▁kin 1
▁која 1
▁преди 1
▁فیلم 1
▁ហ 1
▁מב 1
▁fon 1
▁sto 1
▁trợ 1
oste 1
▁عليه 1
▁оби 1
▁during 1
აკ 1
▁የተ 1
▁защи 1
δια 1
ekan 1
င့် 1
▁සහ 1
lash 1
▁استان 1
▁esse 1
yah 1
લી 1
2016 1
▁प्रा 1
гли 1
▁less 1
ổng 1
▁Out 1
วก 1
უნ 1
ствие 1
lí 1
▁також 1
ști 1
ție 1
▁Pap 1
ชน 1
▁kdy 1
mann 1
зом 1
гээ 1
ვენ 1
ਜ਼ 1
▁እና 1
чний 1
▁viņ 1
ße 1
list 1
▁tuổi 1
▁хэрэг 1
▁kompl 1
▁Main 1
94 1
▁talál 1
▁ör 1
▁oor 1
▁pár 1
มัน 1
▁آز 1
вете 1
lop 1
Fi 1
into 1
▁ซึ่ง 1
ਤਾ 1
ಚ್ 1
▁היה 1
▁prest 1
▁Phil 1
ಾರ್ 1
ราะ 1
ິດ 1
▁μετα 1
σαν 1
эв 1
டை 1
▁ideal 1
▁û 1
шла 1
ently 1
▁frá 1
रो 1
ристо 1
▁personas 1
جد 1
esar 1
ohl 1
мар 1
▁working 1
▁jus 1
вра 1
ุ่ม 1
▁която 1
▁ಲ 1
หนัง 1
ask 1
yak 1
▁tinggi 1
▁lokal 1
ligere 1
▁spill 1
EF 1
▁ഭ 1
▁నా 1
mente 1
▁tau 1
رسی 1
้าย 1
▁teen 1
中的 1
▁samme 1
ိုး 1
▁spo 1
ецца 1
ادي 1
umas 1
ças 1
▁Lin 1
▁די 1
▁tiết 1
▁социа 1
แต่ 1
اق 1
还是 1
ēs 1
▁doğ 1
▁fest 1
▁tir 1
▁hela 1
ەم 1
▁خوب 1
▁đặc 1
dra 1
▁беше 1
nung 1
டிய 1
▁පැ 1
aver 1
▁asta 1
▁hasil 1
ाली 1
▁Tri 1
▁وقت 1
▁дире 1
тку 1
▁적 1
参加 1
▁sier 1
øj 1
▁പി 1
▁Fi 1
ភា 1
▁ran 1
wod 1
▁فره 1
▁համար 1
ส่ง 1
▁qe 1
とは 1
▁участ 1
▁зав 1
▁ছ 1
ikit 1
▁news 1
కో 1
Ch 1
ắp 1
▁urm 1
▁запа 1
ovanje 1
ართვე 1
▁lam 1
▁പു 1
▁tex 1
▁ځ 1
▁03 1
▁Пред 1
▁melihat 1
रि 1
▁పె 1
KA 1
▁ካ 1
▁acum 1
▁поле 1
ables 1
▁pertama 1
ních 1
▁extre 1
▁course 1
გრ 1
स्था 1
▁izm 1
▁समा 1
ibi 1
tev 1
ದೆ 1
▁مم 1
▁bình 1
نگی 1
上的 1
ឆ្ន 1
ezet 1
▁cla 1
▁Brit 1
▁gång 1
كة 1
▁반 1
▁Ду 1
86 1
▁gratu 1
ема 1
▁жела 1
▁równie 1
EST 1
▁ծ 1
▁законо 1
воз 1
▁'' 1
▁글 1
▁కో 1
▁Ken 1
▁money 1
▁någon 1
▁dựng 1
▁Hor 1
ibu 1
▁தொ 1
▁Jer 1
जे 1
▁한국 1
arı 1
ลัง 1
▁mér 1
▁head 1
ەت 1
десь 1
▁Oslo 1
▁isti 1
wood 1
iad 1
-, 1
Un 1
θή 1
▁देश 1
ब् 1
alat 1
aker 1
▁mijn 1
ваат 1
하기 1
ματος 1
uhkan 1
▁Sverige 1
▁Yo 1
ajte 1
след 1
▁Latvij 1
آن 1
▁lett 1
ţia 1
▁ນ 1
фика 1
▁vielä 1
▁۱۳۹ 1
:) 1
▁berbagai 1
▁സം 1
▁duk 1
▁lav 1
▁요 1
▁wz 1
qq 1
▁comer 1
▁Ako 1
▁dina 1
šten 1
▁lem 1
▁four 1
ころ 1
ặp 1
▁kontak 1
▁także 1
▁prep 1
seen 1
▁صن 1
ските 1
▁Cam 1
ేశ 1
elin 1
áž 1
▁пад 1
ování 1
情况 1
▁слова 1
الات 1
▁mert 1
▁માટે 1
▁hozz 1
▁org 1
ոց 1
▁Kim 1
ธร 1
ступа 1
▁aquest 1
▁उस 1
▁tiempo 1
▁برگ 1
րա 1
ูป 1
▁mempunyai 1
女性 1
▁همچ 1
▁käyt 1
▁чове 1
ging 1
▁music 1
یدا 1
πι 1
▁tror 1
ಡೆ 1
imus 1
▁بیر 1
guna 1
▁տար 1
čné 1
යට 1
ських 1
▁Român 1
тельства 1
▁please 1
נט 1
ША 1
▁keine 1
▁doch 1
▁pien 1
▁roman 1
เห็น 1
ilib 1
▁змі 1
▁tijd 1
áci 1
▁Id 1
▁ترین 1
▁차 1
▁04 1
1- 1
▁توجه 1
тр 1
ivät 1
өв 1
▁lep 1
▁меся 1
▁стать 1
▁ech 1
ilai 1
ových 1
iting 1
нин 1
holm 1
ammen 1
▁мага 1
▁τε 1
的に 1
▁így 1
▁Here 1
عر 1
▁تی 1
ാം 1
atar 1
▁креди 1
▁Hvis 1
▁market 1
าะ 1
는데 1
La 1
你的 1
ffer 1
▁sosi 1
▁জন 1
▁lòng 1
ikon 1
ありません 1
ðar 1
▁två 1
чай 1
▁элект 1
▁dd 1
▁შემ 1
▁бро 1
rze 1
เค 1
ี่ยว 1
แต 1
SE 1
▁всі 1
λλην 1
เอง 1
▁pasa 1
▁полі 1
යක 1
ரை 1
▁suur 1
▁Bed 1
WA 1
ший 1
▁luôn 1
▁Đi 1
ലെ 1
جب 1
▁ond 1
lé 1
ilig 1
erek 1
▁badan 1
חות 1
ਹਿ 1
▁ე 1
▁dalla 1
▁против 1
èt 1
asyon 1
RO 1
のお 1
ked 1
wij 1
▁alko 1
ամբ 1
SP 1
got 1
▁erf 1
ждения 1
▁чет 1
ลูก 1
ória 1
国际 1
地方 1
giv 1
כן 1
lish 1
vény 1
▁MB 1
isht 1
န်း 1
kie 1
മ്മ 1
▁impro 1
וף 1
вым 1
▁نور 1
्ड 1
▁عام 1
▁экономи 1
дийн 1
слі 1
▁داده 1
▁као 1
▁kult 1
وات 1
▁sitä 1
▁sov 1
▁Раз 1
▁Febru 1
ăs 1
▁함 1
▁(6 1
▁munk 1
ικές 1
▁वे 1
▁23. 1
▁digital 1
На 1
▁mari 1
开始 1
▁вз 1
sky 1
▁Kul 1
ታት 1
λει 1
▁står 1
▁begin 1
sy 1
ดับ 1
ില്ല 1
▁sle 1
ARI 1
▁majd 1
▁Fol 1
heden 1
▁Bad 1
▁dha 1
ရာ 1
פים 1
llä 1
бно 1
қи 1
▁ID 1
ítés 1
▁يت 1
maa 1
▁10, 1
alom 1
▁Bộ 1
▁эта 1
tų 1
dien 1
▁kommentar 1
▁बता 1
▁۔ 1
▁objet 1
โดย 1
的な 1
ased 1
αιδ 1
▁Tidak 1
▁small 1
▁conten 1
ំណ 1
▁حم 1
▁Dal 1
מוד 1
▁MA 1
▁mål 1
▁gerne 1
ather 1
دف 1
meld 1
asis 1
ोक 1
دان 1
▁así 1
upe 1
льної 1
▁පු 1
ided 1
ရှ 1
▁sever 1
जन 1
▁kub 1
III 1
▁допо 1
▁خواه 1
▁mennes 1
▁vật 1
ක්ෂ 1
▁siz 1
êng 1
▁जान 1
▁طرف 1
ukset 1
▁selama 1
▁install 1
дні 1
ρίου 1
так 1
▁Dag 1
▁νέ 1
▁2015. 1
▁Fel 1
▁ця 1
תר 1
できます 1
▁spør 1
ẫu 1
▁spos 1
▁ერთ 1
▁زندگی 1
ские 1
larını 1
▁AC 1
ectiv 1
žia 1
▁Day 1
lighet 1
▁maz 1
ける 1
▁gjøre 1
мой 1
▁ሓ 1
վում 1
etaan 1
而且 1
▁state 1
ັກ 1
▁Sau 1
▁bắt 1
/2018 1
▁بیشتر 1
lerin 1
ติด 1
zes 1
▁czę 1
šana 1
▁Ple 1
▁phụ 1
▁cultur 1
يي 1
eby 1
▁érd 1
part 1
▁فار 1
ksi 1
tin 1
пада 1
▁Rak 1
▁отри 1
▁будут 1
▁اخت 1
dern 1
อีก 1
▁** 1
ivu 1
лиш 1
nor 1
▁(5) 1
▁maa 1
▁வா 1
ými 1
âr 1
ηση 1
▁سازمان 1
▁VI 1
itis 1
tah 1
▁nhìn 1
НО 1
ಳ್ 1
ース 1
▁cá 1
▁legal 1
сет 1
▁disk 1
めて 1
▁Plus 1
▁selalu 1
▁corre 1
ල්ල 1
দ্ 1
මු 1
انو 1
▁180 1
ften 1
stad 1
▁olika 1
்கள் 1
▁rezer 1
chts 1
▁tamp 1
ною 1
▁бас 1
▁એક 1
лээ 1
▁enjoy 1
elem 1
▁груп 1
ằm 1
▁разме 1
▁hann 1
▁milli 1
sem 1
▁pedig 1
बाट 1
ิ่ง 1
▁предлага 1
▁hanno 1
▁بش 1
ۆی 1
unc 1
▁Namun 1
▁noget 1
vaj 1
όμε 1
▁sido 1
▁yön 1
▁rég 1
▁જે 1
▁گرفت 1
▁qualit 1
god 1
▁dif 1
▁cro 1
ormány 1
▁done 1
りました 1
▁сайт 1
▁ona 1
▁prakt 1
▁출 1
ائل 1
▁Ell 1
▁jon 1
▁Ön 1
▁uten 1
cos 1
▁đặt 1
▁daca 1
▁اجتما 1
▁proses 1
დან 1
▁Αν 1
▁क्ष 1
▁забо 1
▁مرک 1
▁nữ 1
▁دن 1
ža 1
oja 1
▁;) 1
▁Gesch 1
amme 1
لق 1
▁Barcelona 1
wiąz 1
دن 1
iru 1
ška 1
пасно 1
ograph 1
▁אנ 1
▁दिन 1
nehmen 1
▁apo 1
▁بیم 1
▁dey 1
ولو 1
▁godina 1
cijos 1
▁lesz 1
ując 1
▁ଶ 1
បស់ 1
▁ذلك 1
abila 1
▁गु 1
▁Microsoft 1
otu 1
▁ξε 1
oby 1
▁pomo 1
▁තිබ 1
▁lige 1
▁Ada 1
▁Dok 1
▁Rum 1
าศ 1
ීමට 1
▁нап 1
▁antes 1
▁тут 1
▁ძ 1
ారి 1
▁provide 1
の中 1
▁одна 1
▁brand 1
▁سره 1
▁destin 1
ธี 1
▁ł 1
▁Ү 1
ोल 1
▁ము 1
май 1
▁ол 1
▁висо 1
тем 1
æng 1
▁nơi 1
▁night 1
▁غیر 1
encia 1
▁đình 1
▁آخر 1
▁قر 1
▁Admin 1
спорт 1
きます 1
▁2: 1
вне 1
▁jug 1
ecte 1
უს 1
λοι 1
skab 1
▁ऐ 1
зан 1
▁tua 1
商品 1
▁ගැන 1
▁document 1
▁nhỏ 1
▁Rem 1
esser 1
▁album 1
▁сум 1
▁автомоби 1
the 1
▁Nj 1
▁hướng 1
▁mez 1
▁Pad 1
▁ਭ 1
antar 1
ugas 1
▁Tha 1
cios 1
▁tục 1
▁story 1
рий 1
što 1
tics 1
▁szak 1
▁треба 1
▁kiến 1
▁વા 1
այն 1
ále 1
apkan 1
ances 1
unque 1
▁95 1
anse 1
ន្ត 1
öld 1
▁sine 1
▁Spr 1
である 1
▁κι 1
ोट 1
ril 1
iect 1
kommen 1
ੱਚ 1
ANA 1
▁phục 1
▁ო 1
▁Wal 1
വും 1
▁interv 1
issen 1
▁получа 1
▁κό 1
ló 1
▁cet 1
รถ 1
▁tuo 1
▁иска 1
▁līdz 1
istes 1
েল 1
▁mạnh 1
ື່ 1
או 1
▁Oper 1
یدی 1
▁پو 1
řed 1
▁glas 1
ັງ 1
▁escort 1
▁필 1
ұл 1
▁molto 1
still 1
thers 1
बी 1
▁откры 1
χα 1
erinta 1
▁buhok 1
▁hjäl 1
pop 1
▁informasi 1
▁Alex 1
▁prefer 1
ataan 1
してお 1
▁August 1
ingo 1
ró 1
▁eset 1
▁వె 1
▁Υ 1
▁minutes 1
aları 1
▁shumë 1
▁Sud 1
καν 1
പ്പെ 1
pie 1
न्न 1
▁sog 1
ánd 1
▁również 1
្ង 1
єю 1
ța 1
▁σύ 1
▁voz 1
▁Biz 1
▁أم 1
▁weiter 1
่วม 1
▁पह 1
ūsų 1
▁هي 1
сам 1
▁masalah 1
▁спі 1
▁فرا 1
న్నారు 1
▁empresa 1
▁lavor 1
▁установ 1
▁Dh 1
▁اینکه 1
▁tempor 1
▁vent 1
ská 1
▁oslo 1
ราช 1
▁Paul 1
sc 1
▁între 1
्ञ 1
비스 1
▁खा 1
pit 1
သည် 1
▁ден 1
更多 1
కా 1
ennom 1
▁nje 1
▁בס 1
yu 1
っています 1
మి 1
ukum 1
▁servici 1
▁kraj 1
лекса 1
álne 1
▁đăng 1
ೇಕ 1
▁подоб 1
▁zich 1
▁xã 1
گری 1
▁single 1
ρκ 1
▁mach 1
ครั้ง 1
olle 1
▁סי 1
къ 1
ļu 1
▁diz 1
▁упо 1
ញ្ 1
▁porn 1
▁ké 1
▁sev 1
▁состоя 1
▁making 1
idel 1
▁ഡ 1
▁Türkiye 1
▁đánh 1
▁ће 1
▁besch 1
ämän 1
▁زیر 1
দের 1
▁styr 1
▁però 1
льний 1
▁مهم 1
▁understand 1
▁کام 1
្ឋ 1
styr 1
▁κάν 1
gre 1
▁iy 1
▁непо 1
された 1
▁ക്ക 1
haa 1
wyd 1
▁compar 1
kit 1
सि 1
▁ມ 1
▁file 1
▁NE 1
▁Paris 1
▁обяза 1
tem 1
ango 1
いました 1
▁режи 1
▁fire 1
forme 1
भि 1
▁ήταν 1
▁consum 1
▁חי 1
σουν 1
▁europ 1
▁otro 1
▁Brasil 1
արդ 1
ựa 1
lung 1
ТО 1
lab 1
▁gond 1
▁пара 1
нам 1
▁Có 1
▁건 1
rate 1
▁algo 1
ंनी 1
owym 1
▁odgov 1
▁суще 1
▁دولت 1
▁children 1
ческие 1
нете 1
▁lúc 1
▁hvad 1
▁приме 1
မ်း 1
cript 1
▁dum 1
▁color 1
▁кре 1
ческого 1
也不 1
▁nghiệm 1
▁muss 1
лки 1
▁پرد 1
▁Македо 1
▁opera 1
▁massasje 1
▁End 1
െന്ന 1
される 1
▁Բ 1
▁هیچ 1
▁شي 1
▁didn 1
▁کلی 1
▁každ 1
▁ว 1
▁aos 1
elj 1
ριο 1
nte 1
基本 1
▁phố 1
▁vaj 1
▁kunt 1
eras 1
uwe 1
दे 1
▁яко 1
atul 1
▁தமிழ 1
erti 1
cem 1
▁کری 1
たち 1
▁body 1
▁ډ 1
▁жыл 1
▁dva 1
▁которых 1
▁havde 1
▁Є 1
дій 1
▁бой 1
awa 1
▁själv 1
OH 1
▁свой 1
▁Ei 1
ทําให้ 1
▁بعض 1
▁գործ 1
▁Famil 1
▁목 1
▁Cur 1
etag 1
▁eig 1
ονται 1
이지 1
▁tad 1
portun 1
णे 1
▁бес 1
▁ได้ 1
▁מג 1
▁United 1
▁חד 1
ابق 1
▁màu 1
一般 1
があります 1
项目 1
doll 1
▁Vous 1
一直 1
▁ново 1
▁cư 1
▁hund 1
мей 1
▁многи 1
ână 1
▁pomoc 1
ੁਰ 1
்த்த 1
แน 1
▁този 1
ทั 1
▁tekst 1
▁Our 1
▁Ot 1
োন 1
▁ym 1
imen 1
▁David 1
▁kuch 1
▁счита 1
idikan 1
▁과 1
sies 1
のですが 1
hem 1
arden 1
▁gần 1
▁несколько 1
▁año 1
isko 1
▁جمه 1
一起 1
нечно 1
зар 1
acak 1
▁Sand 1
▁μό 1
iteit 1
hab 1
学校 1
▁64 1
arnya 1
▁शि 1
▁quer 1
▁times 1
▁Mein 1
inë 1
▁oblig 1
хай 1
▁chiar 1
ณะ 1
▁thay 1
▁IV 1
িয়ে 1
chan 1
▁других 1
▁دهد 1
▁room 1
udz 1
рії 1
▁للم 1
lägg 1
▁България 1
ଟି 1
▁ٹ 1
のです 1
▁န 1
▁rac 1
sä 1
вного 1
žete 1
ന്ത 1
room 1
▁kỳ 1
voor 1
▁desen 1
▁ganz 1
▁собствен 1
etes 1
ults 1
ன்ப 1
▁வெ 1
▁bagian 1
əli 1
▁всегда 1
kun 1
▁össz 1
àm 1
▁aja 1
вар 1
▁materia 1
elige 1
▁podat 1
ният 1
ží 1
▁lei 1
存在 1
▁евро 1
▁risk 1
▁mulai 1
▁رفت 1
▁font 1
льная 1
тата 1
ște 1
▁yon 1
над 1
▁QU 1
▁unde 1
▁khó 1
לים 1
▁xây 1
▁rodz 1
enen 1
ruč 1
ที่สุด 1
▁800 1
▁vše 1
▁mnie 1
ajd 1
▁Мар 1
▁дума 1
ním 1
зм 1
▁paci 1
▁47 1
▁wala 1
▁sĩ 1
град 1
viron 1
▁χρό 1
▁casino 1
▁digunakan 1
면서 1
▁Գ 1
uit 1
▁жур 1
세요 1
▁šk 1
юць 1
▁rip 1
▁maken 1
▁కూ 1
▁この 1
▁hyvä 1
▁Hum 1
ovanie 1
δή 1
rás 1
bek 1
▁ilk 1
kriv 1
▁именно 1
вин 1
▁kiện 1
στ 1
▁деятельно 1
▁клиен 1
രുന്നു 1
ain 1
建设 1
▁kama 1
ťa 1
▁ollut 1
▁hotell 1
сць 1
üyük 1
اسب 1
▁Nguy 1
▁janë 1
▁tule 1
ومی 1
iros 1
áš 1
▁mindre 1
мир 1
▁preg 1
▁సం 1
▁sł 1
▁sekarang 1
▁alltid 1
министра 1
如何 1
▁expect 1
▁gesch 1
▁Mc 1
▁ønsker 1
essi 1
▁85 1
</ 1
▁تأ 1
fal 1
▁laat 1
ége 1
точно 1
▁hul 1
▁mali 1
ောက် 1
▁فقط 1
ėti 1
▁fill 1
▁cung 1
струк 1
▁भने 1
▁bygg 1
▁olm 1
ньо 1
▁loro 1
成为 1
entos 1
▁Wenn 1
смотре 1
Re 1
dur 1
มือ 1
ês 1
fts 1
ară 1
▁위해 1
ێک 1
тна 1
▁wedi 1
▁Probl 1
ately 1
sts 1
▁prezent 1
▁kek 1
ције 1
▁نمای 1
▁تھا 1
▁inom 1
ников 1
▁स्थ 1
ąż 1
▁పా 1
▁เร 1
anna 1
oner 1
ظم 1
▁thật 1
▁aiz 1
EA 1
fé 1
MD 1
adau 1
ardan 1
▁rasa 1
aven 1
今年 1
▁tog 1
сур 1
եռ 1
活動 1
▁თავ 1
өх 1
ત્ર 1
▁ລ 1
enye 1
▁py 1
▁works 1
sob 1
对于 1
თა 1
▁diag 1
▁Eg 1
▁Cym 1
▁vän 1
▁hati 1
▁이용 1
щото 1
▁2003 1
▁kang 1
ध्ये 1
yllä 1
ಿವ 1
▁kvalitet 1
вој 1
▁gode 1
▁sas 1
▁Email 1
ابی 1
/10 1
orten 1
JA 1
▁Samsung 1
▁приня 1
ško 1
ếc 1
▁Văn 1
▁kenn 1
ția 1
ское 1
terior 1
ورة 1
pot 1
χή 1
áva 1
េស 1
nji 1
▁бюдже 1
ági 1
▁ገ 1
▁key 1
народ 1
ạy 1
▁Пер 1
▁rin 1
ικών 1
▁fabr 1
▁ника 1
stup 1
▁त्य 1
ยว 1
▁suas 1
▁vás 1
вах 1
සු 1
orii 1
▁Oct 1
▁ਖ 1
née 1
▁કો 1
▁denna 1
▁BBC 1
▁ላይ 1
ationer 1
aris 1
▁indi 1
▁fantast 1
▁emplo 1
وري 1
▁فى 1
▁Hen 1
▁élet 1
▁செய்த 1
fog 1
投资 1
ND 1
▁43 1
lut 1
▁neu 1
ยา 1
▁treba 1
▁ក្រ 1
▁我 1
շխ 1
▁වෙන 1
▁gây 1
▁ๆ 1
▁లే 1
▁kiv 1
▁curs 1
рим 1
▁Sav 1
▁Му 1
他們 1
活动 1
вай 1
▁dolor 1
▁Than 1
▁jaz 1
rä 1
пуля 1
ורים 1
▁около 1
Tube 1
чные 1
▁(18 1
▁пър 1
▁jar 1
zim 1
▁گروه 1
æld 1
ajt 1
▁ක් 1
hasil 1
▁viol 1
isl 1
▁!!! 1
თან 1
ಗಳನ್ನು 1
▁` 1
▁гэж 1
çek 1
mir 1
▁публи 1
▁ती 1
END 1
ENG 1
▁осу 1
ในการ 1
▁вну 1
▁الان 1
íp 1
ogi 1
▁biến 1
▁fare 1
▁original 1
apo 1
дання 1
pes 1
eres 1
ştir 1
▁ادامه 1
ños 1
piel 1
sing 1
▁having 1
▁ଓ 1
wu 1
▁بزرگ 1
पर् 1
▁عبد 1
▁după 1
▁dagen 1
▁amet 1
しく 1
▁seri 1
шей 1
kę 1
tas 1
لیل 1
রা 1
▁visu 1
▁Hist 1
▁подо 1
σκε 1
вую 1
ård 1
شتی 1
muş 1
▁fara 1
了解 1
▁આપ 1
сында 1
▁certain 1
ká 1
без 1
▁56 1
▁software 1
ក្រ 1
கு 1
▁jut 1
يث 1
ците 1
▁صح 1
ಳ್ಳ 1
▁dipl 1
▁Hay 1
▁کرنے 1
fit 1
▁proper 1
ably 1
▁card 1
arts 1
maan 1
gmail 1
amt 1
▁кў 1
▁tubuh 1
▁אמ 1
чної 1
▁cei 1
entlich 1
uls 1
uksi 1
▁projet 1
ション 1
чих 1
きました 1
éb 1
стой 1
▁महि 1
▁learn 1
اں 1
ಿಲ್ಲ 1
θέ 1
araq 1
▁కు 1
▁ባ 1
mai 1
▁tetap 1
ော် 1
▁छन् 1
▁Stock 1
▁Федера 1
▁אפ 1
▁İl 1
یمی 1
onu 1
▁جس 1
▁hip 1
▁including 1
onia 1
цтва 1
even 1
സി 1
▁уч 1
ederland 1
ที่มี 1
CO 1
▁Aber 1
▁moc 1
▁آموزش 1
aking 1
ริง 1
ிக்க 1
▁ell 1
▁վեր 1
ବା 1
ingin 1
▁beau 1
κά 1
ÛÛÛÛ 1
▁jednak 1
▁άλλ 1
▁PDF 1
▁ஏ 1
▁Bill 1
▁наши 1
▁вот 1
▁وع 1
▁રા 1
arat 1
νον 1
▁moi 1
▁equ 1
▁princi 1
▁tiek 1
▁Menschen 1
▁Але 1
EH 1
▁अधिक 1
▁drept 1
▁ਅਤੇ 1
pur 1
ដ្ឋ 1
▁encore 1
▁nic 1
лены 1
▁خاص 1
တ္ 1
▁которая 1
নে 1
▁particular 1
eur 1
ıb 1
қты 1
▁생각 1
▁penyakit 1
▁manusia 1
oses 1
että 1
లే 1
ozn 1
▁Kit 1
▁він 1
וני 1
▁namun 1
носи 1
باط 1
▁здра 1
entlig 1
▁Minist 1
▁0. 1
йд 1
ziej 1
▁gab 1
▁chứng 1
▁본 1
▁सी 1
ත්ව 1
oie 1
icación 1
▁pois 1
estr 1
▁osa 1
▁Now 1
ارات 1
▁؟ 1
কার 1
▁Memb 1
▁đạo 1
▁giáo 1
▁ار 1
ềm 1
ําร 1
▁konf 1
cted 1
пъл 1
nologi 1
UH 1
▁najbol 1
▁خلال 1
лім 1
▁خص 1
▁ktorý 1
IX 1
ωση 1
ilde 1
త్ర 1
▁കൊ 1
ියා 1
▁чита 1
▁Vid 1
▁लागि 1
▁الو 1
adır 1
▁sigur 1
කු 1
ech 1
اپ 1
▁yok 1
ять 1
amine 1
▁næ 1
ίνει 1
▁fue 1
▁prat 1
▁lec 1
▁ຕ 1
▁Vic 1
onde 1
▁भारत 1
▁बी 1
▁enf 1
▁çox 1
рана 1
▁Jesus 1
արգ 1
ীয় 1
ёт 1
őr 1
elli 1
▁Under 1
▁candid 1
▁aik 1
кови 1
-19 1
нку 1
ตุ 1
^^ 1
રે 1
北京 1
▁grow 1
вета 1
เครื่อง 1
áy 1
цев 1
▁NG 1
▁gla 1
▁Luc 1
えて 1
▁ഫ 1
ാര് 1
ंना 1
▁сви 1
▁teljes 1
▁Say 1
▁jelent 1
ending 1
кви 1
▁bởi 1
▁után 1
▁bawah 1
қта 1
▁câ 1
▁Τα 1
ਲਾ 1
orr 1
▁fått 1
▁कहा 1
עים 1
แห 1
шего 1
▁:-) 1
arta 1
ໃຫ 1
▁ihm 1
▁getting 1
ОН 1
elés 1
över 1
▁pihak 1
isty 1
▁anderen 1
ullah 1
मे 1
ovali 1
代表 1
യില് 1
бер 1
▁Ihnen 1
▁잘 1
▁Tum 1
azu 1
▁norske 1
2- 1
शन 1
▁още 1
▁ñ 1
annya 1
ulos 1
పో 1
▁tiên 1
ໍ່ 1
▁într 1
▁maxim 1
▁ante 1
▁läm 1
▁jobb 1
▁poco 1
ธรรม 1
NS 1
جل 1
κι 1
ege 1
лли 1
وند 1
▁pana 1
▁diễn 1
▁già 1
oju 1
▁який 1
▁lập 1
icu 1
▁kecil 1
▁Stand 1
တဲ့ 1
▁version 1
▁согла 1
▁pasti 1
▁гр 1
сия 1
▁Wie 1
▁PL 1
▁seç 1
▁Sir 1
ington 1
▁zan 1
ंच्या 1
▁ओ 1
▁วิ 1
तो 1
bah 1
раа 1
▁Jac 1
▁სი 1
▁Một 1
▁ét 1
▁treb 1
▁valor 1
ongo 1
▁laga 1
ellige 1
▁आय 1
КА 1
城市 1
▁Ан 1
注意 1
▁China 1
эж 1
ارة 1
omm 1
▁проведе 1
▁questions 1
ประเทศ 1
eo 1
들은 1
្ធ 1
리고 1
स्ता 1
▁wanita 1
▁дет 1
▁Agen 1
▁gali 1
▁специали 1
▁поя 1
ศึก 1
inna 1
CD 1
▁spir 1
طة 1
put 1
▁SK 1
anut 1
නු 1
55 1
▁úč 1
skiego 1
▁dai 1
▁turn 1
outube 1
로그 1
აშ 1
▁dział 1
edir 1
top 1
بح 1
udar 1
▁chơi 1
サイト 1
rait 1
larının 1
▁गया 1
IST 1
........ 1
▁paras 1
▁እንደ 1
▁توسط 1
maq 1
າກ 1
▁privat 1
▁National 1
▁Kep 1
ével 1
šet 1
ambo 1
▁OS 1
▁واقع 1
▁sina 1
ლებ 1
▁later 1
sat 1
ваць 1
ظه 1
▁které 1
جاد 1
▁ostat 1
elis 1
▁két 1
MTQ 1
▁كرد 1
▁հան 1
ด์ 1
▁तथा 1
ราย 1
ukk 1
ОЛ 1
▁તો 1
▁possibil 1
inka 1
▁выпол 1
ált 1
▁зі 1
гд 1
ரிய 1
övl 1
▁Kontakt 1
γο 1
ends 1
れた 1
▁зад 1
▁норма 1
▁ეს 1
โม 1
任何 1
ării 1
▁ଲ 1
▁CON 1
▁না 1
bij 1
▁liik 1
▁вся 1
▁ngu 1
فع 1
▁ог 1
▁permet 1
▁пси 1
rë 1
▁ట 1
▁versch 1
धा 1
стю 1
▁oku 1
רות 1
▁keçir 1
кло 1
erat 1
▁fick 1
▁πρώ 1
包括 1
▁المن 1
unea 1
▁világ 1
icia 1
NH 1
ères 1
▁Magyar 1
rir 1
دام 1
▁persp 1
imos 1
▁물 1
шно 1
▁dễ 1
ティ 1
▁tung 1
ובה 1
▁jin 1
▁Tapi 1
▁Singh 1
пуска 1
▁vực 1
▁vært 1
र्म 1
▁BiH 1
▁mukaan 1
ел 1
▁conne 1
▁movie 1
▁Eu 1
▁enough 1
▁determin 1
▁stol 1
▁bai 1
▁කිර 1
▁okol 1
buat 1
▁Nik 1
▁pozn 1
तील 1
ями 1
▁места 1
第二 1
▁perd 1
▁veik 1
док 1
▁її 1
▁diesem 1
lit 1
ريق 1
чил 1
▁mant 1
▁Bez 1
けて 1
ikor 1
▁doing 1
elta 1
▁행 1
▁කළ 1
▁digit 1
કો 1
▁thanh 1
▁Республи 1
▁easy 1
▁قیم 1
▁лег 1
ಡ್ 1
▁занима 1
▁επί 1
чего 1
แข 1
47 1
▁Hab 1
▁rz 1
▁сей 1
▁kerja 1
▁жұ 1
πη 1
▁Cy 1
▁tyd 1
▁külön 1
teen 1
▁يا 1
61 1
なかった 1
▁menn 1
▁anc 1
őség 1
▁saf 1
īj 1
▁donde 1
▁ժ 1
▁ec 1
▁ጥ 1
的时候 1
▁රී 1
▁hope 1
жі 1
wil 1
ready 1
່ານ 1
▁Vy 1
▁lista 1
NI 1
న్నా 1
ферен 1
▁ellen 1
▁yol 1
▁slut 1
र्थ 1
روع 1
▁чув 1
ਹੀ 1
nées 1
here 1
▁OK 1
Share 1
▁Gy 1
▁mno 1
грани 1
ври 1
avad 1
▁dedic 1
▁Kö 1
▁relev 1
หลาย 1
emme 1
stel 1
▁Zo 1
▁nữa 1
なが 1
toh 1
▁kemudian 1
▁حا 1
▁строи 1
▁Prim 1
▁ort 1
▁منط 1
'. 1
▁والت 1
▁رد 1
▁времени 1
▁bring 1
▁새 1
onen 1
▁zast 1
prise 1
скай 1
▁Club 1
все 1
▁Como 1
บั 1
▁Tuy 1
▁donc 1
כות 1
йде 1
▁افراد 1
ზი 1
▁LED 1
▁Ihre 1
▁International 1
▁host 1
pin 1
ரா 1
ियों 1
▁szcz 1
เหล 1
ುದು 1
▁opl 1
▁khiến 1
onal 1
ត្ត 1
ссий 1
▁સ્ 1
▁올 1
зер 1
▁પા 1
▁Music 1
rà 1
▁căn 1
▁úgy 1
▁estas 1
▁Zak 1
▁bý 1
lje 1
ষ্ট 1
▁sei 1
дата 1
їв 1
ặng 1
▁ore 1
▁Lietuvos 1
ču 1
▁Ти 1
▁Ге 1
▁chuyện 1
डा 1
▁ہیں۔ 1
▁Одна 1
yszer 1
aan 1
▁зависи 1
▁مجم 1
tı 1
ỡng 1
▁поста 1
▁persona 1
iac 1
▁sür 1
2015 1
tigen 1
▁radio 1
サー 1
▁직 1
ąt 1
uff 1
▁tutto 1
▁kü 1
▁când 1
faat 1
▁РФ 1
ையில் 1
▁Пере 1
פק 1
▁தே 1
etur 1
▁свет 1
▁rese 1
▁ממ 1
▁hết 1
▁дня 1
▁conven 1
িশ 1
care 1
因此 1
同时 1
ımı 1
▁jot 1
▁perk 1
▁quali 1
▁Whats 1
▁вя 1
▁hes 1
щения 1
hov 1
▁tỉnh 1
▁mask 1
▁stil 1
▁böl 1
چی 1
zyć 1
نة 1
▁Kop 1
ři 1
มพ 1
▁شدن 1
▁questa 1
ğu 1
▁המש 1
ไฟ 1
▁hög 1
ague 1
τικής 1
▁inici 1
گیری 1
nel 1
▁current 1
▁months 1
ಲೆ 1
atia 1
▁(0) 1
тика 1
▁etwas 1
▁живот 1
ayaan 1
್ಯಾ 1
▁אבל 1
τικές 1
tage 1
masuk 1
▁gor 1
▁рам 1
יצ 1
▁bahan 1
мира 1
യ് 1
▁ഈ 1
12. 1
amed 1
แท 1
waż 1
▁ಬೆ 1
っても 1
անում 1
fatt 1
▁rast 1
▁darb 1
▁bhi 1
▁penting 1
▁bili 1
ective 1
PA 1
ksam 1
▁cover 1
epas 1
▁nagyon 1
дово 1
▁хэл 1
▁lleg 1
▁stort 1
▁بھ 1
ผ่าน 1
ssen 1
▁alan 1
▁cosa 1
лим 1
bare 1
▁nacional 1
▁nguyên 1
▁diện 1
▁नाही 1
▁bou 1
▁University 1
grad 1
rastr 1
▁Most 1
kou 1
▁4- 1
▁NY 1
égi 1
▁uso 1
▁వా 1
erde 1
▁فروش 1
▁अन 1
▁jego 1
▁tinh 1
▁두 1
тах 1
istian 1
▁waren 1
jour 1
▁ئێ 1
▁wonder 1
▁리 1
▁Pentru 1
▁خدا 1
▁49 1
isiin 1
▁quanto 1
▁જો 1
smål 1
▁taraf 1
UNG 1
лий 1
▁vat 1
volu 1
вается 1
▁دنی 1
▁least 1
▁lợi 1
лено 1
ært 1
אר 1
▁Esp 1
▁sõ 1
śnie 1
əz 1
▁auk 1
лаа 1
▁benar 1
▁đủ 1
▁ਸ਼ 1
char 1
sted 1
▁вос 1
▁prik 1
▁krij 1
▁waxa 1
▁Mont 1
▁студен 1
เพิ่ม 1
▁KH 1
▁represent 1
kos 1
▁Ai 1
erii 1
φα 1
ංක 1
▁було 1
▁هایی 1
▁kaw 1
▁کسی 1
▁Ś 1
тивно 1
▁Mill 1
▁Ji 1
只是 1
ecu 1
▁pessoas 1
пози 1
તિ 1
▁topl 1
▁아이 1
antai 1
▁intens 1
óz 1
▁Feder 1
▁извест 1
árt 1
▁mg 1
now 1
▁sf 1
▁මහ 1
▁Int 1
▁Dies 1
▁jenis 1
▁hlav 1
▁þar 1
▁Gh 1
▁pah 1
▁реко 1
тті 1
čni 1
łącz 1
▁Link 1
▁এই 1
นิ 1
щих 1
▁tě 1
▁friends 1
▁anno 1
▁olen 1
▁chung 1
ňa 1
ってしま 1
ivan 1
λον 1
FF 1
▁opportun 1
▁Minister 1
ිල 1
▁한다 1
MS 1
▁conoc 1
ρον 1
wikipedia 1
IDEO 1
wend 1
▁평 1
вки 1
omin 1
ឆ្នាំ 1
▁club 1
・・ 1
جو 1
íl 1
ստ 1
ုံး 1
tip 1
ësh 1
▁ການ 1
angka 1
-2018 1
ოლო 1
▁amat 1
▁lidt 1
годи 1
▁Ved 1
▁Ла 1
inni 1
▁2014. 1
ữu 1
▁Ô 1
▁گل 1
לת 1
▁valam 1
íme 1
的事 1
CI 1
cyj 1
▁یاد 1
▁ember 1
▁ву 1
▁student 1
▁škol 1
вят 1
ုပ် 1
tség 1
ům 1
▁تل 1
▁wł 1
ээд 1
▁sesuai 1
▁θε 1
idu 1
▁մե 1
łe 1
▁alte 1
еди 1
führ 1
▁Cast 1
▁Nous 1
sor 1
ствует 1
สร้าง 1
▁۳ 1
▁Januar 1
ことも 1
▁đưa 1
čan 1
▁בג 1
▁pé 1
▁अपने 1
なん 1
▁ней 1
▁enkelt 1
▁مسئ 1
▁8, 1
▁pac 1
▁gerek 1
▁första 1
▁Hari 1
這個 1
▁отме 1
▁Không 1
▁газ 1
▁магази 1
▁बु 1
▁sekitar 1
เขา 1
▁настоя 1
ņu 1
▁mů 1
▁байгу 1
prim 1
ké 1
yel 1
▁Grup 1
▁διά 1
▁1990 1
usahaan 1
iker 1
▁clar 1
ప్పు 1
র্ব 1
▁способ 1
▁елект 1
əsində 1
▁Page 1
ろう 1
бри 1
▁конкур 1
▁Arch 1
vá 1
▁Natur 1
▁Jam 1
▁Ако 1
▁TO 1
film 1
Ma 1
▁열 1
▁fois 1
▁klass 1
▁الز 1
▁geni 1
▁duy 1
రో 1
▁безо 1
odd 1
▁EUR 1
iles 1
ట్ట 1
▁હો 1
tais 1
▁tax 1
▁karakter 1
▁بسیار 1
เกิด 1
▁finden 1
okr 1
હી 1
▁tiden 1
▁ана 1
▁fet 1
шін 1
úa 1
▁шо 1
▁mód 1
тво 1
▁eines 1
UG 1
▁vệ 1
ंक 1
▁måste 1
▁خرید 1
▁момент 1
▁Minh 1
▁doesn 1
inform 1
ojo 1
ಿಸಿ 1
erior 1
เล่น 1
سل 1
czas 1
▁Had 1
lic 1
halten 1
▁signific 1
ത്യ 1
क्स 1
▁하는 1
ittaa 1
▁zbog 1
良い 1
▁Bình 1
▁bỏ 1
emin 1
ému 1
▁perman 1
▁ανά 1
▁역 1
▁quản 1
ías 1
▁Nếu 1
īgi 1
▁tert 1
原因 1
▁Ped 1
ុន 1
▁Tä 1
▁רא 1
כי 1
▁দে 1
▁kompet 1
▁tên 1
дах 1
▁needs 1
טה 1
uel 1
▁mula 1
idor 1
tron 1
▁qa 1
▁Instagram 1
▁отде 1
▁інформа 1
▁लगा 1
jad 1
▁вър 1
▁بوده 1
tö 1
чем 1
दि 1
▁ອ 1
akas 1
▁geht 1
▁komm 1
ുന്നത് 1
▁kde 1
луу 1
mainan 1
ён 1
▁ҳам 1
▁Ins 1
▁ਫ 1
▁sand 1
عداد 1
yam 1
自然 1
▁99 1
▁veh 1
▁участи 1
49 1
▁Кра 1
▁เพื่อ 1
▁Спо 1
▁видео 1
▁гі 1
้อน 1
zza 1
▁መን 1
▁toget 1
pil 1
റ്റ് 1
▁아니 1
বার 1
ିତ 1
▁Raj 1
▁купи 1
▁ਪ੍ਰ 1
▁χα 1
fied 1
र्ण 1
زان 1
din 1
▁Prin 1
▁تولید 1
aminen 1
ედ 1
▁مشکل 1
66 1
ולה 1
▁cáo 1
▁lud 1
▁tis 1
▁ιδ 1
▁Här 1
▁triệu 1
▁Лю 1
▁Ri 1
emt 1
ことで 1
йт 1
åt 1
▁light 1
ighed 1
oco 1
▁кој 1
▁екс 1
isuus 1
▁siya 1
▁см 1
▁jää 1
▁تور 1
шни 1
ਦੇ 1
▁основ 1
▁following 1
▁люби 1
anne 1
fund 1
▁sobie 1
oldid 1
▁ră 1
▁deve 1
▁ogni 1
வை 1
but 1
▁ii 1
льным 1
ungg 1
▁Vill 1
▁Afrika 1
sik 1
tijd 1
▁във 1
▁онлайн 1
INE 1
▁leh 1
ാല 1
ommen 1
पर 1
▁Бі 1
▁innov 1
▁_-- 1
▁uch 1
▁jal 1
▁Wer 1
τισ 1
adaan 1
▁យ 1
лга 1
යෙන් 1
▁komentar 1
สิต 1
świ 1
有一 1
▁sera 1
ically 1
ೇಳ 1
▁suatu 1
▁يم 1
говор 1
▁đồ 1
▁hulle 1
▁sering 1
мад 1
▁chia 1
▁σου 1
்கு 1
▁alta 1
No 1
▁bedre 1
▁ارز 1
▁already 1
▁Amerika 1
ገር 1
ذلك 1
ential 1
ریت 1
වු 1
kej 1
▁गर्ने 1
De 1
zak 1
ense 1
▁क्या 1
eszcze 1
вед 1
övlət 1
िएको 1
▁NO 1
ired 1
uper 1
igr 1
▁stato 1
зма 1
▁Spa 1
▁luar 1
être 1
द्य 1
▁Thông 1
ವು 1
▁mini 1
-15 1
▁обеспе 1
ैन 1
بع 1
வே 1
ović 1
▁click 1
▁juni 1
▁Artik 1
▁short 1
ये 1
તો 1
▁within 1
▁bord 1
▁вари 1
жат 1
ogn 1
年的 1
▁бор 1
▁preven 1
▁prid 1
▁hitt 1
stru 1
nico 1
عمال 1
werk 1
zien 1
ising 1
▁Украи 1
arth 1
▁Dani 1
ំន 1
▁Krist 1
▁Վ 1
▁serie 1
avy 1
▁드 1
▁dép 1
čit 1
▁AT 1
mä 1
▁eða 1
สาร 1
。」 1
ški 1
学习 1
cell 1
▁μπορεί 1
▁facebook 1
▁sort 1
DP 1
tionen 1
เจ้า 1
риста 1
▁ως 1
▁några 1
▁درب 1
etan 1
▁จาก 1
времен 1
▁жиз 1
▁Ի 1
вид 1
▁என 1
▁dni 1
▁نب 1
▁kapcsol 1
▁level 1
▁Ia 1
▁پہ 1
▁Jahren 1
▁දැ 1
fun 1
zioni 1
ktor 1
ších 1
▁komme 1
▁server 1
▁अव 1
▁ଉ 1
ütün 1
▁discuss 1
▁raj 1
▁mampu 1
iges 1
ços 1
सार 1
▁öğ 1
▁bonus 1
▁accom 1
öst 1
urat 1
▁ساعت 1
▁deur 1
ولة 1
▁cup 1
▁mulig 1
sas 1
ндар 1
▁ملی 1
▁görə 1
▁regist 1
▁Lie 1
▁Ін 1
niki 1
/12 1
ologia 1
ച്ച് 1
▁Hun 1
▁έχουν 1
▁tượng 1
▁forhold 1
гло 1
жете 1
▁suo 1
▁toda 1
▁održ 1
▁hyvin 1
кую 1
vec 1
▁vaz 1
▁दा 1
▁система 1
▁מד 1
ложение 1
▁puol 1
▁než 1
obo 1
▁ఒక 1
▁Hv 1
▁Чи 1
▁Casino 1
ຫນ 1
▁गर्न 1
yrics 1
▁dak 1
აში 1
▁hend 1
▁bort 1
▁надо 1
▁гар 1
ହା 1
以下 1
▁бір 1
ื้น 1
▁vier 1
ोर 1
▁рекла 1
▁bend 1
▁ഹ 1
▁Sooma 1
▁гото 1
वन 1
тот 1
▁func 1
त्या 1
▁ඇති 1
▁fő 1
▁onde 1
▁financi 1
yin 1
ael 1
En 1
ortun 1
daj 1
▁дву 1
дава 1
▁pied 1
▁praw 1
หนึ่ง 1
▁size 1
עי 1
जार 1
وک 1
óri 1
▁obraz 1
▁mean 1
▁poseb 1
այի 1
▁manera 1
tava 1
▁rép 1
▁პრო 1
ולי 1
▁정보 1
μαν 1
▁rõ 1
נק 1
들의 1
etin 1
▁molt 1
▁max 1
άζ 1
adax 1
▁từng 1
ନ୍ତି 1
ảy 1
▁Catal 1
pod 1
▁aplic 1
ضل 1
▁πολύ 1
影响 1
▁سیاسی 1
gs 1
多く 1
▁tres 1
▁venn 1
UA 1
्रो 1
ម្រ 1
▁суд 1
▁gek 1
▁nord 1
reen 1
ners 1
個人 1
▁म्ह 1
ท์ 1
▁Dob 1
▁قانون 1
▁мет 1
▁kuh 1
▁جائ 1
▁‫ 1
▁sale 1
▁운 1
▁può 1
▁phân 1
▁جز 1
ыр 1
▁until 1
કા 1
▁خوا 1
ehatan 1
▁cie 1
▁keď 1
ющий 1
▁visi 1
ëtë 1
▁vě 1
▁though 1
्व 1
onos 1
▁маши 1
▁első 1
▁Test 1
▁Madr 1
্ড 1
▁وارد 1
ສະ 1
▁ของ 1
▁катего 1
bie 1
▁bog 1
ører 1
▁lel 1
ောင် 1
▁melhor 1
dik 1
▁распо 1
▁pirm 1
▁Over 1
ංග 1
▁origin 1
▁happy 1
வா 1
нно 1
▁mahdoll 1
▁коле 1
yty 1
rådet 1
pri 1
▁tý 1
▁சொ 1
▁separ 1
γε 1
▁доба 1
utor 1
ซื้อ 1
▁бир 1
ссо 1
▁buc 1
តិ 1
▁gjort 1
▁الأم 1
araan 1
▁erst 1
ួន 1
يش 1
off 1
▁свої 1
ambil 1
▁þá 1
ünü 1
作为 1
▁Në 1
MI 1
▁unei 1
▁Radio 1
्न 1
лары 1
▁Hels 1
וש 1
▁trực 1
▁دارند 1
▁gjennom 1
直接 1
▁weit 1
skar 1
ection 1
вень 1
гов 1
▁demon 1
▁다른 1
▁dall 1
ticos 1
▁cod 1
▁мест 1
เมือง 1
真的 1
▁mā 1
▁wyd 1
տր 1
ាច 1
ÉÉ 1
ساس 1
кін 1
ଡ଼ 1
اتھ 1
れて 1
ćen 1
бере 1
menta 1
▁kry 1
σια 1
▁stress 1
တြ 1
NO 1
▁повече 1
▁बे 1
דות 1
▁gjør 1
kach 1
▁২০১ 1
jos 1
▁kulit 1
akk 1
ător 1
▁2017, 1
otti 1
umento 1
▁ова 1
▁Roz 1
mag 1
δε 1
▁fél 1
▁sini 1
▁cres 1
šo 1
▁aina 1
etas 1
▁Muse 1
гат 1
usus 1
▁dessa 1
gam 1
▁Tas 1
▁truyền 1
unut 1
▁Loc 1
▁Nguyễn 1
/11 1
▁Klik 1
aval 1
▁aang 1
यर 1
▁mobile 1
▁Chính 1
ított 1
คิด 1
стар 1
▁ଚ 1
▁अब 1
▁കൂ 1
▁datang 1
▁Под 1
取り 1
ală 1
▁byg 1
▁كما 1
▁Nah 1
цеп 1
▁جا 1
▁määr 1
▁בין 1
▁chiến 1
这种 1
▁Eesti 1
▁glad 1
▁relativ 1
▁افغانستان 1
ช่วย 1
▁स्व 1
▁bac 1
улах 1
▁ezt 1
лите 1
▁Ча 1
▁together 1
▁เด 1
▁ဆ 1
▁ακ 1
▁aer 1
▁الغ 1
iras 1
umus 1
్వ 1
стта 1
বি 1
▁problém 1
▁selbst 1
ትን 1
▁ove 1
▁ξ 1
▁праз 1
ازم 1
acyj 1
▁Une 1
▁contribu 1
▁hvil 1
▁konc 1
ंब 1
unty 1
▁ಬಿ 1
▁поче 1
▁genn 1
▁пові 1
▁أك 1
▁میلی 1
▁dobro 1
പ്പോ 1
▁geme 1
icher 1
ulat 1
▁щоб 1
▁sites 1
▁bug 1
▁бере 1
ენტ 1
▁mỗi 1
ART 1
фон 1
▁розви 1
▁invol 1
▁захи 1
▁Dari 1
erse 1
aniem 1
மு 1
▁Hur 1
▁сами 1
▁полно 1
▁Ελλά 1
бора 1
▁edir 1
lež 1
iber 1
▁itt 1
ową 1
▁Inf 1
▁kund 1
сова 1
開始 1
jär 1
ўні 1
▁Հայաստ 1
ensen 1
ээл 1
шло 1
▁naman 1
▁Live 1
LI 1
prav 1
▁заяви 1
ĩnh 1
արտ 1
▁cen 1
เวลา 1
▁সে 1
▁Fall 1
ənd 1
▁интернет 1
pert 1
▁cứu 1
ართველო 1
▁פע 1
▁भए 1
▁зро 1
দেশ 1
utas 1
▁وزار 1
▁ህ 1
itie 1
▁ներ 1
▁Â 1
amar 1
▁neh 1
▁seni 1
▁خصوص 1
▁ito 1
▁прод 1
▁komple 1
ikä 1
▁ყვე 1
▁قیمت 1
香港 1
▁äl 1
ameni 1
▁finde 1
▁util 1
ที่จะ 1
▁eftir 1
ាត់ 1
▁เข 1
кет 1
tiful 1
▁Mü 1
▁реши 1
▁Nederland 1
▁съм 1
精神 1
қу 1
▁ಹೊ 1
voir 1
nymi 1
▁Gala 1
▁प्रदेश 1
▁Thanks 1
▁mayor 1
нта 1
ildi 1
версите 1
▁Long 1
▁keres 1
ంగ్ 1
пута 1
▁Това 1
▁3: 1
▁sea 1
那么 1
▁hỏi 1
▁президен 1
▁malam 1
▁Previous 1
ersi 1
лка 1
▁ڵ 1
▁සම 1
▁əs 1
▁27. 1
▁ثبت 1
▁vard 1
▁причи 1
රණ 1
▁боло 1
ଷ୍ 1
什麼 1
▁AG 1
▁actually 1
▁δύ 1
tv 1
▁sala 1
▁مثل 1
▁relig 1
▁Jen 1
▁Inn 1
По 1
ەتی 1
▁Aur 1
▁ولی 1
▁kedua 1
jö 1
▁طور 1
▁нео 1
רון 1
▁тази 1
อาหาร 1
▁thuộc 1
în 1
кса 1
anno 1
▁วัน 1
▁ring 1
▁enter 1
zyst 1
pret 1
▁esim 1
这一 1
▁möj 1
▁ips 1
▁phi 1
BS 1
orer 1
科技 1
ভা 1
rane 1
кли 1
▁GR 1
τεί 1
▁наи 1
ící 1
▁თუ 1
Com 1
▁ī 1
▁მის 1
▁opin 1
▁Fak 1
▁erg 1
▁však 1
▁often 1
คือ 1
нове 1
րդ 1
▁позволя 1
чить 1
▁сделать 1
▁objav 1
/1 1
▁9, 1
በር 1
▁41 1
wch 1
▁ہی 1
▁сооб 1
icka 1
▁comb 1
▁stör 1
▁카 1
▁ولا 1
มิ 1
avan 1
ymo 1
▁وح 1
▁Hon 1
upu 1
▁appe 1
▁يع 1
完成 1
wana 1
ଥିଲ 1
▁plasing 1
ונים 1
▁Fot 1
▁fen 1
▁twee 1
▁avant 1
ንድ 1
რე 1
▁gegen 1
▁spa 1
kop 1
estra 1
▁Okt 1
▁wyn 1
▁preds 1
▁rätt 1
▁докумен 1
ités 1
etz 1
ession 1
orem 1
uthi 1
▁tsy 1
▁centro 1
其中 1
▁hiểu 1
▁analiz 1
▁जन 1
”。 1
▁koment 1
▁เก 1
▁Αυ 1
▁UK 1
台灣 1
▁Lok 1
▁ના 1
bile 1
ల్లో 1
▁yen 1
્યો 1
▁дело 1
្ថ 1
íte 1
▁fact 1
▁kaikki 1
يدة 1
льное 1
alnya 1
行业 1
▁ដែល 1
▁Selain 1
▁använd 1
▁conte 1
ehova 1
ără 1
▁ď 1
▁1,5 1
tuur 1
▁folos 1
▁управле 1
▁Kung 1
▁hər 1
രെ 1
▁것이 1
ပါတ 1
▁jat 1
▁કરી 1
▁dung 1
гру 1
აცი 1
▁chiếc 1
▁interi 1
▁Sor 1
▁хар 1
▁όπως 1
▁Resta 1
▁view 1
จริง 1
umenta 1
ခြ 1
▁ander 1
book 1
كه 1
▁Bund 1
▁kuiten 1
pression 1
▁ful 1
নি 1
▁tied 1
▁specific 1
▁kev 1
NL 1
ustus 1
สินค้า 1
▁28. 1
▁WA 1
▁trou 1
▁tunn 1
▁Tour 1
▁tran 1
ẩu 1
▁uden 1
▁πολι 1
Pro 1
▁hours 1
قدم 1
▁מכ 1
▁화 1
ところ 1
人员 1
гуу 1
▁cửa 1
ilia 1
ວ່າ 1
ственно 1
▁someone 1
▁thư 1
▁ಹೆ 1
▁students 1
ಿದ್ದಾರೆ 1
▁3) 1
▁Ig 1
▁membantu 1
▁machen 1
We 1
▁Buc 1
oci 1
▁Dum 1
▁συνε 1
▁США 1
▁vaik 1
▁запи 1
ről 1
ksen 1
▁redu 1
jus 1
wel 1
▁large 1
▁commer 1
ంటే 1
ੁੱ 1
isata 1
▁변 1
▁jedn 1
▁няко 1
▁által 1
▁tá 1
▁soc 1
▁пера 1
äch 1
дый 1
▁Gir 1
▁จะ 1
▁සිට 1
יא 1
▁respon 1
▁posto 1
cam 1
▁norsk 1
زش 1
▁(6) 1
▁кол 1
▁тоа 1
▁свобо 1
คํา 1
▁اطلاعات 1
Press 1
▁aver 1
▁медици 1
▁клу 1
▁белару 1
▁ЗА 1
▁ቀ 1
uš 1
▁držav 1
▁ئەم 1
▁wana 1
▁objek 1
uvent 1
నా 1
▁mục 1
akor 1
新的 1
もしれ 1
యు 1
全球 1
▁watch 1
▁تاریخ 1
▁لي 1
▁2013. 1
▁ř 1
▁کنیم 1
ित्र 1
87 1
▁Съ 1
▁,, 1
▁ون 1
λυ 1
porte 1
或者 1
வில் 1
લ્ 1
▁ሕ 1
▁дія 1
▁tale 1
▁vám 1
▁Ну 1
▁cau 1
▁South 1
гова 1
▁nổi 1
▁달 1
▁sign 1
▁paar 1
企業 1
▁saber 1
љи 1
ល់ 1
▁sector 1
作品 1
ANT 1
een 1
▁London 1
▁consult 1
▁पार 1
▁Når 1
үүд 1
▁influ 1
▁ljudi 1
▁ialah 1
▁product 1
▁pid 1
छि 1
▁touj 1
▁zł 1
▁רק 1
数据 1
▁человека 1
▁παρά 1
▁house 1
▁reduc 1
▁شک 1
▁опи 1
▁egész 1
▁alum 1
цата 1
дина 1
▁Maar 1
▁Group 1
▁sant 1
▁עד 1
ूप 1
▁När 1
aze 1
▁יכול 1
▁vă 1
成功 1
▁වැඩ 1
▁часто 1
▁kaup 1
▁róż 1
ständ 1
▁54 1
idar 1
urity 1
▁administrat 1
▁함께 1
▁මා 1
μένη 1
ън 1
人が 1
हित 1
▁Vad 1
▁circ 1
тора 1
▁하나 1
▁یو 1
▁сегодня 1
▁بدون 1
▁satis 1
コン 1
emand 1
ácia 1
▁aqui 1
aming 1
ebi 1
alitas 1
▁طرا 1
▁Não 1
вав 1
astr 1
кола 1
▁такой 1
▁навча 1
της 1
tei 1
▁members 1
▁ам 1
▁לג 1
▁αρχ 1
йда 1
▁senza 1
▁таких 1
▁Bag 1
దా 1
etto 1
▁Peter 1
ao 1
sche 1
За 1
დება 1
▁пользова 1
▁موا 1
ելի 1
▁FOR 1
jej 1
▁బా 1
▁bàn 1
全国 1
сня 1
▁sağ 1
▁зах 1
▁ບ 1
iyor 1
▁front 1
dı 1
▁USB 1
▁ან 1
ម្ម 1
▁Oo 1
აქ 1
▁сен 1
▁сейчас 1
urch 1
οινων 1
▁Цен 1
▁ic 1
▁Soci 1
ekk 1
▁self 1
تل 1
▁hefur 1
▁cảnh 1
▁Ever 1
inggu 1
ложения 1
ціона 1
блю 1
▁피 1
▁سف 1
▁добро 1
▁̧ 1
▁yks 1
▁april 1
▁Dol 1
▁Center 1
▁profil 1
ined 1
▁mitä 1
каў 1
▁cea 1
CA 1
สอบ 1
alian 1
šanu 1
্স 1
▁ident 1
▁jenter 1
▁hazır 1
▁Nr 1
rš 1
äre 1
▁Prem 1
חי 1
لوم 1
▁plant 1
67 1
asto 1
▁stim 1
ljiv 1
kg 1
▁שב 1
▁खु 1
▁побе 1
▁research 1
하지 1
▁podob 1
▁status 1
ლე 1
▁கூ 1
▁paljon 1
▁bia 1
ábbi 1
▁toho 1
▁ಎಂದು 1
▁metod 1
őt 1
▁நீ 1
etahui 1
▁eerste 1
▁Deutsch 1
ង់ 1
▁ຈ 1
▁الى 1
▁ஜ 1
σεων 1
多い 1
▁damit 1
▁liber 1
▁celeb 1
યો 1
λεί 1
▁lij 1
▁naud 1
▁კი 1
▁иск 1
sv 1
▁صفحه 1
▁հար 1
ட் 1
▁Sad 1
▁가능 1
▁24. 1
▁ਕੀ 1
bles 1
ուց 1
支持 1
▁Nd 1
▁\\ 1
လို 1
మె 1
ollo 1
▁Beh 1
▁Andre 1
േഷ 1
στο 1
ojnë 1
▁fix 1
جان 1
스트 1
▁المح 1
▁blogg 1
្ប 1
ONG 1
гаар 1
โน 1
▁usp 1
ણી 1
▁graf 1
▁nahi 1
▁ark 1
enci 1
▁global 1
ਰਾ 1
▁проводи 1
ján 1
ืน 1
▁закон 1
ાવ 1
నీ 1
мын 1
າວ 1
дру 1
▁Pay 1
▁kala 1
▁بیان 1
asanya 1
紹介 1
ניה 1
▁Uz 1
▁कम 1
▁نوع 1
ўна 1
▁cookie 1
▁поме 1
uras 1
▁trop 1
▁meet 1
▁säger 1
nın 1
▁këtë 1
▁month 1
▁పో 1
▁detal 1
ولی 1
رین 1
▁põ 1
ateur 1
▁روش 1
▁terb 1
▁pala 1
ျပ 1
▁Saat 1
kw 1
дав 1
heder 1
▁dacă 1
▁distribu 1
不要 1
▁доби 1
skiej 1
imis 1
▁کان 1
▁groot 1
▁interven 1
NY 1
φή 1
▁uporab 1
▁продол 1
וך 1
▁dài 1
ИН 1
ண்ண 1
ос 1
્યું 1
struk 1
եք 1
▁prih 1
▁Nad 1
itto 1
▁nova 1
ców 1
▁Қазақстан 1
нала 1
▁hag 1
мп 1
▁ats 1
ောင်း 1
bos 1
选择 1
다는 1
่วง 1
▁vij 1
urance 1
▁đời 1
▁principal 1
▁isi 1
-200 1
æll 1
ρέπει 1
▁semana 1
اران 1
▁exact 1
ikko 1
?) 1
▁Сан 1
▁Сле 1
▁kuma 1
apun 1
▁vur 1
▁रुप 1
بات 1
ട്ടി 1
irsiniz 1
CE 1
▁intre 1
▁berikut 1
ण्ड 1
スタ 1
▁lång 1
▁сотру 1
▁proy 1
▁Parti 1
тін 1
ਹਾ 1
ชาติ 1
▁ഞ 1
oph 1
▁50% 1
tuu 1
▁nät 1
ùa 1
idence 1
oor 1
▁account 1
▁putea 1
▁гри 1
▁quality 1
人の 1
▁mae 1
ችን 1
▁bà 1
相关 1
ээс 1
ೊಂಡ 1
▁ucz 1
▁viktig 1
▁Republik 1
▁seluruh 1
▁mee 1
▁änd 1
чне 1
▁France 1
▁lung 1
ЕТ 1
▁Big 1
▁nytt 1
▁aliment 1
kelig 1
▁način 1
ಾಸ 1
▁३ 1
bere 1
мерикан 1
甚至 1
▁NH 1
bert 1
▁Inc 1
▁Israel 1
ρίζ 1
▁Bul 1
▁пря 1
▁municip 1
▁terl 1
embrie 1
▁kvalit 1
▁ਤੋਂ 1
तिक 1
్రి 1
త్త 1
▁terbaik 1
лері 1
▁prema 1
ims 1
▁בב 1
▁Any 1
▁tradition 1
▁eso 1
▁මු 1
gem 1
ettre 1
▁गरेको 1
▁tất 1
▁aceasta 1
წყ 1
্তি 1
aret 1
érie 1
obre 1
系统 1
▁Hans 1
▁rundt 1
inho 1
zor 1
▁Tem 1
ahay 1
▁غير 1
▁ახ 1
drig 1
▁2020 1
▁лучше 1
▁termasuk 1
▁Design 1
បាន 1
ویی 1
esn 1
▁мене 1
պես 1
▁kys 1
ovanja 1
šnj 1
▁Jadi 1
้อมูล 1
▁društ 1
▁2002 1
ssze 1
▁obra 1
▁torn 1
ikia 1
hing 1
ково 1
▁moh 1
▁रि 1
ahren 1
ized 1
▁formul 1
▁olisi 1
▁karşı 1
▁لب 1
▁നട 1
▁sty 1
▁көр 1
▁доступ 1
▁ndër 1
▁통해 1
čo 1
▁fordi 1
▁ime 1
▁community 1
ենք 1
хра 1
▁شوند 1
▁ል 1
izm 1
ujem 1
ちゃ 1
▁Inte 1
▁acqu 1
രം 1
▁coc 1
▁mengenai 1
דם 1
iecare 1
cü 1
▁تت 1
▁муж 1
▁fokus 1
ज़ 1
ാവ 1
▁حضور 1
▁وزیر 1
▁хуу 1
▁eget 1
▁derni 1
лекет 1
1" 1
ے۔ 1
ల్ల 1
▁5- 1
▁своей 1
લે 1
▁match 1
▁Songs 1
▁initi 1
োর 1
▁mlad 1
ací 1
VI 1
▁pand 1
▁ჯ 1
▁Has 1
▁Asi 1
даа 1
▁odpowied 1
▁domin 1
▁περί 1
▁ball 1
▁расска 1
政策 1
▁velik 1
に行 1
ennes 1
▁november 1
aggio 1
לות 1
ierung 1
▁damer 1
▁ନି 1
▁государствен 1
enkil 1
をお 1
▁shk 1
side 1
▁zus 1
▁Nat 1
نس 1
ትዮ 1
उन 1
▁допомо 1
▁nhiệm 1
▁ინ 1
ruct 1
▁voj 1
κή 1
▁tener 1
▁изпол 1
Le 1
92 1
دو 1
▁रह 1
いる 1
aqu 1
upt 1
▁заня 1
hver 1
▁sulla 1
▁ას 1
லி 1
300 1
тил 1
▁რა 1
▁τέ 1
怎么 1
▁Book 1
uur 1
▁jeszcze 1
ឹក 1
lv 1
▁lõ 1
ğini 1
最近 1
▁గు 1
ıkl 1
ុំ 1
▁cél 1
▁hace 1
▁совер 1
annan 1
gir 1
▁бълга 1
▁سنگ 1
▁едно 1
▁Harga 1
вана 1
▁لح 1
▁млн 1
ล์ 1
▁плани 1
cja 1
▁joh 1
▁фон 1
وده 1
cipl 1
вка 1
▁prø 1
рту 1
▁средства 1
νος 1
▁шы 1
▁здоров 1
▁Tam 1
تى 1
odzi 1
โรค 1
ebe 1
ข้อ 1
েকে 1
▁horas 1
▁Santa 1
▁idi 1
দ্ধ 1
▁ਵਿੱਚ 1
ources 1
mist 1
рија 1
მო 1
ូល 1
ူး 1
adás 1
ayanan 1
▁tov 1
▁Please 1
▁бан 1
▁стоит 1
84 1
▁biasa 1
മ്പ 1
▁siitä 1
▁tõ 1
▁Фран 1
نم 1
▁bästa 1
চ্ 1
▁taip 1
erintah 1
▁proto 1
▁dưới 1
ђу 1
inne 1
▁Đại 1
▁Esta 1
диви 1
▁berada 1
▁blive 1
▁See 1
cus 1
▁Ρ 1
▁명 1
▁sense 1
▁прет 1
дэг 1
ながら 1
▁Seh 1
▁Sist 1
▁begitu 1
ОР 1
▁fic 1
▁jälkeen 1
▁tám 1
▁vul 1
▁sekolah 1
▁MS 1
▁varit 1
▁ধ 1
▁परि 1
ពី 1
▁peste 1
▁sky 1
▁söz 1
ത്ത് 1
▁работ 1
▁shqip 1
▁göz 1
けど 1
▁acces 1
▁ვი 1
▁?? 1
▁zon 1
▁quem 1
ρυ 1
ตา 1
完全 1
▁зага 1
кими 1
хі 1
▁assist 1
akhir 1
▁če 1
▁diverse 1
ରୁ 1
тбо 1
රි 1
▁29. 1
▁Doc 1
▁בכל 1
▁Tips 1
▁Mobil 1
▁Ung 1
wys 1
ไว้ 1
▁toh 1
▁قب 1
▁mucho 1
ğer 1
▁mora 1
▁производи 1
▁sə 1
ើង 1
▁sát 1
▁Kore 1
▁қыз 1
emás 1
▁paz 1
▁món 1
τηση 1
あった 1
▁chí 1
▁khai 1
▁gak 1
▁важ 1
hether 1
tih 1
▁near 1
▁monde 1
සේ 1
▁mă 1
▁faut 1
▁উপ 1
▁Συ 1
▁asa 1
alami 1
▁спро 1
ਦੀ 1
▁impos 1
్రా 1
▁lemb 1
▁taas 1
▁შეს 1
▁hữu 1
etek 1
สง 1
erez 1
ूल 1
agar 1
▁våra 1
▁کمی 1
unkt 1
koh 1
urilor 1
▁ऑ 1
▁నే 1
▁stay 1
زل 1
áték 1
仕事 1
▁лично 1
▁sedikit 1
аг 1
▁Love 1
PL 1
▁همین 1
今天 1
richt 1
зви 1
▁пен 1
▁12, 1
▁absolut 1
▁පො 1
▁unge 1
▁makes 1
aliya 1
▁These 1
▁پنج 1
від 1
▁Apa 1
▁Martin 1
धार 1
program 1
▁місце 1
▁суб 1
▁уро 1
▁cổ 1
▁Nhà 1
▁sätt 1
▁руко 1
чать 1
▁Mis 1
েম 1
čku 1
...” 1
▁wła 1
ving 1
▁jetzt 1
мови 1
чета 1
▁парт 1
auc 1
▁pula 1
▁escol 1
сының 1
▁semakin 1
▁яка 1
πά 1
▁חבר 1
isp 1
उँ 1
ätta 1
▁dise 1
▁године 1
▁აღ 1
▁psych 1
úr 1
▁zajed 1
два 1
▁ihre 1
jší 1
▁associ 1
▁مجموع 1
▁merk 1
lıq 1
▁57 1
▁råd 1
▁αυτή 1
▁cest 1
▁others 1
ປັນ 1
▁gặp 1
▁musik 1
▁menu 1
▁66 1
bers 1
▁همراه 1
▁ít 1
으며 1
skej 1
čio 1
ളി 1
▁low 1
▁dentro 1
မွ 1
▁وإ 1
یاست 1
▁gay 1
jän 1
▁හා 1
▁ব্য 1
▁ਲਈ 1
▁вид 1
zal 1
▁სახ 1
▁Cab 1
▁cart 1
▁conh 1
▁rele 1
ouv 1
▁बात 1
▁жұмы 1
ospodar 1
เศ 1
▁win 1
App 1
▁700 1
▁Denne 1
▁mynd 1
ندان 1
▁проблем 1
▁گیا 1
ത്തെ 1
▁에 1
▁volta 1
▁toe 1
ပ္ 1
ског 1
ľad 1
ค่ะ 1
▁obr 1
▁soit 1
ząd 1
▁बाद 1
▁às 1
▁Will 1
্রী 1
▁proti 1
երը 1
11. 1
alak 1
▁úr 1
τώ 1
▁Rod 1
ebabkan 1
alik 1
▁tört 1
▁Power 1
▁moins 1
ipun 1
专业 1
▁yng 1
лося 1
▁αντι 1
arma 1
▁Mol 1
ków 1
zan 1
▁тұ 1
▁مز 1
▁때문 1
▁allow 1
හි 1
▁broj 1
may 1
fas 1
nud 1
▁dupa 1
▁chc 1
▁tím 1
यो 1
▁yay 1
év 1
▁lã 1
nn 1
wier 1
▁Пет 1
ளி 1
▁SMS 1
liote 1
ડી 1
▁موجود 1
نام 1
နေ 1
▁arasında 1
▁तक 1
▁यु 1
ござ 1
hang 1
▁СА 1
▁où 1
▁High 1
▁country 1
្ងៃ 1
▁Für 1
▁SS 1
▁ปี 1
▁women 1
▁Vit 1
▁страни 1
ūk 1
▁vaan 1
нар 1
▁යා 1
ത്തില് 1
▁Service 1
ನು 1
▁52 1
▁gjith 1
▁тура 1
▁πό 1
čnosti 1
dő 1
либ 1
▁mellan 1
▁Rich 1
’. 1
▁Вели 1
▁obat 1
ત્ 1
▁São 1
ադր 1
▁مجلس 1
▁मान 1
unes 1
▁Voor 1
▁женщи 1
▁convers 1
ửi 1
jük 1
bro 1
▁hafa 1
นาด 1
▁DO 1
▁ответ 1
▁câu 1
дель 1
há 1
හු 1
ขาย 1
▁° 1
▁prist 1
ന്നെ 1
▁private 1
▁atmos 1
▁̈ 1
▁бути 1
▁افزایش 1
▁Gel 1
scri 1
tien 1
чва 1
▁tulee 1
ък 1
▁ljud 1
▁tiet 1
89 1
збе 1
▁duke 1
▁Για 1
▁террито 1
mil 1
теріа 1
▁tudo 1
▁barang 1
ന്ദ 1
▁Jawa 1
▁нем 1
▁Alt 1
▁caracter 1
▁Theo 1
перь 1
ವನ್ನು 1
lor 1
▁встре 1
льш 1
യം 1
会社 1
能够 1
▁មាន 1
▁ie 1
▁reading 1
ológ 1
▁À 1
▁Zap 1
скую 1
▁explic 1
fri 1
▁eing 1
arse 1
▁makanan 1
ಚ್ಚ 1
פות 1
ظر 1
▁once 1
▁üzer 1
ילה 1
▁také 1
▁mely 1
▁anything 1
▁писа 1
▁культу 1
රා 1
блей 1
▁процес 1
▁weg 1
▁ટ 1
ställ 1
▁Madrid 1
▁city 1
▁ಕೆ 1
▁kau 1
ცხ 1
ใส 1
▁առաջ 1
جر 1
▁เล 1
imai 1
เปล 1
νια 1
▁trả 1
▁DA 1
▁sprz 1
றை 1
▁Гла 1
▁bağlı 1
▁Pert 1
ног 1
ակց 1
сад 1
▁эф 1
обре 1
▁issu 1
▁फि 1
opo 1
▁تف 1
лькі 1
бро 1
▁Bek 1
▁jsme 1
word 1
сер 1
ନା 1
▁εργ 1
ನಾ 1
pond 1
▁үз 1
▁Pass 1
▁позна 1
ुक 1
iaus 1
▁цього 1
▁آمریکا 1
DS 1
▁kong 1
▁លោក 1
大き 1
toz 1
▁бло 1
हरू 1
fest 1
▁historia 1
▁milit 1
mitt 1
▁qar 1
េញ 1
puis 1
▁pew 1
డం 1
▁vui 1
▁مار 1
▁საქართველო 1
vom 1
▁العرب 1
γή 1
ník 1
стов 1
▁ela 1
▁наро 1
▁데 1
edig 1
არე 1
տն 1
▁berh 1
RL 1
ående 1
▁PAS 1
▁Els 1
▁ګ 1
▁Italia 1
apon 1
▁вме 1
▁गो 1
▁यस 1
ēja 1
▁տեղ 1
▁عند 1
▁nation 1
▁25. 1
ânt 1
anych 1
לב 1
▁gdy 1
▁فرد 1
▁സി 1
ँग 1
▁pain 1
▁chuẩn 1
ญา 1
tier 1
▁addition 1
▁olduğu 1
anding 1
▁åt 1
्रेस 1
▁become 1
vall 1
▁кому 1
▁детей 1
این 1
▁mismo 1
▁toujours 1
/2 1
▁left 1
▁nieuwe 1
▁Evrop 1
▁ciud 1
чный 1
▁After 1
▁aldrig 1
ops 1
▁பிர 1
▁قسم 1
▁مؤ 1
▁города 1
หมด 1
tiga 1
▁products 1
▁нико 1
▁लोग 1
▁สํา 1
тим 1
▁نامه 1
▁elev 1
▁odb 1
▁наш 1
▁физи 1
▁ձ 1
▁ся 1
HD 1
क्ति 1
▁қол 1
เร็ 1
abilir 1
see 1
læg 1
fon 1
▁young 1
ikian 1
▁ሲ 1
teni 1
obal 1
وف 1
▁Nic 1
▁принци 1
▁пов 1
▁Tro 1
ライ 1
rich 1
▁clas 1
▁hatte 1
rí 1
这是 1
▁jangan 1
▁sắc 1
▁дене 1
કે 1
tech 1
▁عکس 1
▁못 1
▁environ 1
tora 1
▁content 1
თვის 1
Az 1
iene 1
ёр 1
ším 1
ారం 1
▁օր 1
lığı 1
nun 1
▁находи 1
▁igaz 1
▁lys 1
一下 1
ോഗ 1
▁אחד 1
▁регу 1
html 1
生产 1
▁ก็ 1
▁mús 1
vaa 1
▁khoảng 1
▁переда 1
わせ 1
test 1
▁dulu 1
ട് 1
ishi 1
▁Kamp 1
дови 1
▁Dre 1
▁2012. 1
▁viele 1
▁בית 1
roč 1
ből 1
▁करा 1
▁everything 1
认为 1
нерги 1
رسال 1
▁കോ 1
ΟΥ 1
.( 1
▁future 1
ęs 1
▁Ting 1
▁தெ 1
omu 1
▁photos 1
hot 1
føl 1
ável 1
کتر 1
▁살 1
තාව 1
▁πρω 1
▁Pemb 1
▁ip 1
▁(7 1
ಬ್ 1
▁Danmark 1
▁చూ 1
ęki 1
مانی 1
▁hora 1
пара 1
ATO 1
▁avea 1
лыг 1
బ్ 1
▁cela 1
▁atten 1
▁naše 1
бов 1
یە 1
anın 1
▁territ 1
ंध 1
▁cij 1
▁kvinn 1
▁терито 1
▁było 1
▁zach 1
▁المس 1
ító 1
mana 1
▁Sus 1
▁विश् 1
key 1
obili 1
▁πιο 1
irin 1
▁עצ 1
pm 1
▁conduc 1
▁ему 1
ազմ 1
▁ինչ 1
istu 1
յանը 1
▁cri 1
▁نت 1
▁Че 1
ärk 1
cont 1
kuu 1
▁تس 1
JE 1
▁Dam 1
▁мә 1
▁பே 1
▁avoir 1
ለው 1
quier 1
ждан 1
▁лица 1
ளுக்கு 1
▁cepat 1
вления 1
▁Ար 1
페이지 1
▁search 1
oleh 1
کا 1
äksi 1
▁Gud 1
гро 1
▁նա 1
▁لیے 1
нить 1
திய 1
aton 1
NT 1
پا 1
▁annat 1
▁siv 1
▁Efter 1
▁Vas 1
▁בפ 1
▁stro 1
▁отли 1
▁както 1
▁daž 1
▁kategor 1
▁Pon 1
μός 1
64 1
ಾಣ 1
▁Mand 1
▁quick 1
opping 1
ไลน์ 1
▁Жа 1
ļa 1
▁haft 1
ंस 1
▁eri 1
เตอร์ 1
дим 1
▁направи 1
▁Ngh 1
..." 1
ứa 1
▁means 1
▁дости 1
liwo 1
щест 1
ensi 1
зно 1
▁הט 1
▁прий 1
മായ 1
▁AF 1
▁всё 1
ينة 1
▁sper 1
▁۲۰ 1
▁سەر 1
DI 1
cription 1
服務 1
▁درباره 1
▁ହେ 1
发现 1
juan 1
omba 1
pass 1
oly 1
▁zor 1
组织 1
▁Ά 1
lere 1
imme 1
▁Kako 1
▁Patr 1
▁واحد 1
▁Сер 1
აზ 1
BO 1
▁стре 1
ෙක් 1
▁desta 1
▁Cook 1
▁Ef 1
▁парти 1
▁활 1
▁tilf 1
roduc 1
గి 1
▁hud 1
iling 1
▁gente 1
▁ний 1
▁pubbl 1
▁Pend 1
безпе 1
▁unsere 1
immä 1
▁create 1
▁компания 1
pf 1
ریف 1
▁cru 1
▁való 1
rend 1
▁pierws 1
▁активно 1
环境 1
்ய 1
▁aici 1
▁janu 1
▁Miss 1
يران 1
▁hü 1
▁سام 1
▁teach 1
▁Start 1
▁Are 1
▁خانه 1
βά 1
ಟಿ 1
▁ក្នុង 1
▁hồ 1
ỏe 1
▁House 1
දි 1
▁【 1
зде 1
вают 1
تے 1
▁Сто 1
ٹر 1
▁കേ 1
▁recon 1
▁produs 1
▁jā 1
▁Sat 1
▁kred 1
jár 1
ാക്ക 1
▁rh 1
tså 1
▁înt 1
▁ता 1
tum 1
しても 1
ρθ 1
ছেন 1
▁පි 1
▁каза 1
▁ঘ 1
▁chân 1
ibe 1
▁depan 1
fre 1
▁giữa 1
ОД 1
kad 1
сів 1
▁posl 1
τικού 1
▁скоро 1
▁Wil 1
дор 1
ถาน 1
▁Nacional 1
kami 1
▁gaat 1
▁постоя 1
▁berl 1
することが 1
▁2001 1
▁כמו 1
▁kurang 1
金融 1
lement 1
ียบ 1
engah 1
▁Kong 1
▁31. 1
çı 1
ிகள் 1
▁כך 1
▁национа 1
купа 1
ศึกษา 1
▁¡ 1
▁sezon 1
vie 1
▁پاسخ 1
йм 1
ária 1
▁situs 1
ondo 1
▁вариан 1
▁тоже 1
prés 1
γγ 1
▁fos 1
只有 1
iveau 1
93 1
▁mim 1
որդ 1
▁čet 1
▁मुख 1
dib 1
▁କରି 1
fix 1
աղաք 1
▁отве 1
▁Ann 1
▁OR 1
▁تحت 1
žio 1
кот 1
mam 1
▁tức 1
шие 1
inut 1
▁novo 1
▁sada 1
▁కూడా 1
▁nii 1
חים 1
▁cré 1
ัท 1
عية 1
ovu 1
持ち 1
hets 1
емо 1
▁dục 1
ていただ 1
्यू 1
دید 1
▁General 1
్రీ 1
▁شر 1
▁English 1
▁לד 1
▁110 1
этг 1
▁😉 1
isión 1
▁호텔 1
---- 1
ugo 1
提高 1
ške 1
▁enda 1
øs 1
াশ 1
▁тро 1
▁имеет 1
▁idag 1
▁hoa 1
इन 1
▁سم 1
▁hast 1
▁모든 1
▁ψ 1
ळे 1
ชั่น 1
ತೆ 1
▁szeret 1
ਵਾ 1
గ్ 1
▁Hotels 1
▁تخ 1
▁ធ 1
▁ସେ 1
ācijas 1
▁wür 1
▁انسان 1
wyr 1
ënd 1
▁Kind 1
▁оба 1
▁innan 1
▁prej 1
etlen 1
▁especi 1
▁pek 1
esség 1
нуть 1
tter 1
▁Festival 1
สูง 1
▁jotka 1
ADA 1
vej 1
▁초 1
▁ресур 1
unter 1
vos 1
εύ 1
యి 1
▁ули 1
▁اليوم 1
▁πάν 1
▁30. 1
ुन 1
ាន់ 1
▁rug 1
▁Priv 1
▁العام 1
▁sous 1
▁decis 1
▁eas 1
▁riv 1
▁maupun 1
▁Kota 1
▁กล 1
արձ 1
▁Poz 1
▁bla 1
ایا 1
kül 1
▁mất 1
▁Ад 1
.’ 1
▁ين 1
andra 1
ajā 1
▁μετά 1
▁Juni 1
らい 1
▁제공 1
enj 1
orio 1
▁september 1
▁Hil 1
▁været 1
oliko 1
add 1
▁ремон 1
▁کۆ 1
▁löyt 1
യാണ് 1
▁ní 1
▁był 1
iones 1
qui 1
▁protiv 1
ample 1
ต้น 1
मध्ये 1
▁خدمات 1
▁kombin 1
▁שע 1
▁sagt 1
▁внимание 1
▁কৰ 1
▁quelques 1
▁라 1
▁diam 1
ujemy 1
▁ڪ 1
ATA 1
egiatan 1
▁нар 1
▁Kai 1
▁вза 1
рски 1
صف 1
▁mili 1
▁xác 1
▁gag 1
ଣ୍ 1
▁సా 1
▁través 1
cka 1
▁mong 1
olgáltat 1
▁poslov 1
▁against 1
▁mức 1
wards 1
atures 1
omos 1
▁ზ 1
个人 1
▁چهار 1
▁heel 1
▁Thu 1
▁jun 1
χο 1
வர் 1
▁tiến 1
▁mec 1
शि 1
▁along 1
▁검 1
dek 1
โย 1
▁geli 1
▁mati 1
ensch 1
2] 1
เลือก 1
արար 1
▁comes 1
льності 1
ړه 1
▁جي 1
වත් 1
。( 1
▁مواد 1
кин 1
▁здесь 1
лександ 1
लय 1
ភាព 1
click 1
λου 1
▁خپ 1
стите 1
▁تواند 1
▁использу 1
▁identif 1
▁администра 1
▁дзе 1
▁kuul 1
▁musi 1
גי 1
▁mengatakan 1
▁tehd 1
▁đúng 1
▁наме 1
▁бя 1
च्छ 1
▁Від 1
▁miesz 1
▁niya 1
igare 1
▁ipsum 1
azon 1
▁سین 1
acje 1
▁kota 1
▁გადა 1
▁Watch 1
▁καλ 1
▁حکومت 1
aties 1
hely 1
▁göre 1
▁kini 1
akka 1
कारी 1
сю 1
Ка 1
▁حل 1
▁sloven 1
▁law 1
ιος 1
▁ਤੇ 1
▁kla 1
▁box 1
▁Tut 1
▁મો 1
kring 1
▁יה 1
に入 1
▁ford 1
2014 1
වි 1
део 1
▁verb 1
▁Trang 1
iken 1
ae 1
▁аген 1
leh 1
-11 1
arning 1
▁fapt 1
edu 1
▁عرب 1
▁đầy 1
важа 1
роде 1
кою 1
ęż 1
▁overs 1
▁לצ 1
▁dud 1
୍ୱ 1
çe 1
ಲಿ 1
▁اق 1
нав 1
etar 1
▁igjen 1
▁ഏ 1
▁mencari 1
▁ଦେ 1
डे 1
▁akt 1
ისტ 1
abile 1
▁fred 1
▁gambar 1
▁πως 1
▁Вам 1
▁понима 1
▁dias 1
vár 1
▁gerçek 1
шая 1
▁eventu 1
ИТ 1
▁below 1
▁reason 1
▁ấy 1
▁допол 1
▁ուն 1
وله 1
▁depuis 1
ัส 1
▁информация 1
▁ј 1
▁кү 1
▁аж 1
▁trabajo 1
ابت 1
▁amo 1
▁χω 1
ütt 1
▁био 1
▁toute 1
▁வரு 1
ception 1
ವಾಗಿ 1
тта 1
▁прекра 1
बार 1
▁dont 1
щение 1
▁Teil 1
wać 1
▁ć 1
כים 1
▁упра 1
▁ugy 1
erst 1
ített 1
▁đàn 1
ौं 1
▁ഓ 1
▁annet 1
▁לו 1
สะเก 1
▁청 1
▁szerv 1
▁Business 1
▁OP 1
▁svij 1
ទី 1
▁Người 1
▁đội 1
ไซ 1
▁zile 1
זור 1
▁logo 1
▁организации 1
ۆر 1
▁tablet 1
▁طب 1
ที่น 1
▁berkata 1
gli 1
্ক 1
ท่าน 1
▁язы 1
uyện 1
kn 1
▁เช 1
ум 1
τον 1
▁mạng 1
▁כדי 1
▁alternativ 1
asin 1
▁має 1
sip 1
▁jä 1
▁मी 1
▁කරන 1
▁امروز 1
▁тыся 1
▁ائ 1
▁rim 1
.). 1
דת 1
əcək 1
との 1
▁ಕಾರ 1
▁kanë 1
▁nostra 1
টা 1
▁mars 1
▁jama 1
▁Well 1
โรง 1
നം 1
▁taka 1
▁দু 1
ংলা 1
.» 1
edel 1
▁возможность 1
とき 1
▁должны 1
itul 1
sibil 1
ільки 1
▁aks 1
▁sla 1
▁сайта 1
ഴി 1
▁Sve 1
▁جهان 1
▁Tahun 1
▁சு 1
▁mort 1
▁moj 1
aknya 1
ván 1
▁terra 1
weise 1
▁особен 1
orges 1
▁fark 1
▁dollar 1
ज्ञ 1
El 1
▁一 1
job 1
sio 1
平台 1
▁DVD 1
▁tangan 1
λού 1
▁форма 1
jaan 1
设计 1
▁यो 1
▁phong 1
▁пои 1
▁பொ 1
▁áp 1
арма 1
ajaan 1
▁firma 1
uyor 1
▁DAN 1
▁ավ 1
ဖြစ် 1
▁اجتماعی 1
▁kỹ 1
▁berp 1
中國 1
ovala 1
ئة 1
有限 1
orna 1
▁COM 1
▁combin 1
▁oameni 1
щая 1
ikai 1
▁Bit 1
▁iP 1
▁cuenta 1
قال 1
▁vert 1
Qu 1
mid 1
▁نشان 1
▁гаран 1
▁servi 1
▁गर 1
grup 1
ုိ 1
▁преду 1
楽し 1
▁услуги 1
▁númer 1
まり 1
▁दी 1
▁weekend 1
core 1
▁khẩu 1
▁Դ 1
ither 1
▁nogle 1
niejs 1
▁xxx 1
▁lucr 1
▁kall 1
▁Kateg 1
ຫຼ 1
▁Direc 1
▁biztos 1
ximo 1
▁شا 1
▁Kumar 1
▁kav 1
▁ansvar 1
ระบบ 1
air 1
▁gud 1
лэг 1
انس 1
▁ضر 1
ิล 1
kait 1
Se 1
▁Kre 1
anst 1
▁ထ 1
▁desenvol 1
▁જા 1
▁11, 1
KK 1
▁។ 1
▁hånd 1
თხ 1
▁fed 1
▁اعلام 1
▁اشت 1
▁сайте 1
ALA 1
ดํา 1
▁อา 1
▁Sha 1
nl 1
▁наша 1
سة 1
▁Telef 1
හැ 1
▁금 1
▁58 1
▁premier 1
vous 1
▁ceva 1
ğa 1
▁erb 1
cup 1
▁který 1
▁believe 1
▁seva 1
▁Այ 1
정보 1
▁monitor 1
ئیس 1
▁اپنے 1
▁outros 1
▁என்று 1
▁այն 1
▁sowie 1
▁جای 1
▁سری 1
нын 1
umer 1
▁රා 1
▁Office 1
पू 1
▁Дру 1
▁● 1
▁kimi 1
▁comunic 1
▁Pom 1
ölt 1
努力 1
ról 1
▁Khi 1
antis 1
▁вже 1
▁↑ 1
▁punya 1
▁ਨਾਲ 1
▁kana 1
ılması 1
โด 1
▁estado 1
avanje 1
▁quý 1
▁sut 1
Tr 1
▁هزار 1
▁Smart 1
యో 1
▁হয়ে 1
▁твор 1
רב 1
▁οικο 1
▁March 1
▁тради 1
loc 1
åk 1
確認 1
▁रहा 1
เลือด 1
▁wich 1
▁tỷ 1
ượt 1
▁temat 1
▁райо 1
▁нару 1
▁regi 1
ុក 1
▁baj 1
లకు 1
ည်း 1
IH 1
واد 1
▁ismer 1
нец 1
▁Ky 1
▁juh 1
ipe 1
▁között 1
ORT 1
▁certa 1
▁чы 1
▁Spe 1
ል። 1
▁:- 1
▁park 1
เดิน 1
▁анали 1
סה 1
рым 1
▁thoại 1
▁ibu 1
راف 1
▁desarr 1
▁při 1
68 1
▁техни 1
▁решение 1
▁menarik 1
یند 1
ите 1
▁Mb 1
▁ամ 1
न्ह 1
alq 1
బా 1
▁डा 1
▁박 1
▁نظام 1
▁mater 1
ovább 1
əyə 1
▁رای 1
▁хий 1
▁ყველა 1
ವಿ 1
▁आफ 1
arian 1
▁quand 1
▁Bei 1
▁Bild 1
ماس 1
▁Karena 1
▁থেকে 1
είο 1
лень 1
vă 1
amentos 1
▁kerana 1
▁написа 1
▁друга 1
zcz 1
vv 1
▁siempre 1
ubah 1
▁elit 1
סט 1
дік 1
▁ati 1
▁گرفته 1
adó 1
▁వే 1
結果 1
ambut 1
приєм 1
▁мало 1
▁palvel 1
▁២ 1
▁exerc 1
erb 1
▁uc 1
▁간 1
▁кварти 1
▁kiểm 1
▁уров 1
čna 1
ayu 1
ログ 1
web 1
▁sakit 1
න්ද 1
धि 1
სი 1
▁mnog 1
▁instal 1
▁بالا 1
него 1
▁verden 1
гал 1
▁Muhammad 1
ریم 1
▁scen 1
ด้าน 1
aucoup 1
▁Pero 1
▁เพราะ 1
▁نف 1
▁sano 1
▁тях 1
ിച്ചു 1
▁پا 1
adar 1
ळा 1
▁समय 1
undu 1
▁þeir 1
วจ 1
▁مشت 1
▁büyük 1
を行 1
▁viac 1
ட்ச 1
azo 1
ちら 1
▁upang 1
▁simpl 1
▁Bài 1
▁nærheten 1
▁fuer 1
레이 1
▁আপ 1
uire 1
▁mix 1
▁dá 1
່ວ 1
niku 1
▁información 1
▁количество 1
▁рублей 1
▁iyi 1
▁Grund 1
риш 1
▁ср 1
èl 1
вной 1
▁tidligere 1
чэ 1
▁festival 1
Atom 1
▁разрабо 1
▁محصول 1
▁قابل 1
UV 1
टे 1
分析 1
ording 1
▁staat 1
▁යු 1
▁mogelijk 1
▁yhd 1
—— 1
เดียว 1
▁ከም 1
▁наде 1
າງ 1
หมาย 1
ために 1
▁Од 1
▁Vý 1
ajan 1
▁После 1
สาว 1
лиги 1
זר 1
মান 1
▁están 1
▁dėl 1
▁alkohol 1
▁välja 1
▁ім 1
щата 1
先生 1
อุ 1
▁ہم 1
▁яго 1
▁luận 1
bs 1
älla 1
чной 1
ступи 1
jà 1
自分の 1
▁הם 1
astă 1
ಾರಿ 1
▁Anna 1
されている 1
ออน 1
τικών 1
▁WordPress 1
▁marca 1
▁živo 1
cor 1
▁աշխ 1
되는 1
▁популя 1
ensä 1
▁platform 1
▁болон 1
▁uur 1
িয়া 1
▁^^ 1
▁bast 1
ფი 1
▁मैं 1
ద్ద 1
▁جهت 1
▁ды 1
▁বিশ 1
▁prib 1
▁sosial 1
хе 1
▁cambi 1
になります 1
ើយ 1
▁magaz 1
된다 1
▁derfor 1
▁одного 1
hető 1
öll 1
യുടെ 1
▁کرت 1
▁dela 1
▁Пи 1
▁hain 1
benhav 1
тори 1
▁King 1
ലി 1
▁treat 1
▁поэтому 1
还有 1
▁chance 1
▁שלי 1
▁essa 1
▁personer 1
▁Lä 1
itats 1
вим 1
▁ute 1
▁Game 1
robi 1
▁Wel 1
sep 1
▁CO 1
▁lors 1
▁каждо 1
家庭 1
▁concern 1
ጵያ 1
▁Forum 1
itia 1
▁указа 1
fang 1
▁správ 1
emas 1
▁कुछ 1
ugg 1
াধ 1
▁Sah 1
თავ 1
▁HP 1
کہ 1
▁clients 1
బు 1
▁কি 1
gifter 1
▁hop 1
▁umum 1
мена 1
▁khí 1
▁pracy 1
inj 1
ęt 1
▁قال 1
info 1
ellik 1
▁Rap 1
▁زبان 1
μμα 1
ught 1
▁parlament 1
▁حيث 1
XX 1
ضی 1
აბ 1
▁vēl 1
43 1
lerini 1
▁Setelah 1
▁էր 1
▁Geb 1
lingen 1
ived 1
hum 1
ffa 1
ค่า 1
▁vro 1
▁grandes 1
▁apenas 1
▁TER 1
▁Sul 1
▁Yes 1
▁BR 1
alon 1
▁서비스 1
وى 1
ന്നു 1
міні 1
▁danas 1
▁本 1
▁khỏe 1
▁Peny 1
▁rub 1
▁vere 1
▁Dek 1
」, 1
evel 1
▁Finan 1
▁форму 1
▁paano 1
▁December 1
▁pēc 1
▁fiecare 1
ęk 1
Про 1
▁wym 1
ského 1
unjuk 1
ставляет 1
▁ความ 1
မ္ 1
▁gust 1
▁held 1
▁آغ 1
iß 1
ష్ట 1
▁disponib 1
สา 1
工程 1
INA 1
▁ಫ 1
СК 1
▁메 1
▁φο 1
▁transfer 1
▁месе 1
ческий 1
▁fiind 1
presenta 1
ریق 1
ապետ 1
▁hỗ 1
▁удоб 1
пусти 1
▁تیم 1
▁окру 1
▁زیاد 1
▁पी 1
▁started 1
▁mellom 1
▁ölk 1
үүх 1
▁Porn 1
▁arti 1
▁atunci 1
▁primera 1
▁Мини 1
▁Mann 1
▁ایجاد 1
▁지난 1
▁2-3 1
ikki 1
uze 1
ního 1
▁seen 1
▁Public 1
itev 1
▁punto 1
icha 1
▁क्षे 1
▁Java 1
▁음 1
▁Köz 1
▁Website 1
แห่ง 1
ಗ್ 1
ukti 1
一次 1
atto 1
▁Posted 1
isas 1
▁зай 1
▁Zag 1
▁thuốc 1
nell 1
▁beim 1
dor 1
▁تنها 1
▁communic 1
▁fod 1
utom 1
▁начин 1
larda 1
▁рын 1
ትዮጵያ 1
▁toán 1
られる 1
ంటి 1
▁Bis 1
జు 1
jp 1
▁Dir 1
▁πλη 1
▁држа 1
▁kov 1
▁להת 1
▁тър 1
embro 1
▁15, 1
hes 1
τρα 1
produk 1
рования 1
▁vista 1
ină 1
vai 1
▁która 1
▁Պ 1
▁Δη 1
alien 1
▁డ 1
orda 1
▁skj 1
▁YouTube 1
ędzy 1
ιλ 1
elses 1
▁bras 1
டம் 1
▁என்ன 1
▁täh 1
▁daerah 1
品牌 1
พัก 1
▁tev 1
emukan 1
็ดเงิน 1
pañ 1
▁gọi 1
ファ 1
▁Michael 1
▁include 1
gro 1
ref 1
HO 1
It 1
emble 1
κλη 1
ärt 1
▁(8 1
ชม 1
▁ارتباط 1
▁everyone 1
▁ໃນ 1
raš 1
▁bija 1
▁бўл 1
øbenhav 1
▁فرم 1
скага 1
)。 1
▁hjæl 1
บริการ 1
▁Προ 1
▁ישראל 1
▁numer 1
▁دوست 1
▁lưu 1
stanbul 1
▁kjø 1
なので 1
▁اون 1
▁lez 1
一步 1
▁राष्ट्र 1
last 1
▁meningkat 1
ests 1
▁بات 1
提出 1
▁hoved 1
wydd 1
▁gén 1
▁երկ 1
▁ဒ 1
্ন 1
పీ 1
▁vost 1
▁bố 1
▁miel 1
ओं 1
rier 1
ichte 1
▁외 1
ลาด 1
▁après 1
ทธิ 1
ที่ยว 1
onser 1
▁seine 1
ليم 1
▁తీ 1
సిన 1
不会 1
idat 1
ALL 1
лните 1
mor 1
igos 1
▁DEL 1
▁そ 1
▁Ana 1
/19 1
▁анг 1
ések 1
jór 1
▁Auto 1
める 1
उने 1
▁ию 1
нува 1
▁Daten 1
法律 1
okol 1
▁cant 1
ારે 1
ניות 1
جة 1
რობ 1
▁came 1
▁ohne 1
▁nech 1
▁permainan 1
▁alam 1
▁찾 1
▁چون 1
▁regular 1
▁које 1
sst 1
▁خیلی 1
▁потому 1
▁يمكن 1
▁sklad 1
çi 1
▁ښ 1
▁편 1
▁hát 1
ashion 1
/5 1
ରି 1
ête 1
ונ 1
▁가장 1
▁zelf 1
minen 1
▁malo 1
▁Македонија 1
▁Open 1
▁بازار 1
çar 1
▁δημο 1
▁المع 1
ναν 1
egt 1
▁North 1
कृ 1
▁aten 1
▁байх 1
uttaa 1
▁کورد 1
▁AV 1
▁Pul 1
ceg 1
▁dejtings 1
></ 1
▁العالم 1
вою 1
ahal 1
▁Dans 1
क्रम 1
ड़ा 1
▁Frank 1
▁arbet 1
▁càng 1
▁dě 1
تان 1
▁transform 1
▁tegen 1
▁دوم 1
сії 1
▁situation 1
emény 1
きた 1
▁Vu 1
használ 1
▁khả 1
▁Cali 1
▁مطالب 1
▁период 1
▁поддер 1
▁Thành 1
除了 1
▁seit 1
▁ಇದ 1
▁School 1
më 1
▁pack 1
నం 1
▁hjel 1
MB 1
▁gob 1
▁ugu 1
etzt 1
▁Jon 1
اخت 1
▁Монгол 1
▁mano 1
▁kya 1
▁format 1
▁предпо 1
▁mở 1
ayah 1
▁कै 1
ilər 1
▁dois 1
engar 1
▁finne 1
▁Ace 1
▁seura 1
="0" 1
mine 1
▁집 1
entra 1
▁کور 1
ём 1
vän 1
▁tranh 1
েই 1
enga 1
iez 1
▁عب 1
들을 1
▁girl 1
μένα 1
лаг 1
来的 1
▁itse 1
యం 1
▁Uhr 1
▁Thank 1
Es 1
▁തി 1
▁mama 1
▁можли 1
كات 1
sled 1
čun 1
ôt 1
▁hef 1
▁blij 1
лат 1
▁nawet 1
▁black 1
lijk 1
โลก 1
▁بہ 1
▁bos 1
лися 1
vari 1
isation 1
▁pec 1
yne 1
ствия 1
▁Với 1
upi 1
▁Tok 1
▁fär 1
▁osnov 1
▁Erf 1
▁məl 1
▁(7) 1
▁Vide 1
▁aast 1
▁Україні 1
▁procent 1
▁Bij 1
▁poli 1
▁toutes 1
uji 1
▁افت 1
ાં 1
▁jaun 1
▁53 1
OTO 1
sible 1
▁موقع 1
▁aman 1
▁очи 1
▁повер 1
▁administr 1
दन 1
▁Latvijas 1
igan 1
liu 1
кер 1
يني 1
▁secret 1
▁អ្នក 1
ambah 1
unch 1
▁horm 1
über 1
្រូវ 1
▁iss 1
▁mensen 1
ūsu 1
▁nema 1
▁subst 1
สะเก็ดเงิน 1
▁käs 1
▁went 1
သူ 1
сма 1
▁oct 1
វិ 1
▁оказа 1
iniai 1
42 1
اسي 1
▁iesp 1
▁Bin 1
сні 1
rå 1
ስት 1
▁From 1
▁തു 1
lihat 1
adora 1
▁160 1
▁билан 1
ົ້າ 1
▁Respublik 1
▁کود 1
▁രാ 1
▁Tags 1
▁tao 1
omány 1
▁mart 1
▁hår 1
▁घर 1
受け 1
քում 1
▁جنگ 1
▁ER 1
環境 1
▁хэм 1
əx 1
برد 1
▁Polit 1
▁حتى 1
utos 1
īs 1
▁эле 1
▁Anak 1
ദ്ധ 1
▁spesi 1
▁ры 1
▁sebab 1
▁pant 1
ươi 1
ันธ 1
gio 1
▁пы 1
יותר 1
▁ผู้ 1
▁aap 1
▁rozhod 1
لاق 1
▁eo 1
py 1
▁dzieci 1
▁flu 1
ңі 1
▁cím 1
▁დი 1
minister 1
best 1
場合は 1
▁assim 1
▁tills 1
▁bë 1
emes 1
▁člán 1
▁2016, 1
ାମ 1
τρ 1
▁স্ব 1
ச் 1
▁alat 1
ెం 1
ไม่ได้ 1
abili 1
▁처 1
▁10% 1
▁inden 1
▁точно 1
ەکانی 1
▁România 1
кува 1
▁فض 1
indu 1
▁води 1
bund 1
▁выра 1
▁funcion 1
ಡು 1
▁reng 1
▁Juli 1
▁ومن 1
▁jossa 1
▁තිය 1
стъ 1
▁професси 1
arde 1
▁заклю 1
▁passer 1
joner 1
staw 1
▁вр 1
ниците 1
แพ 1
▁Lap 1
▁جمع 1
▁ил 1
իվ 1
▁поряд 1
ņa 1
bart 1
▁pł 1
ほど 1
μως 1
▁porta 1
▁mennesker 1
▁77 1
▁inkl 1
auf 1
▁staff 1
▁യ 1
ոտ 1
▁51 1
irim 1
ೇವ 1
jur 1
▁pokaz 1
▁posled 1
لت 1
ience 1
▁Kinder 1
▁lange 1
▁важно 1
పా 1
צוע 1
alim 1
lama 1
▁Tul 1
▁बो 1
െന്ന് 1
стрі 1
सं 1
▁предприя 1
关系 1
▁시간 1
ርት 1
▁komen 1
▁kwenye 1
▁තම 1
▁chống 1
asu 1
▁ئەو 1
▁minh 1
▁Budap 1
▁önem 1
ähkö 1
▁nuestro 1
▁산 1
▁ပြ 1
▁ಕು 1
▁minister 1
तीय 1
▁koul 1
nju 1
具有 1
してみ 1
▁ທີ່ 1
เด็ก 1
▁jelas 1
▁Dub 1
▁Cymru 1
ခဲ့ 1
tioner 1
▁बहु 1
▁изда 1
▁şey 1
▁деп 1
▁gjorde 1
▁massa 1
▁computer 1
וט 1
▁Σε 1
▁Tổng 1
▁phone 1
வும் 1
▁چرا 1
科学 1
هاي 1
ografi 1
του 1
▁Pin 1
▁jedan 1
▁کریں 1
▁nice 1
▁produkter 1
mac 1
▁ered 1
▁khoản 1
▁infrastr 1
▁оно 1
ЕЛ 1
▁кел 1
gent 1
▁సిని 1
▁contac 1
ですね 1
▁náv 1
bt 1
риа 1
▁информации 1
лова 1
ั่ง 1
▁эк 1
▁besz 1
▁παιδ 1
▁kyllä 1
▁поз 1
beh 1
▁halv 1
▁لین 1
▁epis 1
▁Türk 1
▁کال 1
▁Team 1
▁лишь 1
ilta 1
ผิว 1
ivet 1
ูน 1
▁ડ 1
ابع 1
ادت 1
▁Galaxy 1
੍ਹ 1
▁պետ 1
▁Dod 1
▁обы 1
▁lựa 1
▁خوش 1
حي 1
▁OM 1
▁olduğunu 1
▁Div 1
▁คุณ 1
▁yüks 1
▁expos 1
▁Put 1
umiem 1
設計 1
▁kanske 1
alkan 1
▁touch 1
անց 1
▁asem 1
▁uang 1
ulas 1
dagen 1
alet 1
visor 1
дення 1
anas 1
应该 1
▁үшін 1
ights 1
▁Depart 1
LL 1
ural 1
ojë 1
での 1
dob 1
▁начина 1
јата 1
▁коман 1
▁같은 1
▁address 1
▁However 1
گو 1
▁боле 1
nea 1
valu 1
▁рекомен 1
▁Welt 1
▁sht 1
▁دون 1
veckl 1
▁चाह 1
gev 1
irkan 1
▁Tôi 1
කට 1
▁bahkan 1
▁деятельности 1
▁종 1
িয় 1
▁office 1
በት 1
▁uh 1
▁الشر 1
▁проект 1
ΙΑ 1
▁عو 1
▁Keb 1
▁gør 1
▁tối 1
oit 1
SH 1
▁вой 1
yh 1
гна 1
▁صد 1
▁itali 1
ग् 1
χι 1
قر 1
▁نمایش 1
ங்கள 1
▁Eli 1
jerne 1
atin 1
grund 1
ठा 1
hib 1
▁140 1
▁Liên 1
▁මම 1
▁Amb 1
කි 1
ciona 1
▁sot 1
elling 1
▁meter 1
▁বাংলা 1
▁camera 1
BI 1
▁Hội 1
▁đảm 1
▁vårt 1
keiten 1
▁πρέπει 1
▁2011. 1
▁sẻ 1
▁Deze 1
форм 1
▁kunna 1
داشت 1
kuuta 1
▁코 1
▁happen 1
▁بررسی 1
▁따라 1
▁beaucoup 1
köz 1
isiä 1
ятся 1
inf 1
halb 1
▁Чер 1
▁сезо 1
とも 1
माण 1
ություններ 1
పి 1
▁өз 1
ತ್ಯ 1
īk 1
▁Kä 1
ским 1
▁propor 1
▁проис 1
▁вій 1
▁Rp 1
▁آهنگ 1
ences 1
▁บริ 1
기를 1
▁plats 1
▁महा 1
▁디 1
▁baie 1
▁وك 1
▁edib 1
▁oyun 1
▁posibil 1
▁Wash 1
loud 1
▁хра 1
peri 1
▁вопрос 1
କ୍ଷ 1
خصص 1
▁Bog 1
▁130 1
▁эх 1
▁kirjo 1
▁trä 1
▁ପାଇ 1
onie 1
▁pueden 1
าด 1
ვით 1
▁1999 1
▁declar 1
▁unders 1
▁pů 1
été 1
▁Gab 1
yz 1
lege 1
▁KU 1
olas 1
jeti 1
▁Über 1
▁auc 1
▁уме 1
▁kier 1
عث 1
øde 1
▁âm 1
лігі 1
▁Mobile 1
▁przep 1
рез 1
▁많은 1
▁iba 1
idm 1
▁rendel 1
▁compani 1
లను 1
▁Жи 1
▁rej 1
тон 1
▁kolej 1
лот 1
пере 1
▁samtid 1
▁67 1
▁Başkan 1
▁ακό 1
▁fă 1
eries 1
onga 1
ناء 1
▁pig 1
▁nhu 1
ேன் 1
キャ 1
angat 1
程度 1
▁téc 1
▁szy 1
▁مدی 1
▁baby 1
SZ 1
ared 1
▁nouv 1
θν 1
▁نما 1
зад 1
ห์ 1
▁else 1
زب 1
▁აქ 1
lands 1
▁필요 1
מר 1
▁некоторы 1
uvo 1
ველ 1
ენი 1
moni 1
vā 1
▁בכ 1
дени 1
▁khusus 1
-18 1
Ма 1
▁κο 1
idge 1
empuan 1
▁minha 1
னி 1
▁pove 1
ــــ 1
▁kob 1
▁seja 1
▁pril 1
▁pretty 1
esha 1
▁price 1
▁центра 1
▁rett 1
engen 1
ስተ 1
ming 1
▁Rel 1
▁13, 1
▁роботи 1
▁مبار 1
▁Vä 1
გან 1
▁deal 1
▁همچنین 1
nij 1
itam 1
ască 1
▁організа 1
▁beautiful 1
ukh 1
▁december 1
рыя 1
▁Flor 1
ၼ် 1
eca 1
ality 1
▁neue 1
PC 1
दार 1
▁días 1
ਾਬ 1
▁возра 1
жки 1
eff 1
سانی 1
gh 1
alità 1
▁Фи 1
▁gef 1
▁enkel 1
之前 1
▁komis 1
をご 1
▁በመ 1
valg 1
▁Grand 1
ობა 1
ักษ 1
▁අන 1
▁lille 1
▁문제 1
▁vag 1
▁estão 1
▁सुर 1
▁Ευ 1
▁سل 1
ंत्री 1
▁আর 1
▁hạn 1
▁ني 1
▁دخ 1
▁اقد 1
ಿಸಿದ 1
▁ограни 1
ország 1
дження 1
▁Prz 1
▁American 1
▁گا 1
ឲ្យ 1
ەو 1
▁Wy 1
▁тільки 1
▁individual 1
wort 1
cii 1
ונה 1
▁темпера 1
email 1
ディ 1
57 1
▁rapid 1
需求 1
ריך 1
ithi 1
▁petit 1
▁tiện 1
已經 1
▁פי 1
▁niv 1
▁psi 1
ped 1
▁Kv 1
▁party 1
انا 1
OU 1
rett 1
ਲੀ 1
ለም 1
ែក 1
▁sko 1
▁истори 1
edad 1
▁сон 1
▁вони 1
วิต 1
ंचा 1
▁Willi 1
ရေး 1
ješ 1
НА 1
▁персо 1
▁şek 1
▁relations 1
▁aa 1
▁россий 1
▁وضع 1
▁cây 1
▁client 1
▁kaya 1
▁mann 1
▁respect 1
▁uud 1
▁profesion 1
▁Shah 1
▁دریا 1
▁hưởng 1
ければ 1
▁άν 1
gab 1
onden 1
ியா 1
▁ката 1
▁тези 1
▁efek 1
▁энэ 1
▁håll 1
кономі 1
ubi 1
▁solic 1
▁ancora 1
රුව 1
▁tér 1
▁trưởng 1
▁сра 1
▁Россий 1
▁Гер 1
▁enti 1
голо 1
▁Jur 1
னு 1
해서 1
лба 1
િયા 1
▁based 1
▁ໂ 1
▁دنیا 1
ují 1
▁otros 1
φέρ 1
▁poi 1
гом 1
▁krit 1
πισ 1
ังหว 1
▁должно 1
▁kale 1
adrž 1
▁психо 1
▁දේ 1
ધી 1
记者 1
ASA 1
▁سە 1
▁ору 1
▁alim 1
egn 1
лэ 1
вня 1
▁code 1
сіб 1
lum 1
ementara 1
理解 1
න්ත 1
lej 1
فاع 1
▁हुने 1
▁vaš 1
toria 1
▁segur 1
▁hãy 1
▁nale 1
ätte 1
entang 1
▁waa 1
ствии 1
▁management 1
▁verdi 1
▁Ett 1
▁ied 1
▁اصلی 1
ոխ 1
ohn 1
▁luật 1
▁било 1
▁ainsi 1
▁Kah 1
▁dị 1
چھ 1
▁trend 1
داد 1
▁spē 1
▁dzī 1
▁pari 1
zam 1
▁ress 1
▁رئیس 1
вної 1
الية 1
▁denn 1
▁Jahre 1
▁Ps 1
▁Mang 1
▁макси 1
▁সম্প 1
▁accept 1
льо 1
▁26. 1
之后 1
▁झा 1
▁взя 1
▁sociale 1
ரச 1
▁реда 1
otr 1
▁انگ 1
▁тала 1
▁zwei 1
▁buah 1
하다 1
gend 1
▁점 1
weet 1
▁ίδ 1
ል፡፡ 1
▁recent 1
的大 1
▁tecnolog 1
▁seda 1
enzi 1
زي 1
▁Projekt 1
ektor 1
▁δικ 1
apar 1
зира 1
▁каже 1
lac 1
ंची 1
3- 1
feira 1
larına 1
▁iste 1
▁Най 1
功能 1
▁ति 1
imų 1
ibh 1
▁dati 1
oport 1
ستا 1
agan 1
▁ຊ 1
ೋಗ 1
itelj 1
ското 1
▁Czy 1
▁behöver 1
▁chall 1
▁Deb 1
მის 1
▁Ked 1
ALI 1
▁ಸಮ 1
▁action 1
▁provin 1
▁ਸਿੰ 1
្រី 1
ี่ยน 1
Go 1
▁18, 1
▁MAR 1
elijke 1
/4 1
ໃຫ້ 1
ąg 1
անկ 1
▁کہا 1
▁centre 1
▁опы 1
▁khoa 1
▁grupo 1
▁bermain 1
akh 1
мости 1
öh 1
▁responsabil 1
▁ඔබ 1
▁stora 1
▁ruk 1
лау 1
▁confer 1
ଲି 1
່ນ 1
▁livet 1
ிறது 1
▁కే 1
▁tool 1
▁giả 1
▁אין 1
▁должен 1
▁સુ 1
بین 1
ынша 1
▁Arab 1
▁ers 1
▁training 1
edan 1
▁prak 1
▁verm 1
▁например 1
▁teht 1
▁Ngo 1
▁potre 1
▁tarafından 1
▁좋은 1
avu 1
மாக 1
▁Hồ 1
▁keluarga 1
▁ភ 1
▁али 1
▁mani 1
▁chương 1
ustu 1
ovej 1
▁dodat 1
▁trabalho 1
▁Till 1
tez 1
ולים 1
кте 1
แรง 1
▁зда 1
▁ಹಾಗ 1
ittää 1
▁bedste 1
▁profesional 1
▁Wars 1
▁биде 1
▁Авто 1
▁ș 1
▁Arbeit 1
▁કરવા 1
čko 1
▁tổng 1
▁CR 1
цией 1
▁20, 1
שא 1
▁رق 1
▁бизнес 1
த்தை 1
شین 1
▁Μα 1
▁Chủ 1
▁düny 1
થે 1
▁ቤ 1
▁voir 1
UC 1
лам 1
olan 1
ufen 1
▁Ent 1
lai 1
▁когато 1
▁સં 1
▁Nos 1
▁erk 1
▁sida 1
▁dw 1
පු 1
▁aka 1
▁jedno 1
AMA 1
▁Good 1
▁definit 1
▁своих 1
ël 1
tering 1
▁σχε 1
▁fru 1
▁назва 1
▁pemain 1
atre 1
పై 1
▁flo 1
▁није 1
veg 1
жуть 1
▁RE 1
▁نح 1
▁הרא 1
▁uprav 1
SM 1
caya 1
▁Mond 1
▁Đăng 1
▁व्यव 1
کاری 1
ursos 1
asaan 1
▁طراحی 1
▁several 1
нача 1
שוב 1
λω 1
kép 1
มน 1
osť 1
oek 1
ड़ी 1
▁фору 1
▁какво 1
tene 1
हाँ 1
▁Lan 1
▁izb 1
lərin 1
▁bile 1
adikan 1
orit 1
▁mist 1
▁age 1
gång 1
ніх 1
▁14, 1
▁June 1
▁Điều 1
jör 1
58 1
सर 1
▁depart 1
▁консу 1
▁Green 1
▁behov 1
umā 1
▁empresas 1
▁هنا 1
iteter 1
かもしれ 1
▁stock 1
▁daga 1
▁fri 1
▁Kultur 1
▁muda 1
▁kasih 1
نية 1
▁карти 1
▁Lagu 1
▁fikk 1
出现 1
รูป 1
网站 1
▁Cat 1
▁λόγ 1
▁mois 1
▁Bere 1
用户 1
ætt 1
ែង 1
▁크 1
ложен 1
▁위한 1
▁страна 1
▁vitamin 1
luk 1
ട്ടു 1
▁gái 1
etak 1
▁photo 1
▁prije 1
▁анти 1
▁ње 1
яр 1
▁saw 1
▁dưỡng 1
▁ពី 1
iteľ 1
azing 1
نين 1
▁postav 1
▁עלי 1
▁belang 1
▁BL 1
▁egyik 1
ရွ 1
▁ਇਸ 1
ால 1
▁միջ 1
▁était 1
জন 1
hehe 1
▁mina 1
部门 1
▁क्र 1
▁informasjon 1
อื่น 1
▁жү 1
▁Sund 1
▁88 1
▁företag 1
ата 1
▁Eine 1
▁sondern 1
▁سط 1
เธ 1
▁dopo 1
kező 1
digt 1
▁Auch 1
▁گه 1
▁perusahaan 1
▁мере 1
▁туралы 1
▁טי 1
▁ceea 1
embra 1
трі 1
otas 1
▁서울 1
▁انقل 1
▁ساتھ 1
▁össze 1
▁बै 1
▁महिला 1
▁kuitenkin 1
für 1
▁Gaz 1
conom 1
▁haj 1
ବେ 1
▁exclus 1
ாத 1
ركة 1
ποί 1
▁mercado 1
▁recommend 1
▁20- 1
porta 1
▁familie 1
▁encu 1
ضو 1
▁בני 1
▁nit 1
ข้อมูล 1
▁дово 1
▁unserer 1
▁cực 1
▁Berlin 1
▁skriver 1
▁kij 1
ologie 1
▁liten 1
▁Street 1
▁Roma 1
вів 1
vs 1
▁serve 1
uja 1
▁season 1
ინა 1
▁ቅ 1
▁podem 1
▁اخبار 1
▁матеріа 1
ნდა 1
स्य 1
χαν 1
▁vera 1
▁diferentes 1
▁στους 1
न्त 1
▁amor 1
μου 1
▁всем 1
▁tín 1
▁образом 1
eniem 1
▁Road 1
▁Raz 1
arka 1
▁government 1
▁پول 1
ként 1
▁Pes 1
▁म्हण 1
▁position 1
▁क्षेत्र 1
New 1
目的 1
▁oč 1
▁ናይ 1
▁giữ 1
στά 1
ían 1
ตร์ 1
▁terror 1
mg 1
nir 1
)- 1
▁veya 1
mien 1
▁noti 1
ಬೇಕ 1
вное 1
▁របស់ 1
▁Blogger 1
▁cał 1
▁осущест 1
ষ্ 1
▁spolo 1
ДА 1
▁kjær 1
▁cine 1
▁ľud 1
ун 1
▁yıl 1
▁గా 1
比較 1
▁ارد 1
▁biểu 1
bygg 1
▁amit 1
▁tarjo 1
▁minute 1
гляд 1
したい 1
▁ese 1
▁років 1
▁mẫu 1
▁Gw 1
▁Sci 1
▁duż 1
▁đâu 1
▁которой 1
▁خاط 1
▁dele 1
icação 1
зия 1
щий 1
▁төл 1
dev 1
▁lấy 1
▁نرم 1
γρά 1
value 1
êt 1
▁เมื่อ 1
▁॥ 1
▁tark 1
стр 1
sun 1
म्म 1
▁whole 1
қан 1
▁yếu 1
mű 1
中央 1
▁ಸಿ 1
国内 1
▁kuf 1
▁Data 1
▁leurs 1
▁presente 1
▁كار 1
▁international 1
гне 1
เมื่อ 1
▁систем 1
▁край 1
ատար 1
▁citt 1
▁mən 1
,- 1
▁đa 1
чер 1
▁USD 1
▁مرت 1
ගෙන 1
▁ստ 1
▁mala 1
▁pick 1
úl 1
▁dô 1
上海 1
▁Leh 1
▁юри 1
ยน 1
▁ow 1
▁pasar 1
▁প্রতি 1
olis 1
▁نیاز 1
▁ҳа 1
ANI 1
▁strani 1
▁మరి 1
▁oprav 1
▁ничего 1
ثير 1
vrd 1
作用 1
oe 1
ਡੀ 1
νας 1
валі 1
▁szab 1
▁۹ 1
▁मन 1
▁views 1
แรก 1
type 1
ouw 1
tio 1
▁phép 1
▁nell 1
▁seem 1
väll 1
kort 1
▁memberi 1
ács 1
▁لن 1
▁Prez 1
▁miner 1
▁ایرانی 1
▁ולא 1
▁ап 1
śl 1
вок 1
▁വെ 1
▁vair 1
nije 1
न्त्री 1
▁oportun 1
▁punt 1
▁migli 1
有些 1
มาช 1
▁72 1
しかし 1
▁byl 1
ybės 1
sur 1
▁अम 1
▁break 1
▁Cup 1
ктора 1
▁pep 1
▁razvoj 1
তা 1
▁ց 1
▁футбо 1
ЛА 1
HI 1
▁сама 1
▁වන 1
каде 1
▁proprio 1
▁Однако 1
▁estos 1
▁थी 1
▁கோ 1
▁tussen 1
ajaran 1
мін 1
为了 1
▁dnia 1
λλη 1
▁зали 1
▁ря 1
▁Кро 1
дить 1
ඩා 1
▁konst 1
▁bentuk 1
▁když 1
▁краї 1
技術 1
▁આવ 1
icii 1
实现 1
▁nouve 1
/3 1
تح 1
ビス 1
pont 1
▁ори 1
▁oktober 1
เล็ก 1
izio 1
▁Const 1
રો 1
reo 1
▁επισ 1
▁داخل 1
ting 1
ocz 1
▁கே 1
itung 1
ykk 1
▁əm 1
ulah 1
irea 1
ραγμα 1
▁друг 1
նել 1
▁업 1
ออนไลน์ 1
▁osób 1
étel 1
▁μόνο 1
▁Ль 1
▁մասին 1
▁Mid 1
dej 1
ugal 1
чку 1
ərəf 1
ชาย 1
ўся 1
▁жизнь 1
▁κάθε 1
ירים 1
▁რე 1
▁practic 1
ڵی 1
▁බල 1
▁độc 1
▁Gew 1
▁möglich 1
▁타 1
/2017 1
▁active 1
ября 1
▁bereits 1
▁حرف 1
▁inclus 1
に関 1
ába 1
eran 1
ියේ 1
▁ਸਿੰਘ 1
▁ngành 1
▁prel 1
्टी 1
▁태 1
▁проте 1
▁dara 1
ێر 1
▁pengguna 1
%) 1
▁тэр 1
▁그리고 1
▁across 1
▁shop 1
▁tưởng 1
QU 1
▁conna 1
KI 1
மான 1
▁Trip 1
วิทย 1
▁האי 1
▁требо 1
▁dù 1
▁nguồn 1
发生 1
▁različ 1
▁власти 1
omme 1
▁이상 1
▁ór 1
▁ઘ 1
▁نز 1
astra 1
▁Rio 1
hay 1
▁مرب 1
▁Thai 1
▁différ 1
不断 1
▁اک 1
телите 1
▁consegu 1
ണി 1
ใคร 1
тии 1
ംഗ 1
▁pén 1
▁لأ 1
▁потреби 1
▁безопасно 1
▁numero 1
illes 1
▁göst 1
▁maga 1
▁použív 1
▁ให้ 1
▁როგ 1
ucht 1
▁oft 1
зем 1
▁হয় 1
ခ် 1
ಾಗಿದೆ 1
▁মো 1
တွေ 1
κρι 1
▁reserv 1
▁ورز 1
▁tương 1
чено 1
▁दिया 1
estre 1
سن 1
▁heart 1
äller 1
bok 1
▁ارسال 1
γα 1
▁ചെയ് 1
▁dabei 1
▁Haz 1
▁تغی 1
▁исти 1
▁clean 1
▁splet 1
▁захо 1
▁nis 1
ваться 1
▁személy 1
▁efekt 1
▁hə 1
▁bár 1
atter 1
alada 1
හෙ 1
ୋଇ 1
වර 1
leszt 1
ավար 1
▁nota 1
რის 1
▁drag 1
uly 1
spro 1
▁half 1
▁Japan 1
▁więcej 1
ภู 1
enne 1
▁require 1
പ്ര 1
ዚህ 1
acie 1
сить 1
േശ 1
állal 1
▁город 1
▁என்ற 1
▁avut 1
▁teraz 1
▁gat 1
▁حضرت 1
▁Zus 1
▁civil 1
▁quite 1
▁각 1
τια 1
▁(199 1
ername 1
▁obav 1
лығы 1
▁ala 1
ätä 1
▁만들 1
skie 1
тех 1
▁آزاد 1
▁werd 1
・・・ 1
에서는 1
ensive 1
▁お 1
▁дзя 1
▁continue 1
▁مدیر 1
ashi 1
▁kiếm 1
кты 1
▁norge 1
▁chr 1
▁taking 1
дж 1
▁שנ 1
plats 1
いつ 1
▁περισ 1
▁lider 1
ají 1
ндай 1
egas 1
icamente 1
▁toga 1
▁ดู 1
муще 1
पुर 1
sex 1
iren 1
emple 1
▁mellem 1
▁уби 1
▁дво 1
라고 1
▁ate 1
ียด 1
ås 1
държа 1
рения 1
▁macam 1
▁constitu 1
▁Thanh 1
owanych 1
สดง 1
▁വീ 1
▁נוס 1
ここ 1
▁izg 1
合わせ 1
根据 1
မှု 1
改革 1
lier 1
▁trying 1
▁Ret 1
olf 1
тали 1
τής 1
▁beker 1
ināt 1
▁nuestra 1
▁prvi 1
ิม 1
дон 1
াদের 1
▁valg 1
ivit 1
▁Stat 1
ility 1
SL 1
▁Bola 1
▁امکان 1
なた 1
ՈՒ 1
▁постав 1
▁시작 1
▁pocz 1
▁المل 1
▁jauh 1
▁байсан 1
руп 1
▁wind 1
ያን 1
⁄4 1
▁وزارت 1
ələ 1
icky 1
▁January 1
▁jár 1
saan 1
▁سک 1
nst 1
ട്ട് 1
taja 1
▁took 1
вление 1
▁suunn 1
▁postup 1
DR 1
▁trib 1
сім 1
▁Stockholm 1
虽然 1
▁Fort 1
▁беспла 1
▁adat 1
bank 1
▁Кар 1
▁quello 1
▁همان 1
طان 1
▁kredit 1
▁відбу 1
▁PT 1
▁zašt 1
▁மே 1
▁capital 1
kais 1
amina 1
рави 1
▁És 1
لے 1
кат 1
▁సినిమా 1
▁Dj 1
▁сма 1
▁ajo 1
▁cun 1
這樣 1
üb 1
ρακ 1
▁byť 1
▁veldig 1
▁BM 1
▁neste 1
ectu 1
bia 1
สิ่ง 1
సం 1
NN 1
ంటు 1
▁พร 1
fico 1
▁Θε 1
▁адам 1
▁tiga 1
▁ھ 1
▁nghĩa 1
▁করা 1
казыва 1
▁mondo 1
ତ୍ 1
▁dö 1
ыл 1
▁உள்ள 1
▁பார 1
▁garanti 1
▁ච 1
แรม 1
▁cours 1
тық 1
▁बढ 1
▁кул 1
▁development 1
▁після 1
▁müssen 1
▁yourself 1
ņem 1
▁сотрудни 1
τός 1
時候 1
мір 1
▁← 1
اهش 1
▁Вас 1
▁כת 1
▁internation 1
तात 1
նում 1
▁SZ 1
▁коми 1
▁nome 1
▁Tru 1
サービス 1
יתה 1
ন্দ 1
▁చేయ 1
▁диза 1
地区 1
▁nghe 1
同じ 1
▁щодо 1
hj 1
گز 1
▁probably 1
ودی 1
ಕರ 1
خوا 1
▁astfel 1
▁banget 1
ekte 1
▁있어 1
▁societ 1
ంతో 1
▁games 1
ნა 1
ských 1
▁Aw 1
▁adop 1
▁علم 1
▁besk 1
▁viime 1
ყვ 1
شنبه 1
▁Cong 1
гийг 1
2013 1
▁hakk 1
▁EM 1
tsz 1
▁oni 1
ђа 1
δες 1
ម្ព 1
φη 1
▁labai 1
িতে 1
56 1
▁yli 1
ណ្ 1
▁bí 1
▁ժամ 1
erca 1
▁kara 1
▁xin 1
ungu 1
θούν 1
▁ሁ 1
rave 1
itch 1
▁มา 1
▁양 1
โต 1
ၾက 1
▁환 1
arah 1
kum 1
▁bụ 1
▁potrz 1
▁זו 1
▁دې 1
र्ट 1
▁verið 1
▁merasa 1
ರಿಗೆ 1
▁lassen 1
▁presidente 1
▁Kle 1
▁ата 1
▁සඳ 1
તે 1
▁большо 1
اريخ 1
▁온 1
форми 1
▁برخی 1
لاش 1
▁implement 1
▁уз 1
▁16, 1
oder 1
nyata 1
▁Nhật 1
▁Mos 1
لار 1
oret 1
▁4: 1
▁Mam 1
▁այս 1
▁другие 1
▁lado 1
ళ్ళ 1
ärke 1
▁언 1
▁Мен 1
▁druh 1
ítő 1
▁ราคา 1
жба 1
face 1
▁ultim 1
ennt 1
▁mense 1
▁stø 1
▁priz 1
▁Elek 1
来说 1
▁번 1
houd 1
▁cause 1
▁yüz 1
كوم 1
▁pjes 1
▁yax 1
⁄2 1
พื้น 1
▁perio 1
сила 1
تو 1
είς 1
▁Dü 1
第三 1
▁Ren 1
▁järjest 1
▁استخ 1
▁ကို 1
▁October 1
ोजना 1
▁zou 1
لاث 1
▁gul 1
▁danh 1
▁Տ 1
▁Hak 1
asing 1
过程 1
▁prog 1
▁teknik 1
νού 1
inek 1
estas 1
▁zgod 1
▁підприєм 1
▁chor 1
▁дозво 1
मार 1
▁viện 1
▁thất 1
▁сь 1
▁ไ 1
を使 1
▁aix 1
▁olur 1
ádz 1
91 1
යන් 1
átor 1
Ex 1
▁Artikel 1
▁Terbaru 1
teil 1
▁espec 1
▁copii 1
▁۴ 1
▁alors 1
▁extrem 1
ljuč 1
▁ਵਿਚ 1
▁selle 1
▁Republ 1
▁១ 1
▁njegov 1
▁स्वा 1
ήμε 1
▁хто 1
ાન 1
▁huis 1
angkat 1
▁බැ 1
▁основа 1
บอล 1
onomi 1
ohet 1
.), 1
ลด 1
▁bóng 1
ionen 1
▁tank 1
▁ಕೊ 1
不过 1
▁زن 1
ורי 1
▁Last 1
▁것이다 1
▁alb 1
▁Wan 1
▁plac 1
▁suf 1
▁fatto 1
ancer 1
adə 1
ոչ 1
▁alleen 1
됩니다 1
▁caus 1
point 1
лым 1
▁utama 1
mé 1
ريد 1
علق 1
▁contre 1
▁ಆದ 1
otā 1
▁natu 1
▁style 1
▁너 1
ppo 1
рек 1
▁innlegg 1
▁ጉ 1
▁ፍ 1
idän 1
▁Tanz 1
▁isk 1
ซี 1
▁smartphone 1
▁कह 1
ברה 1
▁региона 1
▁शु 1
նդ 1
▁teman 1
ceput 1
▁huv 1
៊ី 1
▁inim 1
▁cilvē 1
▁Ahmed 1
ិក 1
ového 1
iranje 1
▁otvor 1
jų 1
▁juli 1
▁persone 1
ੱਕ 1
maya 1
ebo 1
▁بند 1
კი 1
▁Bản 1
пя 1
▁đoàn 1
▁Й 1
▁জান 1
こう 1
կայ 1
▁رنگ 1
▁නම් 1
起来 1
рят 1
utto 1
FA 1
▁års 1
▁modif 1
只要 1
olit 1
allen 1
sty 1
atë 1
▁Sky 1
PP 1
▁biasanya 1
မြ 1
▁ሃ 1
өөр 1
ügy 1
atea 1
័យ 1
▁тэ 1
olat 1
хий 1
дия 1
▁national 1
aco 1
্যান 1
zit 1
▁izv 1
▁boy 1
▁зло 1
тельных 1
に対 1
▁égal 1
▁97 1
current 1
是在 1
▁Francis 1
▁үү 1
isel 1
▁rav 1
▁ζω 1
▁samen 1
▁więc 1
ठमा 1
зов 1
szak 1
▁virtu 1
▁Kita 1
icient 1
▁virksom 1
▁volgende 1
▁68 1
▁azon 1
▁metų 1
▁rand 1
σότε 1
يب 1
▁체 1
▁Lag 1
▁نص 1
жден 1
gil 1
▁хүн 1
न्द्र 1
engk 1
▁cuối 1
▁Kosov 1
ėje 1
▁personnes 1
ଙ୍କୁ 1
▁Đị 1
▁henkil 1
▁mate 1
▁sektor 1
▁sila 1
▁hoy 1
▁โรง 1
गत 1
▁utr 1
▁visa 1
jun 1
▁sexy 1
меня 1
▁cụ 1
▁yake 1
udes 1
ାରେ 1
▁град 1
▁약 1
▁nauj 1
▁ఉన్న 1
emaan 1
▁хол 1
ogr 1
ediakan 1
▁площа 1
▁domu 1
▁Stra 1
▁continua 1
▁isn 1
ได้รับ 1
orni 1
▁спорт 1
фия 1
ങ്ങൾ 1
rə 1
יתי 1
▁Ско 1
▁Jun 1
▁iets 1
ก่อน 1
bev 1
▁vaikka 1
ಶ್ 1
្វើ 1
▁actual 1
မာ 1
emon 1
ukku 1
woord 1
ණ් 1
ษัท 1
▁foram 1
▁конечно 1
брать 1
ãi 1
▁Dunia 1
שמ 1
ନ୍ଦ 1
ended 1
▁(8) 1
じゃ 1
▁brez 1
▁Lyrics 1
▁đấu 1
▁граждан 1
lē 1
▁Inde 1
▁kirj 1
జ్ 1
ező 1
▁drugi 1
nai 1
▁tí 1
▁Jug 1
▁Ast 1
▁개인 1
hil 1
:- 1
روف 1
▁hah 1
▁fag 1
ணி 1
▁এব 1
▁hyn 1
▁muse 1
▁sollte 1
nél 1
ậm 1
даго 1
▁интерес 1
▁සං 1
▁Lar 1
▁øk 1
▁филь 1
政治 1
тым 1
enty 1
lás 1
▁illet 1
парат 1
สวย 1
▁sted 1
ภาย 1
▁jedna 1
▁hap 1
רכז 1
▁cena 1
▁표 1
▁pilihan 1
▁bagaimana 1
▁issues 1
fél 1
▁гор 1
েক 1
டன் 1
▁ព្រ 1
èm 1
കള 1
▁نسبت 1
容易 1
čný 1
ประก 1
ھر 1
▁hig 1
▁км 1
共同 1
▁meille 1
ុម 1
illo 1
ברים 1
πί 1
▁fis 1
▁істо 1
alni 1
үүлэх 1
▁ய 1
▁çık 1
▁mab 1
щите 1
▁orice 1
اته 1
▁objec 1
ಪ್ಪ 1
ણે 1
ێکی 1
▁phù 1
▁ಟ 1
ezo 1
дви 1
▁наста 1
▁бойынша 1
增加 1
▁900 1
ولا 1
▁اقدام 1
skich 1
によって 1
רך 1
พั 1
▁sơ 1
▁Осно 1
▁cool 1
ხვა 1
נד 1
▁අද 1
eltä 1
uzione 1
▁తెలు 1
▁Lj 1
ञ् 1
ະນ 1
ліза 1
áme 1
▁arbejd 1
▁prava 1
лит 1
▁mín 1
▁ним 1
▁опла 1
ából 1
▁meses 1
▁५ 1
机构 1
tare 1
μάτων 1
сков 1
▁مب 1
gos 1
drag 1
ysz 1
▁произ 1
▁kunst 1
最後 1
▁così 1
▁bent 1
▁dedi 1
▁complete 1
ափ 1
と思う 1
alp 1
▁zob 1
law 1
▁נית 1
▁SD 1
igus 1
▁תק 1
ading 1
▁почти 1
Trig 1
▁باعث 1
▁complex 1
▁trip 1
adz 1
▁Zi 1
▁ağ 1
影響 1
šli 1
▁ឆ្នាំ 1
▁Deutschland 1
▁Motor 1
觉得 1
▁دیا 1
▁делать 1
ለት 1
ettes 1
imy 1
▁Pir 1
▁passe 1
이나 1
のでは 1
เกี่ยว 1
▁λα 1
anaan 1
▁VIDEO 1
ynt 1
อะไร 1
แด 1
ક્ષ 1
▁ਜਾ 1
rank 1
▁мили 1
ಕೆ 1
లీ 1
หัว 1
เปิด 1
▁joc 1
▁moder 1
apai 1
ITA 1
▁քաղաք 1
▁eskor 1
▁spille 1
たり 1
vey 1
▁sikker 1
əsinin 1
anns 1
лған 1
ستانی 1
▁istor 1
ilməsi 1
pria 1
▁Hom 1
自由 1
▁temu 1
▁professional 1
ැබ 1
уда 1
▁достаточно 1
лина 1
▁ግን 1
allet 1
▁cast 1
▁elimin 1
▁przypad 1
▁Hav 1
▁terug 1
ição 1
の人 1
дро 1
▁شبکه 1
▁fá 1
▁необхід 1
▁example 1
▁ରା 1
rede 1
áról 1
ଡି 1
59 1
▁ಮೂ 1
▁جب 1
▁clos 1
▁ስለ 1
▁finner 1
வது 1
▁വേ 1
ەکان 1
ynam 1
ivos 1
▁அதி 1
▁csal 1
▁hrvat 1
▁åter 1
▁lih 1
arul 1
گونه 1
wick 1
бити 1
tikk 1
▁vyk 1
▁항 1
▁گذشته 1
nav 1
ությունների 1
▁शे 1
liği 1
сну 1
▁svak 1
ริม 1
▁Suomen 1
board 1
▁جوان 1
րի 1
вэр 1
راض 1
▁tare 1
antung 1
▁속 1
▁آل 1
▁پیدا 1
▁cạnh 1
▁paper 1
▁96 1
▁ဘ 1
ektedir 1
▁oblasti 1
▁sommer 1
arie 1
անք 1
▁Lah 1
▁თქ 1
เส้น 1
▁સાથે 1
▁jis 1
▁nih 1
41 1
▁その 1
▁оны 1
▁Bakı 1
ectos 1
illende 1
inea 1
lub 1
ังหวัด 1
▁Hat 1
▁voll 1
RK 1
▁τό 1
går 1
▁ích 1
TH 1
网络 1
▁depo 1
▁krav 1
▁напо 1
▁Sven 1
▁ръ 1
▁خبری 1
РИ 1
▁Lou 1
гч 1
▁tieto 1
ņas 1
ery 1
ijan 1
▁Hvor 1
▁chy 1
▁cari 1
kormány 1
▁Hva 1
alej 1
дио 1
พร้อม 1
ীর 1
alka 1
гар 1
▁Беларусі 1
▁νε 1
▁широ 1
izmet 1
▁ຂ 1
▁déjà 1
制度 1
▁baba 1
▁맞 1
anej 1
▁lavoro 1
▁nunca 1
▁murah 1
гер 1
▁Sj 1
intas 1
ંદ 1
▁telep 1
▁igu 1
спі 1
解决 1
त्व 1
▁cualquier 1
▁kto 1
▁foly 1
▁حمل 1
▁yle 1
▁Фо 1
ュー 1
▁책 1
ənin 1
▁poja 1
ंत्र 1
veni 1
മി 1
▁пору 1
andu 1
▁پزش 1
▁такие 1
▁ure 1
之一 1
jons 1
ellig 1
らない 1
▁Ísl 1
▁повы 1
▁budget 1
▁herstel 1
өөд 1
lagen 1
ฟรี 1
▁লা 1
▁ابت 1
aster 1
▁Kay 1
▁современ 1
▁belajar 1
ättre 1
这里 1
接受 1
▁videos 1
▁dve 1
aix 1
▁وج 1
▁veľmi 1
▁ידי 1
onton 1
▁tyre 1
▁rezultat 1
▁життя 1
あなた 1
▁également 1
yorum 1
▁ilma 1
▁jours 1
▁skor 1
eczy 1
▁perché 1
▁vilket 1
ingt 1
▁Анд 1
▁rada 1
inet 1
கம் 1
▁ofert 1
ované 1
▁يق 1
ड़े 1
▁fins 1
ultat 1
mě 1
▁अध्य 1
▁мора 1
▁Estados 1
▁hiyo 1
▁couple 1
▁۵ 1
▁cik 1
▁בו 1
▁инвести 1
前に 1
▁Ener 1
จน 1
▁July 1
เฉ 1
ตอน 1
▁بأ 1
▁Kil 1
▁ayr 1
zek 1
OJ 1
▁узна 1
pus 1
▁joten 1
ðum 1
ন্ধ 1
▁متن 1
ีม 1
▁ksi 1
▁Note 1
取得 1
বাদ 1
▁gestion 1
pués 1
▁Ara 1
▁19, 1
orta 1
aktadır 1
▁bob 1
Am 1
ਸੀ 1
▁bic 1
▁Restaur 1
เที่ยว 1
▁deliver 1
▁pagal 1
send 1
▁anul 1
▁అని 1
▁නිස 1
▁bahasa 1
▁rock 1
жных 1
▁awal 1
▁μη 1
▁کنم 1
▁niż 1
ண்டும் 1
▁심 1
ורת 1
роят 1
▁Paulo 1
оте 1
แม่ 1
▁FC 1
▁verg 1
мом 1
▁Ans 1
▁системы 1
▁شامل 1
是否 1
▁baha 1
を持 1
ктив 1
▁qué 1
▁tomu 1
▁دستگاه 1
▁estr 1
▁gyven 1
▁també 1
▁viser 1
▁wyb 1
▁virus 1
мот 1
ผลิต 1
▁سازی 1
▁soon 1
▁श्री 1
uments 1
少し 1
тельство 1
▁function 1
ihen 1
บัน 1
iausi 1
▁ות 1
rast 1
▁Fed 1
▁parc 1
ാല് 1
▁Szer 1
十分 1
▁James 1
▁المست 1
▁KA 1
▁мү 1
цей 1
сне 1
▁ປະ 1
▁ils 1
▁якія 1
lain 1
ētu 1
▁alatt 1
ใบ 1
▁adap 1
▁10- 1
▁kuna 1
رائه 1
டுத்த 1
▁SC 1
▁esto 1
логия 1
มาชิก 1
emmän 1
▁preto 1
ället 1
മു 1
nitt 1
கி 1
▁දු 1
▁سرم 1
فظ 1
▁достав 1
orial 1
▁đạt 1
▁ศ 1
ampir 1
▁strong 1
agra 1
ernes 1
▁embar 1
evin 1
σιμο 1
▁развития 1
▁また 1
▁cann 1
▁госпо 1
▁analys 1
▁zit 1
▁دوره 1
ਨਾ 1
လာ 1
▁žen 1
▁heute 1
onym 1
▁buku 1
ledning 1
▁עוד 1
▁daw 1
▁above 1
▁Ә 1
▁Gov 1
ച്ചു 1
やす 1
▁Ша 1
यी 1
▁glav 1
aper 1
▁count 1
▁resultat 1
ić 1
▁Materi 1
үүн 1
▁Sig 1
▁bildir 1
េល 1
abh 1
াকা 1
čius 1
▁aya 1
ಣೆ 1
▁Kec 1
लं 1
▁эрх 1
▁fantas 1
yj 1
agne 1
្ច 1
▁restaurant 1
дования 1
ുകള 1
▁ہوئے 1
ที่ดี 1
ούμε 1
อาจ 1
▁sint 1
lies 1
▁17, 1
▁given 1
ሆን 1
▁ღ 1
▁xử 1
▁날 1
▁bew 1
ürlich 1
▁Республика 1
▁объя 1
▁कारण 1
łów 1
sad 1
▁Num 1
▁тим 1
φε 1
▁meine 1
▁appar 1
▁space 1
EX 1
බා 1
▁zp 1
▁نقل 1
sim 1
▁heller 1
クリ 1
▁каждый 1
ற்ப 1
▁voit 1
рей 1
สุข 1
▁لئے 1
▁szüks 1
への 1
valt 1
▁এবং 1
自身 1
куль 1
zna 1
▁chịu 1
▁मौ 1
roc 1
▁trạng 1
izin 1
पछि 1
ród 1
▁called 1
დეგ 1
вини 1
ravo 1
itation 1
▁ersten 1
ङ् 1
▁bütün 1
โอ 1
▁reklam 1
ERS 1
łod 1
бір 1
▁59 1
▁हुए 1
되어 1
▁president 1
kich 1
ילו 1
سلام 1
vány 1
▁ktorá 1
▁pill 1
▁terdapat 1
すると 1
ιώ 1
▁Abu 1
timi 1
▁1980 1
▁бил 1
▁रही 1
อั 1
▁రో 1
▁براي 1
▁পার 1
▁klo 1
▁ලංක 1
▁quod 1
ведения 1
▁kori 1
▁Shqip 1
arl 1
▁نفر 1
ienie 1
▁tämä 1
ෙස 1
isir 1
▁Mga 1
▁гле 1
ación 1
enea 1
▁앞 1
tiu 1
است 1
And 1
▁бө 1
▁связи 1
▁sejak 1
▁дуже 1
▁Store 1
▁PA 1
▁Trav 1
▁όλ 1
▁ян 1
比较 1
ipul 1
私は 1
▁gamm 1
suggest 1
ณฑ 1
▁семь 1
вме 1
árom 1
▁मै 1
▁ට 1
▁Also 1
กิจ 1
▁Και 1
står 1
nike 1
лда 1
▁koju 1
haus 1
▁thuê 1
тики 1
▁دلیل 1
▁Gor 1
▁ولك 1
ehen 1
yey 1
客户 1
的小 1
▁Они 1
▁devam 1
▁الجم 1
ិច 1
ulkan 1
ែរ 1
▁mengalami 1
ected 1
פט 1
сок 1
णार 1
▁בצ 1
▁keer 1
eding 1
ënë 1
▁Δεν 1
▁هوا 1
zas 1
ology 1
▁نخ 1
▁System 1
▁berd 1
▁2010. 1
▁деле 1
▁اشاره 1
▁dieses 1
▁történ 1
▁gospodar 1
▁Srbije 1
astro 1
▁alguns 1
ေန 1
▁پي 1
zare 1
ství 1
▁mei 1
▁told 1
hlas 1
▁problemas 1
ុស 1
lywood 1
▁Thomas 1
▁podľa 1
▁नाम 1
▁מר 1
。。 1
▁dove 1
pek 1
idupan 1
▁ਵੀ 1
OF 1
▁rộng 1
▁Ελλάδα 1
▁Washington 1
фици 1
▁બા 1
yttä 1
▁процеду 1
食べ 1
▁paš 1
▁اساس 1
وك 1
ดา 1
onc 1
elsk 1
▁οποία 1
▁echt 1
-9 1
▁đá 1
▁پایان 1
▁दर् 1
▁Gran 1
▁обору 1
INI 1
hana 1
▁vận 1
▁gleich 1
▁seguir 1
▁dobre 1
েস 1
ומר 1
ющей 1
▁Nhưng 1
▁Jest 1
▁будь 1
မှာ 1
▁DJ 1
▁เส 1
zg 1
도록 1
[/ 1
ārt 1
▁všech 1
▁Comments 1
bez 1
Or 1
ıcı 1
aksan 1
▁стоимо 1
▁corres 1
▁regard 1
▁Gia 1
ਟੀ 1
Vote 1
▁Elle 1
▁גד 1
jual 1
▁mật 1
▁metal 1
ходить 1
цер 1
▁gennem 1
▁सर्व 1
▁kari 1
▁लग 1
▁Alla 1
лях 1
ännisk 1
▁भन् 1
▁perh 1
▁vehic 1
adat 1
ledge 1
mento 1
▁rẻ 1
द्या 1
कु 1
▁Anton 1
▁സാ 1
▁rang 1
▁vùng 1
کي 1
ሆነ 1
νή 1
▁kegiatan 1
ồm 1
uose 1
▁Dzi 1
▁לפני 1
▁warto 1
▁арга 1
▁travail 1
▁boh 1
▁числе 1
▁فه 1
▁حساب 1
▁ā 1
▁kamera 1
▁يوم 1
▁distr 1
▁difficult 1
Me 1
▁якщо 1
▁guer 1
▁demand 1
▁काठमा 1
əbər 1
▁vrijeme 1
esty 1
חו 1
▁بک 1
▁Some 1
▁Contin 1
▁jú 1
▁pras 1
▁20% 1
▁catal 1
▁kı 1
▁ارائه 1
▁เว 1
всем 1
жного 1
alk 1
▁คน 1
▁ધ 1
▁compte 1
рами 1
▁høj 1
▁samma 1
▁अर् 1
All 1
laub 1
yyat 1
æði 1
ægt 1
▁Porno 1
▁Mereka 1
вить 1
▁nature 1
▁λέ 1
▁akik 1
▁zac 1
йо 1
oge 1
▁szól 1
ঞ্ 1
▁سخ 1
ମାନ 1
创新 1
جات 1
aktiv 1
▁Obat 1
▁американ 1
▁eli 1
▁franc 1
▁atta 1
▁появи 1
шем 1
EE 1
▁kids 1
▁langt 1
▁dành 1
▁בד 1
beeld 1
▁Via 1
▁moja 1
▁presenta 1
▁Př 1
▁građ 1
-16 1
بته 1
alité 1
íth 1
▁Ts 1
чити 1
გრამ 1
ysh 1
следова 1
өд 1
wis 1
esif 1
▁thần 1
ေါ 1
▁fotos 1
ībā 1
කා 1
▁จํา 1
یز 1
▁خارج 1
▁کي 1
▁Madax 1
леу 1
▁bamb 1
▁получить 1
▁suff 1
itha 1
游戏 1
▁меха 1
▁anyone 1
▁среди 1
イル 1
дать 1
୍ୟା 1
▁Produc 1
emaal 1
tiver 1
āti 1
▁המק 1
▁др 1
▁până 1
itif 1
ົງ 1
▁giver 1
νες 1
øbenhavn 1
▁Kis 1
▁ರಾಜ 1
antas 1
▁пожа 1
▁faktor 1
തെ 1
▁central 1
OZ 1
交通 1
▁ਕੇ 1
▁pays 1
▁aquí 1
▁tind 1
alamang 1
gens 1
▁tikai 1
ლება 1
▁minimum 1
▁DR 1
भाव 1
рить 1
▁합니다 1
▁gym 1
▁loo 1
vare 1
new 1
▁UM 1
▁Nep 1
▁przek 1
▁FR 1
▁конкре 1
▁सू 1
કાર 1
▁ný 1
▁kish 1
สบ 1
▁gall 1
▁2015, 1
▁Gj 1
▁ì 1
ərk 1
▁પો 1
▁Kalau 1
▁Rek 1
elly 1
ваме 1
▁профессиона 1
▁study 1
ळी 1
zh 1
իչ 1
ப்பட்ட 1
▁ò 1
▁value 1
appy 1
embangan 1
тина 1
▁Влади 1
izen 1
несе 1
בודה 1
łoż 1
▁azi 1
olare 1
▁Hus 1
▁Diese 1
▁ofte 1
▁povez 1
▁Mess 1
▁đáng 1
▁Tet 1
▁मुख्य 1
ೊಳ್ಳ 1
▁אלי 1
▁السلام 1
▁ενώ 1
ԱՆ 1
▁Tit 1
obs 1
tuar 1
čkog 1
istic 1
down 1
enos 1
▁Teh 1
▁SEO 1
得到 1
บาง 1
meno 1
▁판 1
▁እንዲ 1
▁sillä 1
好き 1
▁decl 1
▁Ул 1
▁Tamil 1
ారా 1
▁CS 1
ESS 1
amet 1
▁número 1
ья 1
spre 1
▁милли 1
▁Finn 1
бан 1
▁nisu 1
▁معا 1
▁10: 1
اع 1
."></ 1
មួយ 1
ierz 1
porter 1
ాలి 1
चना 1
▁होता 1
änä 1
▁środ 1
▁послу 1
თი 1
▁ട 1
▁rib 1
▁관련 1
ztat 1
กําลัง 1
ശ് 1
▁ün 1
▁ties 1
рін 1
わけ 1
▁ZA 1
▁vest 1
▁περιο 1
▁광 1
▁warna 1
▁videre 1
▁Sak 1
▁үе 1
▁350 1
chied 1
▁riêng 1
▁водо 1
▁Robert 1
ਵੇ 1
▁سیستم 1
જી 1
▁rank 1
▁vale 1
▁этих 1
рую 1
▁roll 1
▁islam 1
▁کردند 1
▁திரு 1
വര് 1
▁jumlah 1
▁այդ 1
ົດ 1
▁bolj 1
ີ້ 1
▁Kons 1
▁آیا 1
ูด 1
ষ্ঠ 1
▁fără 1
▁Ανα 1
▁industry 1
رق 1
τσι 1
гно 1
แฟ 1
0. 1
menn 1
оло 1
▁muslim 1
onan 1
▁ביותר 1
▁Ft 1
▁bata 1
▁living 1
▁Լ 1
blad 1
eless 1
▁autres 1
ansen 1
اتر 1
▁option 1
uoj 1
▁această 1
رایط 1
っていた 1
็ม 1
▁් 1
▁letz 1
▁altri 1
▁gost 1
▁unik 1
onj 1
ວາມ 1
хода 1
▁условия 1
RT 1
▁ой 1
▁Autor 1
▁grunn 1
▁Master 1
▁boli 1
▁mea 1
▁посо 1
۰۰ 1
▁BA 1
▁matter 1
▁المج 1
▁официа 1
▁haber 1
▁наві 1
മാണ് 1
izza 1
olta 1
▁투 1
▁Đức 1
▁Civ 1
▁gửi 1
뉴스 1
▁neki 1
▁чего 1
▁نک 1
▁Tip 1
▁esa 1
▁ong 1
લો 1
bec 1
того 1
▁ക് 1
▁ಸಾ 1
KS 1
▁klient 1
▁muj 1
▁pô 1
▁laz 1
▁allen 1
▁работу 1
▁uj 1
▁मात्र 1
▁السي 1
▁schön 1
▁nød 1
▁nothing 1
▁vyt 1
ړي 1
▁одной 1
▁इन 1
asca 1
ଲା 1
వే 1
ruž 1
願い 1
▁Casa 1
▁etti 1
льную 1
роприя 1
▁وو 1
ίδα 1
▁europe 1
建立 1
▁Jum 1
▁print 1
ாம 1
▁вода 1
▁dz 1
ayn 1
▁budu 1
mah 1
گرد 1
మ్మ 1
kaw 1
▁pole 1
▁المد 1
▁ďal 1
নের 1
medi 1
▁mera 1
▁tych 1
ңа 1
▁kia 1
▁Stadt 1
▁복 1
ることが 1
▁Ново 1
▁гово 1
意味 1
▁vej 1
щення 1
▁ople 1
▁fundament 1
óra 1
▁tapah 1
الة 1
▁independ 1
▁növ 1
▁страте 1
一样 1
▁ապ 1
▁62 1
交流 1
គ្រ 1
▁લા 1
omala 1
িম 1
ार्थ 1
ką 1
льном 1
ਕਾਰ 1
▁Gö 1
▁форми 1
жни 1
▁points 1
ಧ್ಯ 1
▁финансо 1
др 1
▁dansk 1
▁Send 1
тернет 1
লো 1
▁запро 1
▁법 1
ruck 1
iston 1
▁Wikipedia 1
▁mewn 1
OST 1
ורות 1
єї 1
haan 1
▁Add 1
▁bättre 1
råde 1
▁مصرف 1
рол 1
▁Kho 1
▁flex 1
▁Click 1
อยาก 1
▁різ 1
вате 1
mens 1
▁Jab 1
▁2,5 1
▁kamar 1
▁كانت 1
áló 1
ocuk 1
▁teis 1
nyv 1
▁1998 1
▁Gold 1
زینه 1
య్య 1
ases 1
▁director 1
▁rendszer 1
▁celor 1
▁wish 1
ക്കി 1
ujeme 1
жать 1
action 1
▁cultura 1
▁isə 1
ێژ 1
▁seben 1
▁sheeg 1
▁spune 1
▁ennen 1
시간 1
lais 1
▁Vin 1
raž 1
▁looks 1
êr 1
よく 1
▁deel 1
▁table 1
▁interior 1
ียม 1
▁solid 1
ących 1
тербу 1
▁документа 1
IKA 1
▁يح 1
Sa 1
▁مک 1
▁nač 1
לט 1
とか 1
▁мер 1
▁그러 1
tures 1
velse 1
▁cân 1
▁שלא 1
itude 1
▁Nagy 1
cal 1
▁رسید 1
وة 1
fum 1
हो 1
чная 1
▁জন্য 1
▁Ec 1
ਣਾ 1
فاق 1
▁close 1
▁arra 1
▁μέσα 1
▁කරන්න 1
▁League 1
電話 1
▁двух 1
▁часа 1
тира 1
▁chữa 1
انت 1
▁اللہ 1
▁discipl 1
person 1
▁بس 1
▁증 1
▁çıx 1
▁đô 1
▁érték 1
▁đau 1
▁ହୋଇ 1
ység 1
▁male 1
ników 1
▁purch 1
], 1
pose 1
▁reform 1
▁eskorte 1
ulum 1
cit 1
▁район 1
▁history 1
ίων 1
ູ້ 1
▁Thủ 1
olet 1
▁Tun 1
▁αυτο 1
▁аз 1
▁gema 1
▁jų 1
ুম 1
cles 1
▁पि 1
▁gəl 1
▁റ 1
▁Energ 1
▁sveta 1
▁kvinner 1
▁تد 1
▁PP 1
▁parents 1
ัคร 1
▁خودرو 1
▁नै 1
▁Fors 1
進行 1
▁xuống 1
▁Quy 1
iews 1
ట్టు 1
ელს 1
▁ří 1
open 1
▁Rez 1
▁varje 1
▁early 1
▁опа 1
млекет 1
▁strane 1
abol 1
▁როგორ 1
▁ovog 1
▁الأول 1
եպ 1
▁ideas 1
▁differen 1
անդ 1
▁kartu 1
anggung 1
istö 1
▁terbaru 1
▁نیر 1
フォ 1
하며 1
tec 1
idet 1
mk 1
▁არის 1
▁সা 1
▁Beach 1
▁چار 1
РЕ 1
▁geld 1
CT 1
eso 1
amenti 1
▁whether 1
▁лише 1
ชื่อ 1
▁١ 1
міністра 1
▁IM 1
也有 1
ėd 1
▁Ford 1
▁Kut 1
▁passar 1
才能 1
ಿಸುವ 1
▁szere 1
pool 1
▁визна 1
▁مغ 1
▁tüm 1
мн 1
лды 1
слав 1
ีน 1
▁آر 1
ற்று 1
эгд 1
▁počet 1
▁vedere 1
▁დღ 1
▁eğ 1
gesch 1
▁consid 1
라는 1
▁شرایط 1
▁치 1
▁미국 1
▁webb 1
GG 1
▁pedag 1
▁aconte 1
提升 1
▁χρή 1
▁Ment 1
▁tort 1
▁வீ 1
▁مقد 1
▁público 1
▁flera 1
رده 1
▁ՀՀ 1
tahan 1
▁lâu 1
eland 1
▁Amazon 1
ieurs 1
▁پیام 1
inig 1
เภ 1
asikan 1
▁datings 1
ovima 1
▁අතර 1
eau 1
▁Į 1
▁پرس 1
افظ 1
▁Вер 1
ယ်။ 1
▁امنی 1
ئر 1
ステ 1
▁lad 1
eliti 1
▁érdek 1
▁потрі 1
▁Life 1
ågor 1
RS 1
▁Even 1
ଛନ୍ତି 1
ibat 1
mati 1
▁مدیریت 1
▁Liga 1
ஞ்ச 1
ഞ്ഞു 1
чке 1
▁رم 1
▁apabila 1
▁RS 1
▁prowad 1
ház 1
▁fisk 1
opi 1
▁Dip 1
urer 1
▁bakal 1
jegy 1
إن 1
▁fle 1
bg 1
▁Anti 1
▁wurden 1
▁Nur 1
ವರ 1
▁ej 1
หมือน 1
ាញ 1
▁रो 1
nehåll 1
▁weeks 1
のだ 1
iječ 1
tout 1
деля 1
ביב 1
▁biển 1
skr 1
▁pág 1
還是 1
▁rien 1
▁збо 1
▁Já 1
▁einmal 1
▁môi 1
iture 1
▁ـ 1
ष्ठ 1
▁egyszer 1
▁Wij 1
δυ 1
▁канди 1
▁සම් 1
eval 1
▁потом 1
▁intel 1
▁дополните 1
▁дана 1
endum 1
▁tjen 1
ยาย 1
ický 1
čkih 1
▁ува 1
72 1
klar 1
nię 1
▁работе 1
▁hyd 1
▁бер 1
▁È 1
ầng 1
▁forward 1
▁препо 1
▁สม 1
udah 1
singaw 1
хов 1
▁forskellige 1
▁män 1
== 1
:: 1
▁turi 1
වල 1
ಕಾರ 1
▁duhet 1
▁zwischen 1
▁játék 1
▁sna 1
asp 1
▁Тур 1
ാൻ 1
τερ 1
▁глу 1
▁Show 1
▁ιστο 1
▁tovább 1
▁ປ 1
▁tos 1
▁coming 1
▁kalian 1
▁انقلاب 1
никами 1
▁ചി 1
▁нор 1
▁wirk 1
antan 1
νης 1
▁უნდა 1
▁منطقه 1
▁cố 1
▁najve 1
Ne 1
..! 1
▁maior 1
jiem 1
方が 1
Пе 1
まだ 1
▁prad 1
▁doua 1
▁move 1
▁beli 1
vikling 1
▁میان 1
biamo 1
antal 1
▁suiv 1
▁energet 1
рыма 1
ଥିବା 1
חד 1
وزه 1
usal 1
▁требу 1
ဦး 1
▁аль 1
▁รับ 1
tività 1
▁tradic 1
▁credit 1
▁ಮೇ 1
▁raha 1
ició 1
▁struktur 1
bak 1
entrum 1
▁basis 1
63 1
▁lég 1
▁رابط 1
▁environment 1
கள 1
▁estim 1
▁ishte 1
▁erre 1
ttet 1
▁navig 1
▁pá 1
▁आहेत 1
▁nelle 1
▁63 1
▁μεγά 1
orter 1
▁jól 1
▁Roman 1
▁usta 1
▁όμως 1
▁ວ 1
▁کاهش 1
▁360 1
▁druž 1
▁Əliy 1
▁rent 1
▁የአ 1
▁tento 1
▁큰 1
itty 1
▁dow 1
zion 1
▁gift 1
dim 1
дати 1
▁step 1
вари 1
▁pud 1
▁שק 1
▁найти 1
fta 1
▁నిర్ 1
▁χρόνια 1
▁Kn 1
▁spol 1
▁руб 1
▁dato 1
消费 1
▁quis 1
աթ 1
质量 1
▁io 1
▁Informationen 1
▁Unidos 1
obod 1
čnost 1
▁Champ 1
▁rr 1
▁hair 1
不過 1
▁Läs 1
▁iOS 1
▁cập 1
edar 1
▁hoạch 1
ИЙ 1
▁(20 1
▁воен 1
▁siste 1
▁участие 1
▁במק 1
▁направле 1
▁फा 1
κη 1
στή 1
lings 1
▁związ 1
ंप 1
▁Norsk 1
ował 1
▁стар 1
▁dibdib 1
▁boj 1
On 1
χη 1
▁penis 1
ცა 1
▁싶 1
▁uyg 1
ότη 1
ville 1
とても 1
▁euros 1
กัด 1
▁سای 1
▁Health 1
▁साल 1
▁ilyen 1
▁کمک 1
เติ 1
▁թե 1
უმ 1
▁Vl 1
▁surpr 1
▁eivät 1
itare 1
נם 1
▁εγ 1
▁samarbe 1
▁issue 1
82 1
▁sı 1
istor 1
资源 1
หลัก 1
ierno 1
▁nostro 1
хийн 1
▁४ 1
▁бага 1
▁χρη 1
ल्ला 1
▁Did 1
ชีวิต 1
▁الدول 1
fung 1
čnih 1
▁metu 1
ünde 1
▁לכ 1
▁1-2 1
▁avait 1
mot 1
▁impact 1
ARE 1
utter 1
סת 1
гну 1
udet 1
▁ešte 1
ação 1
▁مف 1
▁უფ 1
▁companies 1
▁जु 1
▁nob 1
xit 1
▁kø 1
ását 1
▁almost 1
čia 1
▁دین 1
▁khá 1
दान 1
▁институ 1
▁neden 1
▁ies 1
▁تحقی 1
VA 1
ereen 1
▁ഷ 1
ília 1
▁тә 1
▁novi 1
条件 1
தல் 1
sia 1
▁식 1
lom 1
гээр 1
eseorang 1
▁aş 1
▁najb 1
▁diagnos 1
▁ingr 1
▁Kommun 1
▁자신 1
ския 1
▁phía 1
▁Rumah 1
都有 1
▁studio 1
▁lli 1
egang 1
▁ہون 1
▁المو 1
▁gur 1
▁comments 1
కే 1
▁fyl 1
▁ໄດ້ 1
▁дней 1
gew 1
▁Ри 1
▁أح 1
upaten 1
gere 1
iekš 1
şkil 1
He 1
購入 1
ксу 1
hh 1
кої 1
▁로 1
▁5: 1
▁хан 1
▁સમ 1
▁또는 1
▁තු 1
▁firmy 1
▁Fern 1
ریان 1
▁учу 1
▁tycker 1
νοι 1
сей 1
▁Энэ 1
▁стороны 1
▁шта 1
▁recept 1
▁станови 1
▁høy 1
▁cic 1
▁druge 1
bruk 1
گا 1
다고 1
▁száll 1
aras 1
▁building 1
ўля 1
خانه 1
EMB 1
rodu 1
▁kommt 1
ଲେ 1
eseen 1
ਨੀ 1
▁Nga 1
td 1
▁Đông 1
▁شروع 1
ไม่มี 1
ління 1
ंतर 1
▁return 1
alahan 1
రీ 1
4- 1
▁relacion 1
waj 1
▁micro 1
▁управ 1
▁течение 1
▁Vik 1
▁pär 1
▁депута 1
роди 1
fully 1
造成 1
кай 1
▁wanted 1
ไข 1
我们的 1
โปร 1
fér 1
▁Dating 1
▁obchod 1
▁المص 1
▁yh 1
▁የመ 1
▁author 1
ilin 1
lava 1
▁Եր 1
▁நட 1
▁വാ 1
▁Sti 1
▁wali 1
▁باشند 1
▁ен 1
▁එක් 1
önt 1
▁พร้อม 1
400 1
qué 1
ეტ 1
▁පෙ 1
voz 1
మైన 1
ticle 1
▁bolo 1
റ്റി 1
▁reach 1
▁sez 1
▁száz 1
واع 1
▁וכ 1
▁taken 1
тек 1
מיד 1
▁igra 1
▁OL 1
ezés 1
▁ales 1
นน 1
▁љу 1
ρει 1
▁suite 1
▁Поэтому 1
文章 1
স্থ 1
▁내용 1
▁पहले 1
▁seems 1
▁қў 1
▁lata 1
▁testi 1
Wrap 1
▁عدم 1
िति 1
ostat 1
ecta 1
ခု 1
▁напра 1
▁ಸು 1
▁ero 1
▁vesti 1
▁guru 1
▁укра 1
▁устрой 1
▁reh 1
ρας 1
▁elm 1
▁elekt 1
▁şekilde 1
ühr 1
юсь 1
סים 1
▁člov 1
▁ਵੱ 1
ร้าน 1
▁vih 1
▁Oktober 1
uksessa 1
▁meno 1
รักษา 1
▁percent 1
▁مال 1
طور 1
šku 1
▁tuli 1
iin 1
▁Tex 1
▁qualquer 1
▁būti 1
altung 1
ทีม 1
▁gun 1
▁rozp 1
▁EX 1
▁వచ్చ 1
kut 1
▁رح 1
inat 1
ētā 1
▁CP 1
ومان 1
ыг 1
त्म 1
▁squ 1
▁дээр 1
▁construc 1
فل 1
喜欢 1
▁какой 1
▁answer 1
▁kunde 1
Te 1
աշտ 1
በረ 1
基础 1
▁Sala 1
ája 1
רט 1
▁ambi 1
inkin 1
▁място 1
▁30- 1
▁ведь 1
gota 1
▁vog 1
િત 1
▁Comment 1
ibt 1
▁कोई 1
ടുത്ത 1
▁लोक 1
зин 1
مین 1
▁menang 1
owan 1
▁conditions 1
▁phạm 1
▁gøre 1
కొ 1
▁største 1
serv 1
▁откри 1
▁değil 1
▁செய்ய 1
▁hiv 1
सन 1
▁מפ 1
▁First 1
▁deste 1
ências 1
79 1
想要 1
▁ਹਨ 1
▁වූ 1
▁relax 1
ฉัน 1
news 1
▁eens 1
elea 1
▁lal 1
▁leo 1
unuz 1
▁hosp 1
▁العمل 1
endar 1
▁tepat 1
▁message 1
තිය 1
▁બે 1
▁käyttö 1
▁ଖ 1
▁His 1
▁държа 1
▁Väl 1
产业 1
ってお 1
▁менее 1
▁ಚಿ 1
ଥା 1
▁ways 1
69 1
▁jij 1
▁pagina 1
▁wad 1
рія 1
▁લો 1
aged 1
▁Wak 1
зор 1
ovor 1
שון 1
ύπ 1
гор 1
▁sebe 1
æm 1
inki 1
лардың 1
▁akadem 1
▁nuevo 1
خش 1
▁Sis 1
▁такі 1
▁손 1
ække 1
هد 1
▁стан 1
하면 1
▁sposób 1
đa 1
日の 1
ouch 1
гот 1
&# 1
ତା 1
▁svoju 1
حات 1
▁erot 1
▁музи 1
aging 1
▁nastav 1
щие 1
▁Anders 1
▁vähän 1
ansa 1
▁encontrar 1
▁viene 1
不知道 1
ネット 1
▁тари 1
▁anders 1
▁होते 1
写真 1
ект 1
дир 1
▁bedrij 1
▁sava 1
δικ 1
▁ngủ 1
ូន 1
ავი 1
▁tür 1
ობის 1
među 1
▁paj 1
ήμερα 1
▁защото 1
ไม้ 1
▁Mom 1
▁ваши 1
▁svenska 1
эй 1
ையும் 1
▁คร 1
uvat 1
icken 1
▁эффекти 1
▁positiv 1
▁δύο 1
▁tým 1
ykke 1
ต้องการ 1
hui 1
დებ 1
▁update 1
jana 1
▁range 1
▁Президен 1
మే 1
▁Asia 1
▁करण्या 1
гт 1
▁αρ 1
ždy 1
spot 1
▁தொட 1
▁amp 1
sioon 1
ອກ 1
▁birlik 1
▁idé 1
▁inlägg 1
▁nghị 1
▁جامعه 1
▁привле 1
▁LE 1
▁hed 1
уы 1
аны 1
▁آذ 1
ѓа 1
▁energia 1
▁Све 1
▁сана 1
larında 1
▁Jack 1
▁zato 1
▁ჰ 1
▁kein 1
bio 1
جن 1
▁fisc 1
▁සු 1
нього 1
▁транспорт 1
ığını 1
▁কার 1
ாம் 1
▁рамках 1
ạp 1
ూర్ 1
φέ 1
▁зөв 1
▁είχε 1
▁उन्ह 1
ettel 1
▁टी 1
рып 1
▁áo 1
nader 1
▁Če 1
▁следует 1
umis 1
▁gav 1
▁poch 1
ිස් 1
posta 1
▁ово 1
▁صرف 1
username 1
▁permit 1
▁betyd 1
其实 1
▁качестве 1
▁preko 1
▁recht 1
▁diber 1
▁مسئول 1
▁обслу 1
кор 1
ოთ 1
▁Get 1
▁dazu 1
ILL 1
▁Tall 1
պան 1
▁accep 1
▁هدف 1
▁buna 1
▁utilis 1
คาร 1
▁Nej 1
▁causa 1
▁види 1
▁bahawa 1
▁69 1
ામ 1
▁өөр 1
upra 1
▁details 1
▁Ер 1
▁πραγμα 1
▁THE 1
МА 1
ہر 1
受到 1
▁зар 1
获得 1
▁Romania 1
▁hart 1
▁олон 1
▁especially 1
▁حتی 1
▁назад 1
有限公司 1
▁lisää 1
ukses 1
▁lớp 1
▁tarko 1
▁ред 1
នៅ 1
▁Ons 1
▁थियो 1
บุรี 1
▁Jav 1
▁diferen 1
энд 1
▁Zd 1
irik 1
▁कृ 1
ãng 1
াচ 1
жка 1
▁асу 1
▁стати 1
tabil 1
▁Лі 1
2012 1
okra 1
▁ممکن 1
▁Orang 1
óság 1
engi 1
irka 1
▁ਪੰ 1
▁αποτε 1
不到 1
▁들어 1
ույն 1
▁នេះ 1
▁judi 1
чните 1
▁gdzie 1
▁annan 1
▁21, 1
▁Opp 1
增长 1
▁series 1
ומי 1
▁أنه 1
历史 1
)، 1
▁다양 1
▁වල 1
ູ່ 1
cast 1
▁Insp 1
▁henne 1
대로 1
▁рус 1
▁diet 1
▁вида 1
▁links 1
▁potom 1
▁performance 1
▁Catalunya 1
ینده 1
▁America 1
▁كن 1
▁మొ 1
वाद 1
▁focus 1
▁очеред 1
cí 1
ริ่ม 1
itin 1
▁طالب 1
▁выше 1
дума 1
म्प 1
▁anys 1
▁berbeda 1
▁människ 1
▁собой 1
▁принима 1
▁fonction 1
ρίς 1
▁seul 1
▁하고 1
▁ара 1
▁BER 1
ಂತೆ 1
соб 1
ոշ 1
▁unor 1
▁tərəf 1
▁uống 1
▁деньги 1
▁Prav 1
ただ 1
ੈਂ 1
ворю 1
▁sito 1
▁сега 1
ющим 1
▁트 1
coin 1
▁perfekt 1
ראה 1
▁Mind 1
वं 1
лэл 1
▁cher 1
62 1
annes 1
iệp 1
ห้อง 1
neze 1
▁każd 1
jene 1
CP 1
▁vei 1
▁State 1
▁калі 1
▁Jangan 1
▁Institu 1
▁дни 1
▁пам 1
▁andet 1
▁područ 1
▁الرئيس 1
▁મે 1
ว่าง 1
▁puis 1
json 1
niec 1
▁وهو 1
▁certific 1
otes 1
▁sebelumnya 1
▁نوی 1
▁kilom 1
щё 1
сія 1
akı 1
▁رئيس 1
▁tl 1
▁gum 1
▁binnen 1
▁volna 1
▁полови 1
UZ 1
erian 1
eris 1
▁ຮ 1
ísk 1
▁sư 1
▁Estado 1
קות 1
▁danske 1
ουλ 1
▁краси 1
head 1
▁当 1
리는 1
▁sold 1
për 1
▁تعداد 1
ords 1
▁მხ 1
▁thre 1
▁дере 1
▁6- 1
ရှိ 1
டும் 1
▁Tanzania 1
▁recep 1
▁такое 1
▁କି 1
▁BB 1
akaan 1
▁98 1
джа 1
asının 1
▁sær 1
▁oluş 1
ขนาด 1
▁резулта 1
▁terk 1
rahim 1
ЫН 1
▁помощью 1
ppe 1
חנו 1
▁اضاف 1
šķ 1
▁хорошо 1
▁phim 1
▁Bew 1
aland 1
ари 1
▁voy 1
لسط 1
▁በአ 1
too 1
▁nepr 1
▁بیش 1
ദ്യ 1
▁Để 1
okan 1
▁साम 1
になった 1
▁61 1
▁забезпе 1
▁true 1
市場 1
▁børn 1
▁телефо 1
мах 1
▁nél 1
▁کننده 1
taf 1
▁län 1
▁Barat 1
▁decor 1
ленных 1
ehir 1
▁мероприя 1
▁블 1
▁darah 1
یان 1
▁پرداخت 1
சி 1
▁근 1
▁дали 1
erso 1
meni 1
▁нама 1
ässä 1
wart 1
itual 1
evat 1
łości 1
holder 1
ុខ 1
-17 1
▁permite 1
▁mention 1
▁Time 1
кну 1
Na 1
▁ಹೇಳ 1
▁kaum 1
▁omkring 1
یره 1
正在 1
ฐาน 1
roš 1
▁بڑ 1
rind 1
▁നേ 1
▁11: 1
rey 1
▁برخ 1
▁الاست 1
ář 1
▁fino 1
▁illetve 1
▁Kunden 1
▁blok 1
▁ملي 1
zeug 1
▁sino 1
▁dang 1
▁හො 1
φορά 1
▁cyn 1
未来 1
▁μην 1
ículo 1
▁bash 1
▁області 1
▁ನೀಡ 1
▁wol 1
▁writing 1
▁durum 1
▁చి 1
जि 1
▁Saint 1
тных 1
▁був 1
▁Evro 1
անգ 1
▁בנו 1
emmin 1
▁வழ 1
▁mó 1
▁Pier 1
▁пора 1
▁SV 1
▁তার 1
▁lucru 1
▁կարող 1
ruz 1
ിലും 1
▁Chat 1
cil 1
inii 1
▁취 1
skega 1
teurs 1
ویت 1
▁فعالیت 1
▁огром 1
òm 1
fly 1
▁året 1
▁fint 1
▁гре 1
最高 1
▁αξ 1
▁rata 1
şim 1
▁milij 1
чите 1
ηγ 1
▁معم 1
▁አይ 1
avanja 1
▁Πε 1
▁zien 1
tika 1
াঁ 1
▁ಏ 1
▁دع 1
▁डि 1
▁kommen 1
▁lær 1
iseksi 1
dü 1
мия 1
ništ 1
▁включа 1
forder 1
▁bodo 1
▁своего 1
りの 1
vara 1
▁altijd 1
▁techni 1
▁bagus 1
▁XV 1
▁להיות 1
▁dap 1
▁sung 1
انے 1
▁Bern 1
▁kojima 1
▁சி 1
▁ପାଇଁ 1
CS 1
atio 1
▁usa 1
▁není 1
hk 1
▁participa 1
▁προς 1
▁OG 1
koa 1
▁توسعه 1
▁창 1
▁dio 1
▁aşa 1
miss 1
▁mikro 1
▁timbang 1
▁누 1
में 1
ូរ 1
cov 1
erve 1
▁results 1
▁разре 1
ניים 1
disable 1
▁ország 1
ņēm 1
▁ребен 1
▁niveau 1
▁Российской 1
▁akhirnya 1
▁весь 1
▁оцен 1
▁عرض 1
▁сро 1
assan 1
erende 1
λώ 1
นักงาน 1
▁хора 1
水平 1
ページ 1
▁Mach 1
▁Unternehmen 1
▁Cs 1
rava 1
▁pran 1
▁Fire 1
以前 1
▁ekonomi 1
undan 1
▁liet 1
▁отра 1
▁বল 1
oje 1
ukul 1
▁töö 1
ateurs 1
gol 1
ကျ 1
agam 1
▁средств 1
▁szükség 1
▁forme 1
▁imper 1
йно 1
ロー 1
bog 1
hari 1
▁segundo 1
バー 1
ற்க 1
▁יצ 1
▁mainten 1
▁saan 1
▁مطلب 1
дуа 1
▁čak 1
activ 1
▁приобре 1
▁※ 1
▁дом 1
ıll 1
▁Թ 1
▁diken 1
تون 1
▁kalo 1
อัน 1
aktor 1
टक 1
▁hör 1
▁prostor 1
▁parten 1
▁Ў 1
▁kär 1
▁ጋ 1
പി 1
▁Për 1
щее 1
qe 1
್ಧ 1
必须 1
▁Daniel 1
▁भारतीय 1
▁منظ 1
▁ут 1
▁dosta 1
ندگان 1
▁JA 1
▁іх 1
ланы 1
▁یې 1
▁страны 1
याँ 1
▁weil 1
▁ilgili 1
▁пример 1
ليل 1
▁πά 1
лната 1
тара 1
צים 1
▁génér 1
▁gồm 1
▁जना 1
▁તેમ 1
▁Come 1
▁steht 1
bara 1
▁együtt 1
▁najbolj 1
▁SI 1
▁pena 1
кана 1
▁extr 1
სა 1
▁4) 1
ბი 1
▁segí 1
शे 1
▁teu 1
▁onun 1
▁Studi 1
▁глав 1
▁مقابل 1
▁wiele 1
▁Leben 1
đe 1
▁cidade 1
ovní 1
ρών 1
кое 1
▁údaj 1
्यो 1
isis 1
▁Кроме 1
▁ኤ 1
▁gamle 1
▁సమ 1
▁пор 1
▁Premi 1
▁бел 1
计划 1
▁அரச 1
会议 1
hv 1
▁ey 1
▁ندارد 1
קים 1
inak 1
▁טוב 1
▁chắc 1
▁statis 1
▁capit 1
▁خۆ 1
▁ula 1
лё 1
вич 1
▁tapa 1
▁gyer 1
rana 1
▁Už 1
▁Soomaaliya 1
▁Прави 1
▁clearfix 1
▁mode 1
▁quien 1
ukka 1
yczne 1
popover 1
▁talk 1
▁байгуул 1
▁vyd 1
ТА 1
▁koska 1
▁estudi 1
zung 1
▁круп 1
▁ਸਾ 1
γι 1
▁Pav 1
▁February 1
гах 1
▁περισσότε 1
ajn 1
രുന്ന 1
▁vairāk 1
▁Dib 1
chieden 1
ждение 1
usernameWrap 1
ūd 1
ана 1
▁customers 1
alitat 1
ဆို 1
సా 1
▁feder 1
▁ස් 1
▁Vai 1
embang 1
▁vib 1
क्षण 1
▁kosten 1
świad 1
▁პირ 1
▁memilih 1
▁quân 1
▁profit 1
▁kesehatan 1
▁ತಿ 1
▁μή 1
вобо 1
sil 1
asă 1
ität 1
有效 1
▁Nok 1
łni 1
මින් 1
▁rô 1
міна 1
েষ 1
えば 1
utama 1
▁identific 1
प्त 1
位置 1
θυ 1
▁ügy 1
▁kuv 1
▁sarà 1
▁Републи 1
▁words 1
▁кіль 1
▁virkelig 1
▁প্ৰ 1
ורך 1
▁vok 1
zlich 1
▁לס 1
客様 1
জ্ 1
美國 1
ಬ್ಬ 1
▁რომელი 1
~~ 1
বর 1
▁Федерации 1
бай 1
bef 1
ayar 1
รัฐ 1
แสดง 1
igheder 1
▁Það 1
▁آی 1
▁kip 1
▁Mere 1
▁сразу 1
▁عق 1
рони 1
▁kik 1
angu 1
ovit 1
▁מל 1
▁nö 1
uhu 1
▁Kod 1
▁ทํา 1
▁срп 1
特别 1
▁Lev 1
74 1
しまう 1
▁максима 1
▁komt 1
▁Jour 1
mena 1
▁கி 1
เกม 1
▁siap 1
▁mio 1
▁zák 1
ardım 1
ାର୍ 1
idem 1
ມີ 1
▁버 1
áte 1
▁halamang 1
▁adanya 1
▁کیف 1
▁పరి 1
▁dich 1
čení 1
▁nhé 1
▁aplik 1
aine 1
▁Dra 1
▁negeri 1
új 1
▁reprezent 1
可能性 1
▁ugyan 1
▁gent 1
▁ઓ 1
κρα 1
▁compos 1
ירת 1
▁लाख 1
▁зв 1
чей 1
▁disebut 1
▁път 1
▁کاری 1
нот 1
▁Sev 1
▁gera 1
▁다음 1
ვილი 1
▁AZ 1
न्त्र 1
▁완 1
▁ske 1
ებას 1
▁són 1
▁हजार 1
กาย 1
▁پذ 1
sos 1
▁진행 1
▁hitta 1
▁cra 1
▁altid 1
▁отрима 1
িড 1
àu 1
ίνη 1
▁இத 1
ктом 1
вања 1
▁unos 1
▁terlalu 1
illar 1
▁ఓ 1
効果 1
▁neuen 1
▁kron 1
▁काठमाड 1
▁Marketing 1
жит 1
парта 1
ិស 1
んです 1
tique 1
▁เอ 1
цијата 1
సీ 1
ెస్ 1
ighet 1
න්ට 1
▁satt 1
▁môže 1
▁fè 1
▁แล้ว 1
▁Two 1
خرى 1
▁jelen 1
σκευ 1
▁visto 1
▁kiş 1
ishing 1
▁mė 1
หย 1
▁medio 1
▁кого 1
とう 1
ício 1
▁علوم 1
ধান 1
▁(9) 1
▁ready 1
ضح 1
▁والأ 1
上げ 1
规定 1
▁usaha 1
人は 1
▁GB 1
▁saját 1
тың 1
▁muz 1
▁Kontak 1
atik 1
даря 1
▁אותו 1
:「 1
日は 1
▁Gob 1
▁track 1
skje 1
▁зүй 1
交易 1
್ರೀ 1
▁जब 1
န္း 1
▁세계 1
▁poti 1
▁autre 1
▁zoals 1
дня 1
▁Commons 1
obby 1
atique 1
amn 1
០១ 1
▁either 1
etten 1
▁Jl 1
▁Стра 1
▁Jud 1
▁existe 1
▁save 1
▁اقتصادی 1
▁phủ 1
▁kuat 1
▁تلاش 1
aient 1
▁станда 1
▁yung 1
▁moderne 1
▁музе 1
▁دریافت 1
更加 1
ਲੇ 1
▁지역 1
lique 1
▁объек 1
▁Abdul 1
▁arba 1
▁(← 1
ELL 1
▁사회 1
▁нашей 1
ოგ 1
సుకు 1
▁preoc 1
еха 1
osen 1
ೆಯಲ್ಲಿ 1
جع 1
학교 1
▁చెప్ప 1
▁12: 1
▁жаса 1
▁Enter 1
▁unique 1
льни 1
▁tř 1
سات 1
▁ngok 1
ғи 1
▁नेपाली 1
▁bekerja 1
▁qab 1
をする 1
發展 1
▁Muk 1
खि 1
ക്കു 1
83 1
▁nâng 1
ATE 1
▁가지 1
▁กร 1
▁Suk 1
▁مناسب 1
δι 1
aggi 1
▁Tämä 1
ոլոր 1
▁realizar 1
出了 1
关于 1
üne 1
▁být 1
▁บาท 1
▁miatt 1
▁більше 1
bad 1
▁wirklich 1
▁էլ 1
에도 1
टना 1
▁නි 1
▁tienen 1
lád 1
▁confl 1
▁jonka 1
たく 1
▁آغاز 1
▁libro 1
▁celebr 1
▁регистра 1
▁kiek 1
lyn 1
เสีย 1
▁Municip 1
inv 1
▁නිසා 1
▁chem 1
škai 1
▁높 1
illing 1
▁bağ 1
ələri 1
though 1
▁phot 1
▁نوشته 1
▁възможно 1
್ಣ 1
____ 1
▁tall 1
▁Creative 1
ВА 1
▁nguy 1
あれば 1
▁Provin 1
▁vyb 1
▁öğren 1
otra 1
▁подготов 1
ەوەی 1
▁Przy 1
тъ 1
ทั่ว 1
▁것은 1
▁toch 1
▁konferen 1
ullen 1
▁네 1
▁प्रधान 1
▁sesuatu 1
ಿಕೆ 1
ौर 1
▁হবে 1
▁зву 1
▁Technolog 1
▁corpor 1
ంధ 1
ستر 1
чества 1
▁których 1
னர் 1
zech 1
▁između 1
্ল 1
▁allem 1
ેશ 1
全面 1
▁tố 1
▁İstanbul 1
▁Đây 1
▁κόσ 1
▁wykon 1
▁qarşı 1
▁зохи 1
annt 1
▁hắn 1
▁Sho 1
рю 1
▁kasi 1
▁confi 1
▁dahil 1
▁festiv 1
▁problems 1
nyi 1
▁решения 1
▁koń 1
▁bisnis 1
▁belle 1
▁guide 1
▁것을 1
ர்ப 1
inum 1
54 1
ਕਾ 1
κει 1
▁yat 1
▁বাংলাদেশ 1
ਿਸ 1
もう 1
▁हर 1
شي 1
នេះ 1
isie 1
ვს 1
larla 1
▁Sej 1
lend 1
▁similar 1
زا 1
领域 1
▁zod 1
▁pool 1
▁numai 1
▁тогда 1
šti 1
xico 1
▁vem 1
presa 1
ৃত 1
不少 1
igar 1
▁oud 1
▁соціа 1
astre 1
▁bác 1
ότητα 1
tagid 1
▁процен 1
หญ 1
▁ජන 1
▁όταν 1
▁asked 1
ප් 1
▁Uma 1
äder 1
punkt 1
▁աշխատ 1
▁comport 1
olar 1
▁สําหรับ 1
▁oa 1
ждане 1
unarod 1
▁dés 1
бре 1
▁common 1
ាស់ 1
▁rakyat 1
fia 1
▁беру 1
suggesttag 1
▁არა 1
▁CL 1
▁CA 1
اهی 1
нийг 1
▁Ori 1
していた 1
▁synes 1
▁отноше 1
OA 1
siy 1
▁Ook 1
▁влия 1
▁Apart 1
жнарод 1
▁रे 1
▁እዩ 1
řej 1
▁tutte 1
фер 1
보다 1
กลับ 1
▁посто 1
erm 1
▁لك 1
▁modific 1
yste 1
reste 1
▁საკ 1
▁njihov 1
领导 1
ុជា 1
▁சிற 1
▁pria 1
PG 1
▁amikor 1
▁ekstra 1
▁gada 1
▁Kot 1
▁kív 1
لاگ 1
jern 1
▁stos 1
لاس 1
▁Eb 1
בוד 1
ulam 1
annel 1
▁170 1
▁التع 1
▁gradu 1
▁κάπο 1
auty 1
▁पहि 1
▁knj 1
▁Buch 1
相信 1
▁আগ 1
▁offici 1
дут 1
ijen 1
вели 1
▁entr 1
▁ек 1
ത്തിന്റെ 1
") 1
▁добре 1
▁gin 1
でしょうか 1
ræ 1
▁hôm 1
▁więks 1
ร่วม 1
▁Ло 1
▁hl 1
▁அத 1
кові 1
ΑΣ 1
▁zurück 1
uas 1
▁2014, 1
crit 1
χω 1
dje 1
öff 1
▁Möglich 1
▁hank 1
они 1
▁vàng 1
▁ўз 1
▁możliwo 1
▁customer 1
▁noc 1
किन 1
▁vlas 1
▁tuyến 1
apak 1
▁víde 1
▁човек 1
▁Menurut 1
גם 1
دى 1
ስጥ 1
▁जाने 1
▁chose 1
▁Bangla 1
kre 1
▁روح 1
▁Press 1
▁segera 1
धन 1
▁Fred 1
▁George 1
▁Digital 1
▁cerc 1
šanās 1
▁وسلم 1
▁depois 1
▁projektu 1
طل 1
▁түр 1
च्च 1
▁либо 1
گار 1
saa 1
াও 1
azio 1
īga 1
agens 1
▁सर् 1
▁أس 1
▁impr 1
이스 1
▁yfir 1
▁proš 1
öö 1
ukkan 1
▁peker 1
▁ï 1
▁våre 1
कास 1
τοι 1
যোগ 1
istaa 1
▁bax 1
▁kert 1
واره 1
dater 1
▁қара 1
▁dyr 1
iu 1
esch 1
▁معرف 1
alj 1
گران 1
▁unul 1
▁مرکز 1
stead 1
73 1
arious 1
ämään 1
▁tải 1
▁hanem 1
▁Nau 1
▁आव 1
▁пунк 1
امت 1
▁deği 1
▁leta 1
▁طریق 1
▁excell 1
▁sahip 1
▁svi 1
ayd 1
▁mają 1
ంద్ర 1
žno 1
▁еди 1
▁justi 1
▁қызмет 1
zeń 1
эта 1
éken 1
▁մեկ 1
故事 1
প্র 1
▁mám 1
▁Få 1
▁ترکی 1
צל 1
▁série 1
▁arriv 1
gia 1
▁cadr 1
▁kena 1
เอา 1
▁música 1
▁diesen 1
DN 1
aph 1
▁method 1
▁сни 1
這些 1
▁निय 1
▁अपनी 1
▁drive 1
EY 1
akang 1
Script 1
ължи 1
▁krist 1
రం 1
▁FA 1
などの 1
▁siger 1
ربی 1
стя 1
сят 1
▁blow 1
▁2013, 1
▁svojim 1
ությամբ 1
▁Secret 1
чным 1
▁ಆಗ 1
ົາ 1
erade 1
amus 1
▁effic 1
ствовать 1
▁पै 1
view 1
▁aquesta 1
χρι 1
ğlu 1
нага 1
▁نە 1
ping 1
ထား 1
▁ଏହି 1
▁Eks 1
▁üzrə 1
рање 1
ទេស 1
غل 1
▁ثم 1
innan 1
▁ታ 1
мыш 1
כון 1
park 1
ましょう 1
▁talent 1
▁नी 1
▁izd 1
▁دم 1
▁würde 1
κέ 1
▁הזה 1
чена 1
▁Comun 1
▁collabor 1
WS 1
ację 1
່າງ 1
▁جنوب 1
▁güzel 1
▁condi 1
żyt 1
▁درصد 1
ವಾ 1
յալ 1
ЕК 1
▁Она 1
anaf 1
նչ 1
▁five 1
spunkt 1
▁Cle 1
▁leave 1
ság 1
میت 1
▁komb 1
ครง 1
▁carte 1
▁perempuan 1
აძ 1
▁saab 1
zv 1
স্ত 1
ęcz 1
▁уу 1
▁moun 1
utes 1
プレ 1
ância 1
ถือ 1
▁ಡ 1
οντας 1
ẩy 1
ınd 1
racht 1
▁tilbud 1
▁впе 1
ራት 1
▁ຂອງ 1
ابط 1
这么 1
▁모두 1
▁solution 1
▁proizvod 1
ācija 1
▁ráp 1
PT 1
▁jaw 1
▁jamais 1
alas 1
นวน 1
قای 1
▁kể 1
тары 1
▁ox 1
▁хотя 1
▁zmi 1
▁conhec 1
▁paa 1
▁χώ 1
53 1
▁sólo 1
▁Xu 1
mə 1
▁wake 1
▁məs 1
▁Liv 1
stvu 1
▁нещо 1
avaju 1
lage 1
ിലെ 1
▁Ня 1
жить 1
քը 1
▁maž 1
▁임 1
ಗಳಲ್ಲಿ 1
▁nanti 1
▁Yeh 1
uun 1
্দ 1
이라고 1
▁hồi 1
публі 1
ද්ධ 1
▁цьому 1
ดัง 1
▁નથી 1
那些 1
▁cut 1
ukai 1
▁afin 1
▁грома 1
tij 1
▁tome 1
▁bru 1
▁đọc 1
▁всеки 1
▁phys 1
ลิป 1
andan 1
աժ 1
▁زمینه 1
▁мемлекет 1
▁remember 1
▁County 1
δώ 1
ിവ 1
▁îm 1
▁trenut 1
▁dirig 1
▁Ly 1
ecuti 1
▁тео 1
wach 1
▁Esk 1
ubu 1
▁Пар 1
▁amerikan 1
▁pieni 1
▁Stan 1
йи 1
▁međ 1
▁изу 1
▁chết 1
▁dekat 1
▁hoje 1
▁seseorang 1
▁връ 1
ließ 1
▁lätt 1
▁isa 1
شا 1
▁mujer 1
atch 1
特別 1
ГА 1
ಿರುವ 1
ılır 1
iam 1
してく 1
▁Якщо 1
ента 1
▁sound 1
不可 1
ସି 1
zus 1
▁тот 1
▁müə 1
▁giản 1
λί 1
▁amazing 1
였다 1
▁föl 1
▁جدا 1
kao 1
▁지원 1
▁mane 1
▁pă 1
▁بندی 1
▁kald 1
のような 1
▁бала 1
irat 1
▁Canada 1
нія 1
ว์ 1
സ്ഥ 1
вени 1
umul 1
▁jab 1
美元 1
▁ایس 1
▁असे 1
▁interpret 1
▁chaque 1
េង 1
▁هفته 1
estimm 1
દી 1
▁সু 1
▁archit 1
▁దా 1
ەیە 1
COM 1
ICA 1
даги 1
arsi 1
▁භ 1
деле 1
▁Jane 1
▁такого 1
▁görüş 1
▁phá 1
tional 1
вном 1
▁histori 1
▁hvert 1
▁väldigt 1
ově 1
բեր 1
▁bước 1
▁ക്ക് 1
▁Jep 1
etimes 1
UI 1
▁төр 1
▁없는 1
▁informatie 1
chester 1
▁života 1
oris 1
よね 1
▁adip 1
ādā 1
▁məlumat 1
だけで 1
ාන 1
▁ED 1
▁mogą 1
▁MD 1
▁ila 1
▁Central 1
▁camb 1
▁tü 1
▁Herceg 1
▁zen 1
▁amen 1
ווה 1
malı 1
▁oil 1
▁cerca 1
СР 1
iero 1
mie 1
sid 1
▁سور 1
зик 1
alte 1
▁frequ 1
▁benefici 1
full 1
uhnya 1
▁staan 1
زة 1
etik 1
▁veter 1
こちら 1
▁системи 1
身体 1
ζί 1
▁وفي 1
▁familia 1
▁브 1
୍ରୀ 1
▁needed 1
راب 1
▁ưu 1
ellem 1
▁souha 1
▁Rock 1
开发 1
▁nekoliko 1
▁Từ 1
▁kehidupan 1
ardia 1
▁fai 1
▁осві 1
δρο 1
▁Ash 1
▁valamint 1
cijo 1
▁punk 1
тельной 1
▁вообще 1
גיע 1
ິນ 1
reu 1
ल्ली 1
ulette 1
▁resol 1
▁vite 1
▁primo 1
▁bloc 1
▁riktigt 1
▁ผ 1
pta 1
▁Fu 1
ምን 1
普通 1
ابه 1
▁anu 1
▁..... 1
ammans 1
▁утвер 1
aid 1
vál 1
กลาง 1
єн 1
▁これ 1
हार 1
▁සා 1
▁önce 1
cks 1
▁مالی 1
▁manifest 1
רץ 1
▁אשר 1
▁descri 1
obus 1
▁Hoa 1
▁bulun 1
кру 1
ائد 1
▁Въ 1
▁jeder 1
јави 1
▁کرتے 1
userid 1
iş 1
▁mental 1
▁другой 1
▁obten 1
ಿರ 1
ffee 1
▁options 1
▁מט 1
▁compon 1
▁Care 1
▁conform 1
気が 1
ással 1
▁sih 1
tagon 1
▁wah 1
▁akar 1
▁támogat 1
קי 1
▁agora 1
▁बहुत 1
ربه 1
▁kid 1
▁debe 1
osz 1
▁مصر 1
▁pouvez 1
▁сан 1
▁сп 1
▁blitt 1
וות 1
▁prek 1
▁simply 1
▁pendidikan 1
いろ 1
imba 1
ljanje 1
▁22, 1
▁Acc 1
▁ots 1
/7 1
▁műkö 1
észet 1
▁která 1
▁بچ 1
मुख 1
េច 1
cken 1
▁vuoden 1
同時 1
ತು 1
ාවේ 1
juta 1
▁wp 1
▁Problem 1
로운 1
▁Haus 1
▁מדי 1
fast 1
▁Tari 1
▁архи 1
▁trò 1
рес 1
▁تنظ 1
▁søker 1
ابة 1
▁Ala 1
▁teknologi 1
чим 1
▁बद 1
▁recher 1
▁uży 1
နိုင် 1
▁enim 1
mur 1
▁image 1
▁ер 1
▁Eh 1
ierte 1
baka 1
oster 1
ง่าย 1
▁kleine 1
BN 1
ját 1
▁avez 1
▁megfel 1
▁فرهنگ 1
▁احت 1
უფ 1
由于 1
▁vraiment 1
jeno 1
łuż 1
▁เน 1
▁While 1
pag 1
ikir 1
▁fina 1
▁pron 1
▁მას 1
▁মান 1
▁clientes 1
▁będą 1
▁tentu 1
ควร 1
▁Line 1
▁характери 1
▁בט 1
▁ગુ 1
▁quest 1
වේ 1
ніка 1
▁excel 1
▁विश्व 1
icul 1
ept 1
▁dialog 1
շտ 1
štu 1
нії 1
▁RM 1
▁थे 1
▁olması 1
घा 1
▁כמה 1
الح 1
▁spi 1
грам 1
分享 1
ርስ 1
▁Jalan 1
▁osoba 1
เว็บ 1
发布 1
▁καν 1
如此 1
▁Hij 1
▁field 1
نو 1
▁быстро 1
▁ág 1
stüt 1
▁dug 1
▁교육 1
▁ወደ 1
elde 1
▁dne 1
▁først 1
▁Drag 1
फल 1
▁78 1
▁ლ 1
▁đôi 1
▁fác 1
ancia 1
ävät 1
ავს 1
▁komma 1
▁ویژه 1
▁աս 1
▁صاح 1
рование 1
лід 1
สมาชิก 1
▁feme 1
▁독 1
gris 1
ţe 1
ーク 1
▁ارو 1
▁meri 1
itaan 1
вание 1
▁сите 1
▁նաեւ 1
tiden 1
▁मोदी 1
▁snart 1
▁spé 1
▁Tako 1
ម្ពុជា 1
▁गए 1
性的 1
▁vist 1
ξει 1
वास 1
▁ymp 1
▁chú 1
empi 1
▁bylo 1
.; 1
▁вироб 1
▁걸 1
▁saada 1
▁채 1
▁scri 1
▁ještě 1
▁protec 1
▁tinggal 1
HE 1
▁ljub 1
▁Info 1
▁поло 1
▁2.0 1
▁energy 1
▁prác 1
▁කිරීම 1
रण 1
▁gara 1
▁розвитку 1
aso 1
해야 1
лаш 1
▁orta 1
▁comercial 1
控制 1
▁Από 1
etään 1
▁ono 1
▁λί 1
▁біз 1
▁parë 1
ුණු 1
▁мир 1
elv 1
▁Maz 1
▁طول 1
▁Salah 1
asal 1
▁Sit 1
zelf 1
лити 1
▁træ 1
▁estava 1
▁Region 1
áu 1
ekin 1
െങ്ക 1
▁Zu 1
▁багато 1
ASI 1
erim 1
عنی 1
▁Shi 1
▁aad 1
▁gdje 1
маты 1
▁работи 1
เปลี่ยน 1
vist 1
▁klart 1
คะ 1
▁PAR 1
ћу 1
alii 1
revet 1
▁doktor 1
▁ଫ 1
เหตุ 1
▁फिल् 1
dia 1
标准 1
θεση 1
▁λε 1
▁istif 1
ИЛ 1
▁код 1
▁Budapest 1
▁לנו 1
▁Cách 1
▁morgen 1
▁libert 1
▁сим 1
▁ahora 1
▁application 1
atten 1
▁dạng 1
▁група 1
▁known 1
anggap 1
▁يكون 1
▁trz 1
hn 1
▁מאוד 1
▁instrument 1
▁două 1
▁дале 1
▁quant 1
▁tanah 1
عار 1
▁1997 1
jalanan 1
itza 1
atian 1
▁нека 1
▁rather 1
▁1970 1
▁юриди 1
uage 1
▁மற்ற 1
▁იმ 1
เศษ 1
▁usl 1
▁самых 1
지는 1
▁włas 1
מוש 1
ános 1
endra 1
▁minst 1
▁mengambil 1
opol 1
▁evento 1
TP 1
▁tuyệt 1
▁odd 1
▁hecho 1
▁भू 1
▁دارای 1
▁กระ 1
urus 1
▁ถ้า 1
▁tengah 1
aget 1
▁consect 1
▁Вот 1
▁سطح 1
▁Pros 1
▁ukuthi 1
▁fér 1
▁წარ 1
ärna 1
▁небо 1
系列 1
▁مقاله 1
▁terr 1
▁otra 1
▁많이 1
▁Фа 1
พัฒ 1
▁працю 1
▁nevoie 1
▁момента 1
бек 1
▁gaya 1
ියට 1
▁læng 1
▁Voc 1
ंचे 1
▁rate 1
▁называ 1
rī 1
▁रूप 1
▁территории 1
▁likely 1
्स 1
▁objetivo 1
理由 1
▁Detta 1
▁банк 1
▁poker 1
▁wees 1
▁szyb 1
িক্ষ 1
▁Von 1
▁dém 1
▁pouco 1
▁राज्य 1
ضاء 1
บัติ 1
සි 1
ристову 1
▁лице 1
▁quo 1
كا 1
▁znaj 1
тельные 1
zett 1
▁करते 1
▁Christian 1
สิทธิ 1
▁events 1
52 1
▁Orig 1
้าว 1
வத 1
▁számára 1
▁rot 1
酒店 1
сөн 1
▁दिव 1
ปัญ 1
voja 1
▁토 1
▁электрон 1
▁kwi 1
umin 1
▁eikä 1
▁bonne 1
▁موس 1
▁hoog 1
▁agent 1
▁которое 1
▁Len 1
▁کوئی 1
iha 1
▁Kj 1
▁שלו 1
▁2009. 1
ቶች 1
CR 1
▁커 1
▁بانک 1
ίνεται 1
▁vẻ 1
յանի 1
ვნ 1
▁propi 1
▁travel 1
ðs 1
nydd 1
▁pitää 1
▁byla 1
▁здій 1
lardan 1
ทะ 1
▁සැ 1
▁dnes 1
েলা 1
▁Sn 1
▁sumber 1
▁использовать 1
pok 1
irati 1
гие 1
▁низ 1
▁sendo 1
▁वै 1
▁купить 1
▁membeli 1
▁szczeg 1
▁stup 1
▁bruker 1
ెట్ 1
▁ሊ 1
egur 1
▁xar 1
▁arrang 1
مو 1
▁Đồng 1
्ल 1
なくな 1
真正 1
ющего 1
▁озна 1
▁Ug 1
▁Zah 1
▁hét 1
ikuti 1
▁інших 1
скиот 1
▁diba 1
▁biri 1
▁ചെയ്യ 1
▁succes 1
सँग 1
▁chez 1
プリ 1
iev 1
▁weet 1
uris 1
▁اجرای 1
▁Chí 1
▁eles 1
▁varia 1
nę 1
▁parece 1
ajat 1
डियो 1
▁putem 1
▁zakon 1
▁technology 1
▁feed 1
ATI 1
▁picc 1
▁музы 1
▁Class 1
โป 1
▁לכל 1
వీ 1
两个 1
ຸດ 1
▁уви 1
σουμε 1
▁mitään 1
▁orient 1
▁جمهوری 1
стъп 1
▁ولكن 1
▁toti 1
umenti 1
▁ayn 1
сот 1
▁ordin 1
σετε 1
▁наших 1
▁qo 1
OY 1
untu 1
▁ελλην 1
▁קט 1
▁nuev 1
სახ 1
▁долго 1
дот 1
▁Lam 1
मन्त्री 1
▁Bundes 1
yaar 1
▁Hard 1
▁неу 1
▁thiện 1
▁ካብ 1
enso 1
▁Deus 1
mand 1
▁قدرت 1
യില 1
▁კომ 1
steder 1
▁стран 1
füg 1
▁തുട 1
andingan 1
▁بهترین 1
▁genau 1
▁investig 1
▁ţ 1
600 1
hai 1
കള് 1
ศาส 1
ปรสิต 1
λια 1
▁వీ 1
ability 1
有的 1
സം 1
шать 1
▁Great 1
▁hir 1
दर् 1
teva 1
ہم 1
▁Pus 1
▁Adam 1
汽车 1
▁apoi 1
μιουργ 1
▁bilər 1
▁רי 1
▁ලෙස 1
ќи 1
▁ملا 1
უშ 1
▁nincs 1
▁prendre 1
yder 1
▁alak 1
▁μπ 1
▁política 1
▁Cour 1
ತಿಯ 1
▁Tamb 1
กา 1
ѓу 1
▁поне 1
onne 1
▁network 1
▁sân 1
timos 1
▁hozzá 1
▁Entre 1
▁மீ 1
ಂಗ್ 1
▁Oy 1
▁کھ 1
▁cob 1
ıp 1
▁අය 1
ंह 1
▁ją 1
▁leid 1
▁Komis 1
▁negativ 1
мин 1
▁Global 1
ERE 1
▁kroz 1
最后 1
▁waxaa 1
kab 1
▁확인 1
BB 1
ezett 1
▁했 1
year 1
ρούν 1
▁були 1
cad 1
我国 1
kj 1
что 1
▁ensimmä 1
▁أف 1
ുവ 1
▁lao 1
สัง 1
ய் 1
ysi 1
▁பி 1
生命 1
▁výrob 1
ידע 1
▁gyda 1
▁Nev 1
▁Lak 1
▁quam 1
▁часть 1
▁act 1
мни 1
સ્ટ 1
▁Kinh 1
▁MAN 1
▁réalis 1
टि 1
▁اپنی 1
etim 1
கை 1
▁먹 1
úde 1
ข่าว 1
▁yılı 1
جي 1
▁proget 1
ველი 1
percaya 1
最大 1
ەری 1
▁Hem 1
▁آزم 1
▁गर्नु 1
isher 1
▁área 1
▁מז 1
▁către 1
▁ٹی 1
▁hjemmes 1
bě 1
▁koris 1
sie 1
▁laptop 1
φυ 1
▁ahol 1
▁myself 1
거나 1
▁større 1
▁Dy 1
▁живе 1
ikos 1
shop 1
▁Daar 1
NET 1
tores 1
▁பதி 1
gak 1
▁проблема 1
ادل 1
▁Bagi 1
▁γε 1
▁відо 1
amatan 1
ίζει 1
▁vald 1
nus 1
▁doit 1
▁cosas 1
▁kog 1
价格 1
▁nt 1
▁six 1
מד 1
erad 1
▁innych 1
▁innen 1
nhold 1
▁depos 1
ێز 1
cev 1
▁enam 1
▁مرح 1
produc 1
▁demokrat 1
東京 1
さんの 1
▁Commun 1
▁gim 1
onders 1
ტერ 1
她的 1
▁meningkatkan 1
▁कार्यक्रम 1
nál 1
ynd 1
▁dimana 1
သာ 1
▁Elec 1
▁레 1
ienza 1
čně 1
дії 1
▁Nå 1
лых 1
▁Ã 1
▁versi 1
▁conj 1
▁انتظ 1
უთ 1
▁alın 1
▁scop 1
ינו 1
ownik 1
▁үйлд 1
▁decir 1
lok 1
▁በተ 1
▁тво 1
▁συμβ 1
▁warga 1
қса 1
лок 1
▁والے 1
ក្នុង 1
oute 1
▁Baru 1
▁ļ 1
▁ई 1
▁ශ 1
гон 1
erva 1
▁cât 1
ער 1
▁план 1
▁juta 1
▁deras 1
ումը 1
नाव 1
来越 1
ndag 1
▁záp 1
▁кома 1
▁நி 1
▁محل 1
लेल्या 1
ilən 1
▁مانند 1
有关 1
ത്രി 1
сування 1
كرد 1
واج 1
▁rond 1
▁مطال 1
aksanakan 1
malar 1
▁anden 1
▁proiect 1
intele 1
▁hizmet 1
deling 1
▁රට 1
▁चि 1
▁timpul 1
▁Buk 1
▁игро 1
unjukkan 1
▁पत्र 1
မိ 1
ใส่ 1
▁وک 1
estin 1
▁মু 1
тили 1
▁каб 1
▁trai 1
erik 1
期待 1
čet 1
▁ශ් 1
сил 1
ılmış 1
▁vinn 1
▁돌 1
▁processo 1
▁late 1
なければ 1
ไหน 1
▁സമ 1
▁eden 1
▁gep 1
▁sami 1
ಪಿ 1
▁ಅದ 1
▁μία 1
▁върху 1
▁ضد 1
▁чрез 1
кування 1
のに 1
▁צי 1
▁میل 1
▁práce 1
ijd 1
▁사진 1
orso 1
▁express 1
▁bele 1
いただ 1
▁property 1
▁Ath 1
▁öt 1
▁Sai 1
डि 1
сед 1
▁ବା 1
▁gand 1
模式 1
责任 1
Не 1
行政 1
▁komputer 1
▁Пі 1
▁કાર 1
▁לאחר 1
▁Model 1
▁konflik 1
▁පිළ 1
▁لط 1
лъ 1
▁arte 1
րամ 1
ūros 1
▁kawasan 1
urb 1
өнг 1
▁sehen 1
▁Sri 1
▁xo 1
ოდა 1
ாய் 1
anao 1
▁економі 1
راز 1
▁obec 1
venir 1
şik 1
tida 1
▁била 1
▁య 1
▁ដោយ 1
แต่ง 1
▁mów 1
▁Cette 1
▁193 1
▁ତା 1
▁цели 1
▁argument 1
apu 1
▁kër 1
igger 1
▁Зако 1
帮助 1
▁nuestros 1
▁μικ 1
▁дітей 1
▁współ 1
oš 1
▁fim 1
▁həy 1
▁Gan 1
лога 1
▁berat 1
ītā 1
▁אך 1
beg 1
▁каса 1
▁అవ 1
దే 1
▁سفر 1
▁occas 1
рос 1
▁총 1
adii 1
ināj 1
▁фотографи 1
▁Bắc 1
▁UP 1
້ອງ 1
▁25, 1
ларни 1
sar 1
▁Nyt 1
▁finansi 1
ických 1
ੰਗ 1
▁hear 1
▁najlep 1
كس 1
▁helst 1
kend 1
▁august 1
jm 1
▁drog 1
▁medical 1
▁OB 1
▁kommentarer 1
▁hukum 1
บิน 1
ทํางาน 1
ວງ 1
▁marc 1
ieke 1
▁демо 1
▁опти 1
関係 1
▁trim 1
▁entrepr 1
▁준 1
▁peque 1
льку 1
▁source 1
แจ 1
σίας 1
yə 1
▁שלה 1
cier 1
▁2012, 1
▁kvinder 1
▁rapport 1
▁Ukra 1
িনি 1
голе 1
▁dél 1
▁исклю 1
▁savoir 1
▁телефон 1
▁positive 1
▁ସମ 1
▁tote 1
▁Esper 1
▁deja 1
▁nodig 1
▁datos 1
чну 1
สอง 1
▁ത്ത 1
▁перио 1
▁awọn 1
▁minu 1
▁καθώς 1
▁Hit 1
raa 1
▁precum 1
メール 1
越来越 1
▁iPad 1
chos 1
uty 1
пуск 1
▁trách 1
umos 1
▁dövlət 1
▁بها 1
usion 1
▁фил 1
ιβ 1
ανα 1
uler 1
▁grote 1
owana 1
▁unit 1
▁தமிழ் 1
設定 1
дии 1
▁राम 1
▁Fund 1
▁diye 1
▁djel 1
▁választ 1
zení 1
▁авгу 1
▁outras 1
ခံ 1
▁cuc 1
▁utveckl 1
ləş 1
rote 1
▁mellett 1
pdf 1
ែន 1
▁між 1
▁ඔහු 1
▁cell 1
▁повідом 1
▁خانو 1
▁реше 1
జీ 1
IND 1
▁exempl 1
▁содержа 1
๊ก 1
viet 1
ាជ 1
▁erbjud 1
▁কম 1
▁серед 1
▁drink 1
ພາ 1
▁τρό 1
▁теперь 1
报道 1
azar 1
ojas 1
шого 1
NC 1
▁ਸੀ 1
лекс 1
chio 1
▁tém 1
▁Ке 1
▁ME 1
▁იყო 1
anner 1
▁szín 1
▁ສະ 1
▁plusieurs 1
▁Герма 1
▁Thiết 1
▁kiedy 1
▁iza 1
▁عمر 1
▁falta 1
elte 1
cza 1
▁Norm 1
▁особи 1
льки 1
▁trắng 1
▁vall 1
emplo 1
▁obsah 1
▁further 1
▁ընդ 1
?」 1
фу 1
▁Dien 1
▁профи 1
▁тысяч 1
▁וח 1
emek 1
▁پژ 1
▁засто 1
▁centrum 1
▁aihe 1
いう 1
▁ən 1
rant 1
HT 1
2010 1
▁otras 1
ilə 1
▁этим 1
▁būt 1
▁primeiro 1
terna 1
лению 1
▁للت 1
มาณ 1
▁lika 1
▁banc 1
▁دقی 1
▁हुआ 1
▁futuro 1
▁76 1
▁Ill 1
ائر 1
▁ait 1
fj 1
spr 1
▁menerima 1
▁વધ 1
overno 1
▁парла 1
▁kohta 1
iaan 1
▁hå 1
ādi 1
▁hiss 1
▁сө 1
▁ozn 1
▁стране 1
▁sess 1
▁demikian 1
센터 1
льність 1
asha 1
▁expert 1
▁베 1
手机 1
раг 1
▁வை 1
ім 1
▁jira 1
रु 1
▁کامل 1
▁vreme 1
որհ 1
ðir 1
▁trag 1
成立 1
▁gros 1
▁circa 1
▁ју 1
вайте 1
▁paket 1
▁повто 1
▁kompon 1
ברי 1
▁24, 1
▁prea 1
▁partie 1
▁которого 1
▁spus 1
▁наличи 1
▁ώ 1
ukun 1
▁zim 1
افة 1
▁spok 1
reto 1
OO 1
▁tac 1
▁bruger 1
▁tatt 1
▁пись 1
taz 1
▁dalle 1
TML 1
ऱ्या 1
▁৩ 1
▁daugiau 1
▁nosso 1
▁collec 1
▁commen 1
okka 1
onse 1
▁envi 1
רכת 1
ubre 1
eru 1
μος 1
▁spole 1
▁Kart 1
ובר 1
相談 1
▁مقام 1
▁Seite 1
▁זאת 1
bab 1
▁დე 1
▁തന്നെ 1
utuhkan 1
ИЯ 1
▁introduc 1
▁menyebabkan 1
біль 1
ваний 1
▁Milli 1
▁विक 1
▁Спа 1
▁можуть 1
пис 1
▁allerede 1
ţiei 1
était 1
▁करो 1
జా 1
▁location 1
▁IL 1
▁клю 1
▁зае 1
▁ניתן 1
siä 1
▁düzen 1
elmä 1
▁წლის 1
▁මට 1
▁ទី 1
огодні 1
ৰু 1
vang 1
यक 1
▁Obama 1
▁Escort 1
▁그래 1
▁přes 1
wl 1
umia 1
▁drugih 1
▁omdat 1
▁kuj 1
atlan 1
wania 1
▁Oly 1
▁предме 1
house 1
▁използва 1
▁něk 1
amada 1
▁pengar 1
▁riz 1
▁покуп 1
ოლ 1
▁ட 1
▁aans 1
кому 1
ภั 1
▁느 1
▁ομά 1
րջ 1
▁Viet 1
కీ 1
▁కి 1
kara 1
▁२०७ 1
▁tidigare 1
▁මො 1
覺得 1
▁όλα 1
▁مشخص 1
▁stå 1
▁çek 1
стана 1
дет 1
pping 1
▁кога 1
ர்கள 1
▁பய 1
сама 1
▁υπό 1
▁Daca 1
igner 1
▁attention 1
caq 1
حدة 1
▁Times 1
▁LG 1
▁dòng 1
▁அறி 1
▁προβ 1
čil 1
▁वाले 1
▁जाए 1
ikali 1
▁kapit 1
▁השי 1
▁jusqu 1
▁педаго 1
или 1
ರಿಯ 1
fej 1
ahe 1
▁konkret 1
▁tél 1
▁desch 1
▁Ende 1
▁vold 1
▁Εκ 1
ตก 1
▁ਮੁ 1
▁brow 1
рует 1
өрийн 1
▁زي 1
▁trei 1
▁maail 1
നാ 1
▁Singap 1
роз 1
▁оши 1
You 1
▁nichts 1
▁önemli 1
▁panjang 1
izioni 1
▁6: 1
▁Kui 1
ներին 1
▁بودن 1
වන 1
▁KR 1
wikk 1
▁snak 1
▁blevet 1
สาย 1
▁Dist 1
▁സ്വ 1
▁제품 1
แม 1
ùi 1
▁Villa 1
autres 1
▁fø 1
ទ្ធ 1
▁fleste 1
▁erh 1
▁خوان 1
ద్య 1
ვალ 1
▁गई 1
▁♥ 1
श्य 1
▁дел 1
実際 1
▁temperatur 1
mək 1
▁γνω 1
იკ 1
▁European 1
ັ້ນ 1
": 1
AYA 1
▁White 1
ഷ്ട 1
▁таким 1
▁ён 1
記事 1
▁mä 1
▁Dumneze 1
3] 1
рио 1
▁Jar 1
▁(9 1
▁lans 1
男性 1
生的 1
▁వ్య 1
ibile 1
▁холбо 1
്ല 1
บล 1
▁mengel 1
▁ghi 1
▁cadrul 1
viz 1
場所 1
▁OF 1
▁Nel 1
▁Гра 1
▁alkalmaz 1
angun 1
▁user 1
▁xét 1
เหมือน 1
▁campo 1
▁बार 1
▁민 1
▁Александ 1
ينا 1
ਾਈ 1
▁голе 1
ческая 1
عش 1
ುತ್ತದೆ 1
ábor 1
▁Vì 1
▁tuần 1
▁nied 1
▁hd 1
▁Bec 1
▁oldal 1
▁Fat 1
▁पार्टी 1
▁וי 1
သည်။ 1
ūra 1
šanai 1
▁때문에 1
▁Federal 1
fordr 1
kak 1
▁Donald 1
etail 1
▁30% 1
▁dekor 1
▁грн 1
▁Ху 1
▁privind 1
utet 1
▁mäng 1
▁افزار 1
ینگ 1
کیل 1
▁света 1
▁сказать 1
▁regional 1
▁Berg 1
▁hau 1
▁priser 1
-14 1
ismer 1
▁باشید 1
▁kondisi 1
itys 1
▁Ball 1
empatan 1
▁పే 1
ären 1
▁opg 1
▁ملک 1
▁употре 1
āp 1
સા 1
สถาน 1
800 1
င့် 1
▁тан 1
▁tehdä 1
وني 1
▁Fore 1
ありが 1
ийн 1
▁czł 1
▁също 1
ชอบ 1
▁ciudad 1
▁तीन 1
▁kerül 1
▁яких 1
▁Pur 1
▁امید 1
quis 1
▁отношения 1
▁деген 1
ızı 1
▁હોય 1
▁ilm 1
פשר 1
uters 1
▁treball 1
治療 1
▁práv 1
▁लेख 1
ିନ 1
▁મુ 1
继续 1
▁البته 1
rove 1
▁ish 1
ській 1
▁fase 1
xu 1
▁حی 1
....... 1
產品 1
▁ผม 1
ocrat 1
▁opportunity 1
eceğ 1
▁nimi 1
▁стату 1
ையா 1
ਦਰ 1
સે 1
ultan 1
fə 1
▁segunda 1
▁campa 1
下さい 1
мыз 1
▁لازم 1
▁progress 1
dasarkan 1
рение 1
ėtų 1
ğun 1
▁využ 1
▁протя 1
▁dolgo 1
▁sales 1
▁SL 1
▁Δια 1
▁avons 1
▁imaju 1
oles 1
设备 1
▁opsies 1
úk 1
保护 1
▁พระ 1
шую 1
ingk 1
▁atrav 1
事情 1
▁متعلق 1
▁listen 1
ວກ 1
сін 1
▁urma 1
▁Chúng 1
▁verz 1
scribe 1
igli 1
olution 1
▁애 1
▁диа 1
onk 1
▁ilmu 1
▁κυβ 1
▁ži 1
▁انہ 1
▁Kü 1
▁сли 1
ಿದ್ದು 1
▁wall 1
▁다양한 1
▁amount 1
▁mại 1
κού 1
غم 1
တို 1
▁حوزه 1
ことに 1
wsze 1
แผ 1
▁친 1
▁wajah 1
wm 1
▁آسی 1
cje 1
▁haqq 1
▁여행 1
▁takie 1
cing 1
▁yana 1
▁ПО 1
▁nesta 1
цый 1
▁susp 1
▁дока 1
▁další 1
▁Ost 1
▁hore 1
▁vede 1
▁agama 1
▁Ո 1
чени 1
adis 1
▁αφ 1
▁законода 1
ന്നും 1
▁Judi 1
▁Conc 1
▁เคร 1
يري 1
▁miten 1
اتو 1
▁protest 1
▁ಅವರ 1
▁approach 1
時代 1
▁فکر 1
вості 1
▁stem 1
stellen 1
▁125 1
▁dokon 1
タイ 1
्रीय 1
▁تط 1
aliland 1
▁blant 1
▁nilai 1
▁articol 1
โรคสะเก็ดเงิน 1
▁لر 1
▁легко 1
త్య 1
ēd 1
▁земе 1
▁portal 1
ственной 1
▁sådan 1
umpulan 1
จุ 1
▁SR 1
▁Fit 1
зка 1
щего 1
▁przygot 1
▁эту 1
保持 1
▁toki 1
τει 1
▁Има 1
äck 1
▁Island 1
ഴ് 1
fiz 1
чого 1
▁бүт 1
▁επικ 1
期間 1
▁gere 1
Advisor 1
▁방법 1
▁xəbər 1
を作 1
▁Espa 1
▁mùa 1
мор 1
ekv 1
более 1
▁salt 1
osit 1
▁ici 1
▁שם 1
acağ 1
້ງ 1
事件 1
будь 1
▁могат 1
▁Ort 1
主义 1
方案 1
ಹಿ 1
្ដ 1
▁نتی 1
skem 1
▁التح 1
ධ් 1
になって 1
▁fata 1
▁мъ 1
ുകള് 1
▁сол 1
▁cert 1
▁meio 1
রে 1
▁asemenea 1
▁īpa 1
▁éves 1
ukung 1
-30 1
тури 1
▁大 1
ństwa 1
▁충 1
▁لپ 1
hair 1
▁23, 1
Ба 1
зму 1
lei 1
बन् 1
▁учун 1
ıt 1
inky 1
可是 1
▁segala 1
▁spod 1
etés 1
▁Ata 1
ondere 1
жите 1
▁redan 1
▁ещё 1
▁خانواده 1
▁nhớ 1
▁IB 1
▁Cin 1
▁συμ 1
▁financial 1
▁wait 1
▁нада 1
▁gyermek 1
īgas 1
▁klin 1
ילים 1
inha 1
قيق 1
лаве 1
ijoje 1
▁συγ 1
▁رۆ 1
ватися 1
διο 1
▁Kup 1
▁feb 1
▁talo 1
ваются 1
ුම 1
родно 1
▁Bisa 1
एस 1
▁eins 1
▁سیاست 1
▁Кри 1
âne 1
▁gäller 1
▁vele 1
сме 1
nisse 1
აწ 1
▁Tes 1
ох 1
▁නෑ 1
▁KO 1
▁אז 1
。“ 1
wali 1
pul 1
▁cier 1
jedn 1
▁Ahmad 1
▁landet 1
▁energie 1
▁въпро 1
embe 1
++ 1
▁инстру 1
▁комента 1
▁رہے 1
▁оформ 1
чий 1
▁непри 1
▁pitä 1
▁bott 1
erie 1
▁неме 1
ثار 1
▁وقد 1
ítása 1
▁компью 1
▁এর 1
▁Pic 1
有人 1
▁contract 1
ekkel 1
সম 1
▁vốn 1
стран 1
▁trud 1
▁Ș 1
össä 1
▁figur 1
▁décou 1
东西 1
gis 1
▁prol 1
▁genera 1
brug 1
หญิง 1
فو 1
вае 1
▁Disk 1
▁Cro 1
▁coś 1
elee 1
ధ్య 1
atge 1
lığ 1
▁يو 1
▁ted 1
▁faci 1
্যে 1
årt 1
▁వై 1
простра 1
FC 1
▁oy 1
▁mindig 1
തിയ 1
▁lelaki 1
患者 1
▁rayon 1
▁girls 1
▁درمان 1
сны 1
▁possibile 1
ibar 1
▁جهانی 1
▁популяр 1
ρίες 1
▁JavaScript 1
▁Io 1
hend 1
▁сообще 1
▁løs 1
▁وقتی 1
时代 1
▁Гу 1
μαι 1
▁それ 1
▁snel 1
▁đoạn 1
راک 1
▁кры 1
▁liste 1
▁Berita 1
本当 1
rado 1
ではない 1
▁lupa 1
▁använda 1
ାତ 1
จัก 1
pers 1
▁bred 1
▁فایل 1
▁Зо 1
▁ವರ್ 1
сии 1
▁înc 1
ព្រ 1
▁член 1
δας 1
ätter 1
知识 1
cesso 1
▁році 1
بران 1
▁skin 1
igkeit 1
тири 1
▁семей 1
ická 1
ilmiş 1
▁βά 1
▁garant 1
andet 1
షన్ 1
utr 1
▁kilomet 1
▁Тре 1
▁verir 1
▁осуществля 1
рім 1
▁ries 1
сах 1
raga 1
zs 1
jena 1
▁다시 1
льному 1
▁Yesu 1
МИ 1
tact 1
▁потен 1
كية 1
▁मार् 1
▁uts 1
▁став 1
▁saman 1
ственных 1
▁មិន 1
每天 1
ధా 1
▁üle 1
▁30, 1
▁услуг 1
▁порта 1
licht 1
чатку 1
▁نفس 1
kis 1
ಾಂ 1
▁Upp 1
atore 1
▁partners 1
▁топ 1
▁Ray 1
▁създа 1
▁њи 1
▁näch 1
▁rū 1
▁incor 1
won 1
▁savu 1
不仅 1
тко 1
former 1
้าร 1
▁tine 1
▁പാ 1
▁areas 1
xima 1
▁bú 1
▁대해 1
▁Tat 1
▁daudz 1
usse 1
бата 1
▁שת 1
зах 1
▁fís 1
▁lamp 1
▁북 1
▁совершен 1
slu 1
▁khỏi 1
開催 1
lø 1
雖然 1
AST 1
ოფ 1
▁Tv 1
ંચ 1
資料 1
ejo 1
▁Nhi 1
ว่าจะ 1
▁Make 1
ंगा 1
atelj 1
▁engine 1
▁después 1
▁또한 1
▁Nig 1
▁nostri 1
To 1
▁जिस 1
▁asc 1
▁കാണ 1
Eur 1
▁İş 1
▁előtt 1
▁sähkö 1
nite 1
▁वह 1
▁grö 1
▁novembre 1
▁୧ 1
θρω 1
▁zahr 1
▁الآ 1
▁required 1
プロ 1
otros 1
▁prakti 1
üler 1
▁عمومی 1
▁😀 1
▁minutos 1
▁İn 1
▁еле 1
▁takes 1
▁ਸਮ 1
kning 1
▁Trường 1
▁1500 1
▁terlihat 1
▁tavo 1
▁представля 1
νώ 1
▁usar 1
▁spra 1
▁София 1
▁aunque 1
▁confr 1
▁பட 1
▁qur 1
ebutuhan 1
▁hii 1
▁тури 1
▁ನಿರ್ 1
Pr 1
ரும் 1
yük 1
്യാ 1
กล้ 1
wers 1
▁chod 1
▁(...) 1
र्त 1
ichen 1
▁сказал 1
azan 1
▁cazul 1
engo 1
ilas 1
▁توانید 1
▁macht 1
▁lét 1
▁вопросы 1
▁nhật 1
▁Thị 1
71 1
ေတာ 1
▁forte 1
▁naam 1
▁bēr 1
▁trận 1
кім 1
▁tarih 1
โก 1
áh 1
▁Ord 1
效果 1
▁pasado 1
▁tidur 1
▁stadig 1
▁ውስጥ 1
سەر 1
▁شورای 1
▁mille 1
▁آد 1
ילות 1
▁काय 1
ods 1
rekt 1
بير 1
UY 1
2011 1
▁لینک 1
ykl 1
idaan 1
ెక్ 1
▁කෙ 1
დგ 1
▁Ռ 1
▁dun 1
▁center 1
▁რომელიც 1
目标 1
บาล 1
できない 1
тні 1
вез 1
▁lệ 1
状態 1
KL 1
hto 1
▁1995 1
щі 1
ฟ้า 1
tager 1
▁mikä 1
▁곳 1
ಳೆ 1
▁KL 1
лизации 1
▁SER 1
พอ 1
ymas 1
ljed 1
▁सकते 1
▁علمی 1
andang 1
▁fazla 1
▁Під 1
单位 1
▁cael 1
▁tuyển 1
ωνα 1
▁ទៅ 1
▁altre 1
▁hev 1
▁پیر 1
▁mechan 1
Co 1
▁filme 1
▁اینتر 1
▁target 1
हरी 1
▁road 1
ಡೆಯ 1
▁Yah 1
▁آمد 1
omer 1
▁ngoại 1
ityks 1
▁fær 1
parti 1
▁Dương 1
falls 1
▁euch 1
gon 1
▁nekaj 1
ટી 1
▁MM 1
▁NATO 1
▁kud 1
աբեր 1
kea 1
czenia 1
▁Cit 1
zni 1
▁ჩემ 1
ína 1
eligt 1
▁however 1
▁neur 1
▁dul 1
▁đáp 1
utsche 1
Mar 1
▁그런 1
▁nàng 1
▁χώρα 1
▁رکھ 1
ammed 1
bly 1
▁Же 1
▁Hàn 1
▁இது 1
思い 1
▁mise 1
▁TripAdvisor 1
▁напря 1
▁ellos 1
▁مدل 1
σταση 1
▁될 1
лить 1
▁بهتر 1
خدم 1
shme 1
▁sjuk 1
▁विकास 1
▁muncul 1
▁գր 1
▁چشم 1
จุด 1
گیر 1
ampak 1
▁موفق 1
01 1
વું 1
▁كۆ 1
▁pó 1
▁systém 1
しない 1
▁trabaj 1
ాలా 1
随着 1
uva 1
▁punkt 1
▁‬ 1
が出 1
▁فيها 1
▁aliqu 1
▁ճ 1
appen 1
▁Jeśli 1
▁일본 1
▁seiner 1
▁présent 1
▁відкри 1
▁verl 1
เคย 1
▁Ax 1
▁বিশ্ব 1
▁människor 1
ესი 1
▁конф 1
низа 1
▁મળ 1
▁Dor 1
▁membawa 1
▁sund 1
▁вку 1
ورش 1
▁lạnh 1
▁Hercegov 1
▁sest 1
▁เจ 1
ennen 1
лана 1
ebil 1
▁أع 1
ონი 1
รวม 1
▁thiếu 1
▁lanjut 1
δό 1
▁أكثر 1
▁всичко 1
▁εκεί 1
▁alo 1
▁து 1
▁cộng 1
ธุ 1
▁праці 1
▁quindi 1
lą 1
▁Cond 1
.2 1
▁religi 1
▁दू 1
uin 1
기도 1
aken 1
τουργ 1
▁bied 1
KO 1
▁Зна 1
▁комплек 1
▁охо 1
SD 1
▁vòng 1
▁reag 1
▁використову 1
然后 1
▁ones 1
▁eksper 1
改善 1
▁7- 1
자가 1
сыз 1
▁Cla 1
▁Every 1
heds 1
▁behandling 1
▁chồng 1
业务 1
▁RSS 1
▁дре 1
▁зара 1
▁84 1
▁offers 1
ریب 1
jonen 1
▁તમા 1
▁základ 1
▁질 1
▁آش 1
▁किसी 1
▁aggi 1
▁račun 1
▁tanggal 1
▁bastante 1
үүр 1
▁selec 1
▁szolgáltat 1
操作 1
ēju 1
▁Fan 1
jeć 1
الف 1
▁wied 1
▁enfants 1
▁appre 1
▁wszystko 1
▁ақ 1
▁любой 1
lection 1
▁insurance 1
▁عدد 1
另外 1
ட்டி 1
eline 1
▁საქართველოს 1
օր 1
▁감사 1
▁Zar 1
▁wollen 1
▁Tây 1
גד 1
тельного 1
▁ඇත 1
▁cinta 1
▁chạy 1
alna 1
▁যে 1
▁casos 1
▁morning 1
▁CC 1
▁вона 1
คง 1
λης 1
▁tô 1
ขอ 1
ying 1
aho 1
ديد 1
ältä 1
▁pip 1
▁тога 1
يلة 1
▁бри 1
เทพ 1
rän 1
itse 1
▁jong 1
▁among 1
▁یعنی 1
టర్ 1
▁pozi 1
▁ihn 1
▁արդ 1
porto 1
ниот 1
się 1
▁legge 1
介绍 1
гы 1
වස 1
lés 1
ăto 1
говори 1
▁Fal 1
▁tuh 1
osos 1
▁vaše 1
▁PD 1
▁मत 1
▁2008. 1
▁svært 1
▁kích 1
оп 1
מע 1
▁شکل 1
▁كە 1
▁Nai 1
發現 1
зии 1
▁druga 1
াড় 1
▁Hän 1
▁воло 1
খন 1
empor 1
▁සඳහා 1
▁информацию 1
▁debat 1
▁dific 1
არგ 1
▁ISO 1
▁graag 1
▁đông 1
▁swoj 1
▁Tuhan 1
éra 1
▁جل 1
ukseen 1
▁наступ 1
▁ministr 1
▁يك 1
ଥିଲେ 1
▁فرهنگی 1
▁1996 1
的新 1
▁šo 1
▁skall 1
▁Πολ 1
คุ 1
▁valst 1
amma 1
▁конку 1
▁edit 1
▁ਡ 1
▁Ана 1
KH 1
▁Læs 1
▁Dacă 1
▁Quando 1
▁potrzeb 1
เติม 1
▁هغه 1
▁CV 1
ilet 1
▁خلاف 1
▁sebenarnya 1
▁þú 1
▁minimal 1
▁밝 1
องค์ 1
▁inay 1
▁mettre 1
▁이번 1
▁fans 1
的话 1
▁regr 1
▁yapt 1
Po 1
▁ew 1
ieri 1
▁تماس 1
▁برابر 1
ilat 1
ਰੇ 1
▁बारे 1
ummer 1
▁ምስ 1
▁என்ப 1
くらい 1
▁esz 1
więks 1
▁иску 1
▁faktisk 1
▁rež 1
▁zin 1
人们 1
ához 1
▁Tay 1
ẹn 1
чается 1
▁possono 1
リア 1
▁runt 1
▁aument 1
කර 1
▁상품 1
ನಿ 1
τεύ 1
iciones 1
▁అను 1
▁бъдат 1
▁saker 1
tory 1
▁Bali 1
▁Sø 1
ordi 1
▁گفته 1
્રે 1
▁Russ 1
▁வாழ 1
▁இருக்க 1
ilang 1
▁Why 1
asiswa 1
▁дете 1
্যাল 1
lif 1
petto 1
atī 1
ева 1
▁වගේ 1
▁ಗೆ 1
гледа 1
▁зам 1
▁Musta 1
▁ష 1
▁ама 1
▁condition 1
သား 1
▁decision 1
ەڕ 1
▁train 1
▁Call 1
▁mesta 1
wag 1
द्र 1
▁quella 1
▁hyv 1
ileg 1
▁imi 1
িজ 1
тать 1
▁verkligen 1
▁police 1
▁gled 1
ებულ 1
▁hjälp 1
əq 1
ompok 1
atives 1
ئي 1
▁ราย 1
▁nõ 1
▁iub 1
▁cancer 1
▁غذ 1
либо 1
▁(" 1
▁אחרי 1
▁කාල 1
ิส 1
▁võimal 1
ภัย 1
σμα 1
ଧ୍ୟ 1
льне 1
plet 1
▁দেখ 1
▁δυνα 1
▁3000 1
▁जे 1
ynek 1
reme 1
ліся 1
▁estab 1
sr 1
▁podemos 1
▁mềm 1
▁chce 1
vě 1
▁Ông 1
▁لوگ 1
тет 1
тых 1
▁Strateg 1
▁offic 1
▁74 1
▁appr 1
öra 1
▁erfar 1
นะนํา 1
▁robi 1
▁برگزار 1
▁अध्यक्ष 1
かもしれません 1
ម្ប 1
klju 1
▁01. 1
▁Kok 1
리를 1
▁bry 1
▁prix 1
▁stark 1
▁стала 1
▁مدت 1
▁클 1
▁Вар 1
▁այլ 1
▁Thema 1
▁dług 1
结果 1
yay 1
▁worth 1
▁ଘ 1
▁hiç 1
▁konkurs 1
▁knowledge 1
eph 1
доо 1
▁göster 1
▁televiz 1
▁эм 1
▁квали 1
具体 1
▁osoby 1
▁Nama 1
▁trái 1
impin 1
GP 1
posti 1
▁عبدال 1
▁дү 1
▁odre 1
ujen 1
▁hér 1
▁respond 1
▁플 1
▁Bok 1
▁æ 1
سال 1
▁hoc 1
▁ची 1
▁دنبال 1
āla 1
▁Fun 1
ೂರು 1
ക്കാ 1
ДЕ 1
▁新 1
▁memas 1
▁Шу 1
▁opt 1
▁вар 1
▁სას 1
▁mida 1
گي 1
ოლი 1
ორი 1
izar 1
▁favorite 1
дээ 1
▁hòa 1
▁added 1
네요 1
ົມ 1
▁Muj 1
▁vode 1
აღ 1
مند 1
▁పు 1
▁स्ट 1
▁인터 1
omor 1
λό 1
▁ਆਪ 1
què 1
▁Australia 1
▁mall 1
▁Medi 1
▁batter 1
▁Rab 1
ต่างๆ 1
!」 1
▁Hvad 1
▁സു 1
дете 1
ané 1
▁̃ 1
▁należy 1
▁correct 1
▁ಮೊ 1
attle 1
ระดับ 1
▁ley 1
luss 1
▁Также 1
어요 1
▁forex 1
▁kasv 1
▁चल 1
arto 1
erin 1
▁หน้า 1
స్థ 1
▁ለመ 1
▁Shop 1
▁बन 1
▁roh 1
ността 1
▁priprav 1
मंत्री 1
issance 1
hii 1
▁mån 1
▁цена 1
▁security 1
ደረ 1
зяй 1
isku 1
▁خاطر 1
▁charge 1
았다 1
ádza 1
දේ 1
јте 1
cen 1
▁ناو 1
▁것으로 1
▁Hid 1
nienia 1
▁stres 1
ပြီး 1
▁nus 1
▁какие 1
▁ALL 1
▁MED 1
▁Mw 1
نى 1
Man 1
▁learning 1
▁Arm 1
▁TI 1
▁होने 1
īm 1
यन 1
▁Pov 1
▁ofre 1
▁corpo 1
ellement 1
▁îns 1
▁кафе 1
▁SW 1
▁زمین 1
न्स 1
▁Spiel 1
ара 1
▁предостав 1
તું 1
ährend 1
▁сигу 1
▁düşün 1
▁Komment 1
▁ambiente 1
▁predsjed 1
immer 1
▁моби 1
بية 1
▁oblik 1
▁تغییر 1
στό 1
гам 1
▁FM 1
▁túl 1
▁наблю 1
ฏิ 1
▁తన 1
▁Tol 1
ánt 1
▁حاض 1
▁قسمت 1
zenta 1
▁проблеми 1
▁حدود 1
rus 1
િવ 1
▁əsas 1
▁schnell 1
▁xanh 1
ിക്കുന്ന 1
ivanje 1
ोन 1
▁gondol 1
▁האח 1
▁moral 1
щей 1
▁daya 1
▁vuonna 1
▁ໄ 1
aff 1
▁ئا 1
▁означа 1
旅行 1
▁ថា 1
▁نقش 1
▁өт 1
adka 1
▁kvar 1
▁deep 1
უბ 1
▁سوی 1
▁warm 1
▁foot 1
ျဖ 1
▁ard 1
▁ovo 1
ડા 1
▁клас 1
▁pys 1
mee 1
▁стали 1
▁arbets 1
▁ир 1
▁73 1
▁fair 1
teborg 1
▁Ngoài 1
riff 1
▁нового 1
▁هەر 1
PO 1
▁უკ 1
حل 1
isce 1
▁nằm 1
▁söyl 1
▁כבר 1
▁którzy 1
▁náz 1
nb 1
▁прош 1
▁جميع 1
▁norma 1
ยุ 1
▁nė 1
ופן 1
ському 1
▁tầng 1
▁posible 1
▁Like 1
ölj 1
▁miễn 1
եզ 1
rač 1
▁چین 1
▁ይህ 1
▁intim 1
▁choose 1
▁звер 1
मुळे 1
▁Амери 1
▁Nek 1
▁mwen 1
▁København 1
พบ 1
As 1
▁vuotta 1
ícia 1
▁giác 1
▁лока 1
▁MAS 1
▁moje 1
وەی 1
▁employe 1
▁ඕ 1
▁toi 1
▁мира 1
ప్పుడు 1
▁holde 1
▁immedi 1
พวก 1
ंग्रेस 1
лэх 1
onnement 1
▁Wall 1
पन 1
કી 1
[...]
